<pad>	0
<unk>	0
<s>	0
</s>	0
<0x00>	0
<0x01>	0
<0x02>	0
<0x03>	0
<0x04>	0
<0x05>	0
<0x06>	0
<0x07>	0
<0x08>	0
<0x09>	0
<0x0A>	0
<0x0B>	0
<0x0C>	0
<0x0D>	0
<0x0E>	0
<0x0F>	0
<0x10>	0
<0x11>	0
<0x12>	0
<0x13>	0
<0x14>	0
<0x15>	0
<0x16>	0
<0x17>	0
<0x18>	0
<0x19>	0
<0x1A>	0
<0x1B>	0
<0x1C>	0
<0x1D>	0
<0x1E>	0
<0x1F>	0
<0x20>	0
<0x21>	0
<0x22>	0
<0x23>	0
<0x24>	0
<0x25>	0
<0x26>	0
<0x27>	0
<0x28>	0
<0x29>	0
<0x2A>	0
<0x2B>	0
<0x2C>	0
<0x2D>	0
<0x2E>	0
<0x2F>	0
<0x30>	0
<0x31>	0
<0x32>	0
<0x33>	0
<0x34>	0
<0x35>	0
<0x36>	0
<0x37>	0
<0x38>	0
<0x39>	0
<0x3A>	0
<0x3B>	0
<0x3C>	0
<0x3D>	0
<0x3E>	0
<0x3F>	0
<0x40>	0
<0x41>	0
<0x42>	0
<0x43>	0
<0x44>	0
<0x45>	0
<0x46>	0
<0x47>	0
<0x48>	0
<0x49>	0
<0x4A>	0
<0x4B>	0
<0x4C>	0
<0x4D>	0
<0x4E>	0
<0x4F>	0
<0x50>	0
<0x51>	0
<0x52>	0
<0x53>	0
<0x54>	0
<0x55>	0
<0x56>	0
<0x57>	0
<0x58>	0
<0x59>	0
<0x5A>	0
<0x5B>	0
<0x5C>	0
<0x5D>	0
<0x5E>	0
<0x5F>	0
<0x60>	0
<0x61>	0
<0x62>	0
<0x63>	0
<0x64>	0
<0x65>	0
<0x66>	0
<0x67>	0
<0x68>	0
<0x69>	0
<0x6A>	0
<0x6B>	0
<0x6C>	0
<0x6D>	0
<0x6E>	0
<0x6F>	0
<0x70>	0
<0x71>	0
<0x72>	0
<0x73>	0
<0x74>	0
<0x75>	0
<0x76>	0
<0x77>	0
<0x78>	0
<0x79>	0
<0x7A>	0
<0x7B>	0
<0x7C>	0
<0x7D>	0
<0x7E>	0
<0x7F>	0
<0x80>	0
<0x81>	0
<0x82>	0
<0x83>	0
<0x84>	0
<0x85>	0
<0x86>	0
<0x87>	0
<0x88>	0
<0x89>	0
<0x8A>	0
<0x8B>	0
<0x8C>	0
<0x8D>	0
<0x8E>	0
<0x8F>	0
<0x90>	0
<0x91>	0
<0x92>	0
<0x93>	0
<0x94>	0
<0x95>	0
<0x96>	0
<0x97>	0
<0x98>	0
<0x99>	0
<0x9A>	0
<0x9B>	0
<0x9C>	0
<0x9D>	0
<0x9E>	0
<0x9F>	0
<0xA0>	0
<0xA1>	0
<0xA2>	0
<0xA3>	0
<0xA4>	0
<0xA5>	0
<0xA6>	0
<0xA7>	0
<0xA8>	0
<0xA9>	0
<0xAA>	0
<0xAB>	0
<0xAC>	0
<0xAD>	0
<0xAE>	0
<0xAF>	0
<0xB0>	0
<0xB1>	0
<0xB2>	0
<0xB3>	0
<0xB4>	0
<0xB5>	0
<0xB6>	0
<0xB7>	0
<0xB8>	0
<0xB9>	0
<0xBA>	0
<0xBB>	0
<0xBC>	0
<0xBD>	0
<0xBE>	0
<0xBF>	0
<0xC0>	0
<0xC1>	0
<0xC2>	0
<0xC3>	0
<0xC4>	0
<0xC5>	0
<0xC6>	0
<0xC7>	0
<0xC8>	0
<0xC9>	0
<0xCA>	0
<0xCB>	0
<0xCC>	0
<0xCD>	0
<0xCE>	0
<0xCF>	0
<0xD0>	0
<0xD1>	0
<0xD2>	0
<0xD3>	0
<0xD4>	0
<0xD5>	0
<0xD6>	0
<0xD7>	0
<0xD8>	0
<0xD9>	0
<0xDA>	0
<0xDB>	0
<0xDC>	0
<0xDD>	0
<0xDE>	0
<0xDF>	0
<0xE0>	0
<0xE1>	0
<0xE2>	0
<0xE3>	0
<0xE4>	0
<0xE5>	0
<0xE6>	0
<0xE7>	0
<0xE8>	0
<0xE9>	0
<0xEA>	0
<0xEB>	0
<0xEC>	0
<0xED>	0
<0xEE>	0
<0xEF>	0
<0xF0>	0
<0xF1>	0
<0xF2>	0
<0xF3>	0
<0xF4>	0
<0xF5>	0
<0xF6>	0
<0xF7>	0
<0xF8>	0
<0xF9>	0
<0xFA>	0
<0xFB>	0
<0xFC>	0
<0xFD>	0
<0xFE>	0
<0xFF>	0
.	-2.939
,	-4.14304
ට	-4.39119
ය	-4.91355
ේ	-4.94172
ක්	-4.94573
ම	-5.02647
▁ඒ	-5.05621
▁මේ	-5.06374
ද	-5.31151
ව	-5.32303
ත්	-5.37952
යි	-5.51201
▁ද	-5.65212
▁සහ	-5.67328
▁ඇති	-5.68896
ක	-5.74124
ෙන්	-5.75518
න්	-5.78393
▁හා	-5.86845
ගේ	-5.87219
▁නම්	-5.87937
▁කර	-5.88339
▁එක	-5.88364
?	-5.95014
▁මම	-5.95267
▁වන	-5.99005
▁බව	-6.0074
▁කළ	-6.0271
ා	-6.05539
▁කරන	-6.06111
▁ගැන	-6.06199
▁අතර	-6.09372
▁නිසා	-6.1024
▁ය	-6.11939
▁එය	-6.12738
▁සඳහා	-6.14731
▁වූ	-6.20096
▁අපි	-6.20221
▁ලෙස	-6.21936
▁මෙම	-6.3148
▁ඇත	-6.31551
්	-6.31567
▁කරන්න	-6.32211
▁හෝ	-6.32949
▁(	-6.34814
න	-6.35168
▁විය	-6.36857
▁මට	-6.37172
▁ම	-6.37793
යක්	-6.40149
▁ඔබ	-6.4119
▁කියලා	-6.4152
▁-	-6.4326
▁ඔහු	-6.45066
)	-6.46778
▁කිරීම	-6.49171
▁දී	-6.50249
▁නෑ	-6.50256
ෙ	-6.50579
▁.	-6.52701
වා	-6.55317
ස්	-6.56961
▁විට	-6.58342
▁වී	-6.60048
▁හැකි	-6.60286
කි	-6.61322
▁වේ	-6.62185
▁එම	-6.62926
කට	-6.64092
ල	-6.64432
▁තමයි	-6.65052
▁යන	-6.65508
▁නැහැ	-6.66263
▁අපේ	-6.66417
▁වගේ	-6.66974
ලා	-6.68823
▁කිරීමට	-6.69062
▁දැන්	-6.73357
ු	-6.73475
යේ	-6.74314
▁මා	-6.75217
▁මගේ	-6.75912
▁ක්	-6.76119
වල	-6.77553
▁විසින්	-6.7776
▁,	-6.781
▁අප	-6.79553
ල්	-6.79923
▁ලබා	-6.80093
▁"	-6.83174
▁එකක්	-6.83463
▁අද	-6.85047
▁ගන්න	-6.88773
▁කියන	-6.8994
▁තුළ	-6.90231
▁නමුත්	-6.90726
▁වැඩි	-6.90871
යන්	-6.91184
▁නැති	-6.91612
ි	-6.92978
▁යුතු	-6.93059
▁වඩා	-6.93313
කින්	-6.93357
▁බොහෝ	-6.94479
▁අය	-6.95688
▁ගත	-6.9577
▁කතා	-6.96036
▁නො	-6.96428
වත්	-6.96431
▁ඔවුන්	-6.96625
▁වැඩ	-6.98367
යා	-6.99008
▁නැත	-7.01015
▁ඒක	-7.0141
ම්	-7.01436
▁එහි	-7.02134
▁හරි	-7.02267
▁යන්න	-7.02923
▁ගෙන	-7.03362
▁අනුව	-7.03498
ර	-7.03545
▁සිදු	-7.03971
:	-7.04106
ං	-7.04546
▁ඔබට	-7.05853
▁ක	-7.05991
▁වන්නේ	-7.07254
▁පුළුවන්	-7.08984
▁:	-7.09693
යෙන්	-7.10214
▁වෙලා	-7.10276
ින්	-7.10809
▁වල	-7.1109
▁සමඟ	-7.11439
-	-7.12182
ත	-7.1241
!	-7.12996
▁තවත්	-7.13634
▁එක්	-7.14556
▁ව	-7.14937
▁කරන්නේ	-7.15042
▁වෙනවා	-7.15228
▁කියල	-7.16476
▁කටයුතු	-7.16696
▁සිට	-7.182
▁මත	-7.18459
ී	-7.1947
යට	-7.19525
▁පත්	-7.19559
හ	-7.21268
▁තියෙනවා	-7.21305
▁ශ්‍රී	-7.21806
වලට	-7.22417
▁අ	-7.22542
ෙහි	-7.22685
ස	-7.22772
▁එහෙම	-7.2312
▁ගැනීමට	-7.23287
▁පෙර	-7.24716
ෝ	-7.25148
▁පසු	-7.25223
▁ඔබේ	-7.25839
▁දේ	-7.26
ක්‌	-7.26028
▁බවට	-7.26694
▁වශයෙන්	-7.26776
▁වෙන	-7.268
▁වෙන්න	-7.2682
▁තිබේ	-7.27283
▁ඔය	-7.28085
▁අපට	-7.28874
▁වැනි	-7.29767
▁කරනවා	-7.29837
▁දෙයක්	-7.30201
▁කියා	-7.31548
▁අවශ්‍ය	-7.31823
▁කියන්නේ	-7.32648
▁සමග	-7.3278
▁වලට	-7.32836
▁පිළිබඳ	-7.33341
▁දින	-7.33367
▁ඉන්න	-7.34208
▁තම	-7.35128
▁ඒවා	-7.35263
▁ඉතා	-7.35273
▁හැකිය	-7.35276
ගෙන්	-7.35879
▁ගැනීම	-7.35961
▁මෙය	-7.36226
▁හොඳ	-7.36233
වන	-7.37676
▁එක්ක	-7.38125
▁කල	-7.38467
▁කොට	-7.38526
ර්	-7.38995
නි	-7.39619
▁වීම	-7.39792
▁ඇය	-7.39892
▁රටේ	-7.39906
▁ඊට	-7.4019
▁ආ	-7.40491
නා	-7.41612
"	-7.41953
▁ඇත්තේ	-7.42409
ලි	-7.42517
▁මහ	-7.42629
▁වෙනස්	-7.43102
නේ	-7.43513
ණ	-7.43632
▁කරලා	-7.43898
▁අඩු	-7.44477
ති	-7.44477
▁කළා	-7.45555
▁නව	-7.45826
▁ට	-7.46038
ට්	-7.46209
▁වෙනුවෙන්	-7.46689
▁යි	-7.46724
▁යම්	-7.47529
▁ගිය	-7.48252
ගෙ	-7.48317
වූ	-7.48717
▁එහෙත්	-7.48808
▁කරයි	-7.49006
▁මං	-7.49406
▁නොවේ	-7.49756
▁ලද	-7.49985
▁ඔහුගේ	-7.50084
▁තියෙන	-7.50291
▁වගේම	-7.50947
▁සිටින	-7.51476
වේ	-7.52223
ප	-7.52448
ේදී	-7.52901
▁විශාල	-7.52993
▁ලංකාවේ	-7.53952
▁ඉතින්	-7.54731
වි	-7.55047
▁තිබෙනවා	-7.5507
▁වලින්	-7.55391
▁ස	-7.55902
▁පමණක්	-7.5603
▁ඒත්	-7.56052
▁රට	-7.5643
▁සිටි	-7.56856
▁සිය	-7.5762
යෝ	-7.58742
▁යුතුය	-7.5882
▁ජාතික	-7.58951
රි	-7.5928
▁වුණා	-7.59327
නම්	-7.59891
▁මහා	-7.59904
▁දෙන්න	-7.60204
▁හි	-7.60365
මි	-7.61124
▁සිංහල	-7.61382
▁ප	-7.6144
වලින්	-7.61539
▁එසේ	-7.62047
▁වි	-7.6236
▁අර	-7.62605
▁තව	-7.62874
දි	-7.633
▁යනු	-7.64434
▁මහතා	-7.64613
▁මේක	-7.6465
▁කරමින්	-7.64885
▁පසුව	-7.65787
▁තරම්	-7.65936
▁කළේ	-7.66014
▁ගේ	-7.66026
රා	-7.66048
සි	-7.66139
▁වෙත	-7.6617
▁ගමන්	-7.66221
▁භාවිතා	-7.66321
▁වහන්සේ	-7.6652
▁පමණ	-7.66665
ගෙන	-7.66721
▁දේවල්	-7.66792
▁කියන්න	-7.66821
▁කාලය	-7.67394
▁ටික	-7.67538
▁ඕන	-7.67559
▁නැවත	-7.67562
▁කෙනෙක්	-7.68162
▁එකේ	-7.68291
▁තමා	-7.68415
වී	-7.68652
▁දක්වා	-7.69958
කර	-7.70202
▁සමහර	-7.70325
▁වසර	-7.7062
▁සඳහන්	-7.71161
▁අපිට	-7.71941
දී	-7.72038
‍	-7.72586
▁සියලු	-7.72617
▁යැයි	-7.72943
පු	-7.75096
▁විවිධ	-7.75385
▁නොව	-7.7547
▁දේශපාලන	-7.76202
▁වෙනත්	-7.76474
▁වෙයි	-7.76693
▁හැම	-7.76876
▁කට	-7.76993
▁පටන්	-7.77048
▁කතාව	-7.77227
ටත්	-7.78325
▁අවුරුදු	-7.7839
▁දෙන	-7.78428
▁එකට	-7.78676
▁එන	-7.78848
▁ලොකු	-7.79027
▁බලන්න	-7.79034
▁සෑම	-7.79587
තා	-7.80428
▁නි	-7.80628
▁තිබෙන	-7.8069
▁ඉදිරිපත්	-7.81388
▁ගත්	-7.81395
ො	-7.82179
මා	-7.82602
▁ඔවුන්ගේ	-7.82669
▁ප්‍රධාන	-7.83234
▁පිළිබඳව	-7.83269
▁ලංකා	-7.83538
▁නිර්මාණය	-7.83935
▁මුදල්	-7.84183
හි	-7.84399
▁තියෙන්නේ	-7.84669
▁සම්බන්ධ	-7.84776
ලු	-7.84882
▁වැදගත්	-7.85124
▁/	-7.85438
න්ට	-7.85723
▁වූයේ	-7.86242
▁බැරි	-7.86341
▁හ	-7.86367
ග	-7.86496
බ	-7.87231
▁ගෙදර	-7.87239
▁මගින්	-7.87416
නෙ	-7.87501
▁අදහස්	-7.87553
▁මාධ්‍ය	-7.8808
▁තමන්	-7.88151
▁එකතු	-7.88264
ඩ්	-7.88318
▁'	-7.88549
▁බවත්	-7.89268
▁බවයි	-7.89326
▁ජනතාව	-7.89375
▁දැන	-7.895
▁සමාජ	-7.89507
කා	-7.90047
‌	-7.907
යෙක්	-7.9095
▁නොහැකි	-7.9111
ැ	-7.92498
▁වෙන්නේ	-7.92632
▁ගොඩක්	-7.93048
▁පවා	-7.93073
▁ඉන්	-7.93431
▁බලා	-7.937
▁ඉ	-7.9389
▁සොයා	-7.94176
▁කිරීමේ	-7.94327
▁හරහා	-7.94495
▁මෙහි	-7.94695
▁ඇත්ත	-7.94976
▁මෙන්ම	-7.9516
▁	-7.9543
▁නොවන	-7.95447
▁අවසන්	-7.95571
ගත	-7.95956
▁සහිත	-7.96056
▁ඉඩ	-7.96371
▁කලින්	-7.96653
න්න	-7.96663
ූ	-7.96772
▁වාර්තා	-7.96806
▁රාජ්‍ය	-7.96962
▁කරනු	-7.97333
▁විදියට	-7.97541
කම	-7.97633
;	-7.97787
▁ඉහළ	-7.97967
▁විදිහට	-7.98088
▁ආහාර	-7.98237
▁එපා	-7.98462
▁සේ	-7.98716
▁ගියා	-7.99561
ිය	-7.99807
▁කෙසේ	-8.00027
▁යොමු	-8.00373
▁දෙක	-8.00381
▁ආරම්භ	-8.00561
▁මොකද	-8.01019
▁හිමි	-8.01536
▁ඔහුට	-8.01713
කු	-8.02172
▁වීමට	-8.0236
▁කුඩා	-8.02437
▁මෙසේ	-8.02443
▁කාලයක්	-8.02737
▁ජනාධිපති	-8.03023
▁කරගෙන	-8.04191
▁තමන්ගේ	-8.04232
▁නම	-8.04239
දා	-8.04333
රු	-8.04782
▁ගොඩ	-8.04798
ළ	-8.04799
▁පොඩි	-8.04972
▁?	-8.05116
ෙන	-8.0528
▁සම්බන්ධයෙන්	-8.05957
▁19	-8.0619
▁හැබැයි	-8.06236
▁පළමු	-8.06424
▁මෙන්	-8.06723
▁පවතින	-8.06867
▁අත	-8.07217
▁ඉවත්	-8.07275
▁ගන්නා	-8.07633
▁එ	-8.07717
▁එදා	-8.07804
▁මුල්	-8.07864
▁පස්සේ	-8.07917
හු	-8.0832
▁දෙකක්	-8.08375
▁විශේෂ	-8.08541
සා	-8.08611
නු	-8.08752
▁යුතුයි	-8.08934
▁ඇයි	-8.09056
අ	-8.09286
▁ටිකක්	-8.09311
වීම	-8.10158
▁අපගේ	-8.10182
▁එකම	-8.10384
▁බල	-8.1047
▁මුහුණ	-8.10534
▁ලෝක	-8.11001
▁අයට	-8.11226
ඩ	-8.11406
▁තොරතුරු	-8.11832
▁දිය	-8.12073
▁ගත්තා	-8.12087
▁ගොස්	-8.12341
▁න	-8.12596
යින්	-8.12788
වක්	-8.13228
▁පා	-8.13299
▁පසුගිය	-8.13536
▁එවැනි	-8.13602
ික	-8.13647
▁සම	-8.13797
▁ජීවත්	-8.13955
'	-8.13987
▁සියල්ල	-8.14179
▁පාලනය	-8.14376
▁ඉන්නවා	-8.14534
මය	-8.14613
මින්	-8.15016
▁මිල	-8.15236
▁ගිහින්	-8.15611
▁පරිදි	-8.15707
▁ඇතුළු	-8.15792
▁1	-8.16006
▁තුල	-8.16086
▁කැමති	-8.16385
කොට	-8.16399
වට	-8.166
▁කලා	-8.16904
තු	-8.1696
▁නේද	-8.17017
▁කි	-8.17287
▁බලය	-8.17953
▁ජීවිතය	-8.17975
▁සිත	-8.17992
▁ක්‍රියාත්මක	-8.18
▁නෙවෙයි	-8.18065
▁උ	-8.186
▁කරුණු	-8.18697
▁අලුත්	-8.18816
▁එන්න	-8.18968
විය	-8.19663
▁නිදහස්	-8.2015
▁ප්‍රකාශ	-8.20177
ත්වය	-8.20594
▁පුරා	-8.20685
▁මහින්ද	-8.20756
▁හිත	-8.20759
▁සාමාන්‍ය	-8.20844
▁තීරණය	-8.20877
▁යනවා	-8.21131
ප්	-8.21358
▁ආණ්ඩුව	-8.2165
▁බෑ	-8.21933
▁තැන	-8.22005
▁හේතුව	-8.22072
▁සු	-8.22087
▁තිබුණා	-8.22136
▁තබා	-8.22212
▁ප්‍ර	-8.22262
/	-8.22366
▁පැහැදිලි	-8.22629
▁මීට	-8.22754
▁හේතු	-8.23259
ෙත්	-8.23297
මු	-8.23348
▁ලබන	-8.23513
ව්	-8.23737
▁කිසිම	-8.23879
▁ප්‍රශ්න	-8.23889
▁අත්	-8.23946
▁10	-8.24168
▁කොළඹ	-8.24211
▁රාජපක්ෂ	-8.2477
▁කරපු	-8.25862
▁හිටපු	-8.25904
▁වඩාත්	-8.26295
▁කරන්නට	-8.26343
▁කළේය	-8.26461
▁යා	-8.26468
මේ	-8.26608
නය	-8.26803
▁කියන්නෙ	-8.26926
ජ	-8.27865
▁දරුවන්	-8.27964
▁යටතේ	-8.28267
▁වුණේ	-8.28611
▁පළ	-8.28929
▁මිනිස්සු	-8.29008
▁ලක්	-8.29489
▁ජන	-8.29513
▁ර	-8.29612
▁තිබූ	-8.29662
▁ඔ	-8.29683
ච	-8.29872
▁උන්	-8.29904
▁එයා	-8.30223
▁ඇත්තටම	-8.30856
▁ජය	-8.31404
▁එක්සත්	-8.31638
▁බ්ලොග්	-8.31678
▁කිව්වා	-8.3175
ඩි	-8.32031
▁කියනවා	-8.32191
▁තිබුණේ	-8.32284
▁විස්තර	-8.32301
▁අනෙක්	-8.32309
▁මෙ	-8.32331
▁ලැබෙන	-8.32517
▁ඔයා	-8.32709
▁ඔවුන්ට	-8.32834
▁ලෝකයේ	-8.33144
▁උත්සාහ	-8.33234
▁වෙබ්	-8.33403
▁ලොව	-8.33895
▁ඇ	-8.33991
▁යයි	-8.34628
ීය	-8.34708
▁දා	-8.34882
▁විශ්වාස	-8.35244
▁හැකියාව	-8.35351
▁කිසිදු	-8.35465
ස්ස	-8.35934
▁තත්ත්වය	-8.36097
▁වෛද්‍ය	-8.36158
කෝ	-8.36205
▁පුලුවන්	-8.36318
▁ල	-8.36325
වෙලා	-8.36347
▁ලංකාව	-8.36373
ුම්	-8.36403
▁ඕනෑම	-8.36458
▁රෝග	-8.36483
ුණු	-8.36721
▁ඇතැම්	-8.36826
▁පාර	-8.37068
▁දෙස	-8.3719
▁නැතුව	-8.37291
▁කිහිපයක්	-8.37425
▁විතර	-8.37478
සී	-8.376
දු	-8.37709
▁රුපියල්	-8.3805
▁ආර්ථික	-8.38379
▁පි	-8.38475
▁ඔබගේ	-8.39052
කො	-8.39377
▁පිට	-8.39496
▁හැර	-8.39551
▁ආකාරය	-8.39939
▁දැඩි	-8.40076
▁වනු	-8.40151
▁එල්ල	-8.40254
කම්	-8.40428
▁කරගන්න	-8.40548
▁ගුවන්	-8.41164
▁තේරුම්	-8.41165
▁ක්‍රියා	-8.41168
▁එතකොට	-8.41299
▁කොහොමද	-8.41578
▁කා	-8.41668
ෙක්	-8.41741
▁මිනිසුන්	-8.41787
▁රස	-8.41842
▁යන්නේ	-8.42146
ෂ්	-8.42155
න්ගේ	-8.42419
▁වර්ග	-8.42514
▁අවස්ථාව	-8.42665
▁හැක	-8.4277
▁අම්මා	-8.42908
▁අදාළ	-8.43046
▁කී	-8.43056
▁කාලයේ	-8.43123
සු	-8.4317
▁හොඳම	-8.43258
▁තියෙන්නෙ	-8.43312
▁තවමත්	-8.43629
▁මෙවැනි	-8.43908
▁සං	-8.44078
පා	-8.44079
▁සා	-8.44167
▁අයත්	-8.44389
ල්ල	-8.44403
▁මල්	-8.44519
▁නැත්නම්	-8.44772
▁උප	-8.44868
▁පිරිසක්	-8.44876
▁ලැබේ	-8.45337
▁ත	-8.45492
ෑ	-8.45766
යකට	-8.458
▁බර	-8.45983
▁පැමිණ	-8.45988
▁‍	-8.46063
▁ආදරය	-8.46233
▁සෞඛ්‍ය	-8.46289
ිත	-8.46538
▁වර්ධනය	-8.46568
▁බැවින්	-8.46659
▁මතු	-8.46764
▁නෙමෙයි	-8.46768
▁රජය	-8.4701
ශ	-8.47024
▁කොටස	-8.47036
▁වැරදි	-8.47655
යෙකු	-8.47804
▁කාලේ	-8.48055
▁ජීවිත	-8.48206
▁හොඳින්	-8.48233
▁බලාපොරොත්තු	-8.48386
ත්ත	-8.48394
▁සුදු	-8.48407
▁ඇවිත්	-8.48467
▁කෙරෙහි	-8.48641
▁ග	-8.48799
▁දෙමළ	-8.49106
▁ඉන්නේ	-8.49199
▁8	-8.49245
▁කල්	-8.49272
▁මතක	-8.49283
යකු	-8.4931
▁සේවය	-8.49417
▁අමතක	-8.49658
▁ඇගේ	-8.4968
▁ඔව්	-8.49691
▁මූලික	-8.49714
▁විතරයි	-8.49726
ටි	-8.49867
ගන්න	-8.49921
▁කිරීමෙන්	-8.50073
▁ණය	-8.50103
▁මේවා	-8.50168
▁)	-8.50509
▁සී	-8.50791
▁කොටස්	-8.50822
▁බ	-8.50831
▁බෞද්ධ	-8.50875
ගත්	-8.50933
▁වැඩක්	-8.50966
▁තරුණ	-8.51006
වන්	-8.51104
▁බැහැ	-8.51327
වු	-8.5151
▁පස්සෙ	-8.51762
▁නොමැති	-8.51892
▁වෙන්	-8.51902
▁ක්‍රමය	-8.52012
▁රජ	-8.52114
▁නැතිව	-8.5221
▁එරෙහිව	-8.527
▁පුංචි	-8.527
▁!	-8.52787
වෙන	-8.53133
කුත්	-8.53258
▁දුන්	-8.53272
▁බුදු	-8.53444
▁පැ	-8.53523
▁යොදා	-8.53804
▁සි	-8.53927
▁වසරේ	-8.54029
▁එයට	-8.54083
්‍ය	-8.54084
▁මොන	-8.54372
▁කරල	-8.5516
යක	-8.55418
▁මාස	-8.55543
▁ගල්	-8.55718
▁එනම්	-8.55949
▁වචන	-8.56047
▁හැටි	-8.56215
පි	-8.56443
▁නියම	-8.56463
යෙහි	-8.56543
▁බස්	-8.56574
▁සිටියේ	-8.56581
▁ප්‍රති	-8.56707
වාදී	-8.56764
▁කිසි	-8.5687
▁අමතරව	-8.56921
▁ඉගෙන	-8.56991
▁ඉතිං	-8.57152
▁නිෂ්පාදන	-8.57285
▁මැ	-8.57544
▁ගියේ	-8.5755
▁ඈ	-8.57661
▁ධර්ම	-8.57801
▁සදහා	-8.57915
▁නීති	-8.57976
▁කිරි	-8.58053
▁අධික	-8.58128
▁ලෝකය	-8.58502
▁කො	-8.5857
කාර	-8.58628
▁මුළු	-8.58858
▁සෙ	-8.59154
ස්‌	-8.59292
▁ගත්තේ	-8.59634
▁ඔන්න	-8.59685
▁කැ	-8.59729
▁සමාන	-8.5976
▁කඩ	-8.59822
▁දීම	-8.59847
▁පොත්	-8.60028
▁පිණිස	-8.60187
ෂ	-8.60243
▁තත්වය	-8.60256
▁කෑම	-8.60305
▁භාර	-8.60457
▁ගන්නේ	-8.60515
▁රටවල්	-8.60582
▁ක්‍රීඩා	-8.60589
▁බොහොම	-8.60749
▁පොලිස්	-8.6075
▁නිර්මාණ	-8.60859
▁ඕනේ	-8.6102
▁විතරක්	-8.6116
▁දෙනෙක්	-8.61197
▁බටහිර	-8.61459
▁ඉදිරියට	-8.61538
▁පෙළ	-8.61546
▁20	-8.61668
▁දැනට	-8.61696
▁වතුර	-8.61748
▁මෙන්න	-8.61752
▁සුදුසු	-8.62061
ඒ	-8.62253
▁නැ	-8.62375
▁කොහොම	-8.62392
ගම	-8.62497
▁එයින්	-8.62741
▁යුත්තේ	-8.62926
▁දියුණු	-8.62989
▁කාල	-8.63192
▁ඇස්	-8.63287
▁රි	-8.6336
▁එසේම	-8.63376
▁මෙරට	-8.6341
▁පොදු	-8.63427
ාව	-8.63597
▁18	-8.63702
▁කු	-8.6371
▁පියවර	-8.63727
▁ලිපිය	-8.6378
▁ඕ	-8.63858
▁රනිල්	-8.63923
තාව	-8.64102
▁වෙනුවට	-8.64578
▁හැටියට	-8.64663
▁ඇතැයි	-8.64827
▁පු	-8.6496
වාදය	-8.64975
▁අරගෙන	-8.64987
යකි	-8.65015
▁පැමිණි	-8.65152
▁මග	-8.65157
▁ගත්ත	-8.65525
▁වෙතත්	-8.65554
▁අතින්	-8.65568
▁එවිට	-8.65595
▁ලදී	-8.65611
▁ගන්නවා	-8.66027
▁මානව	-8.66222
▁අනිත්	-8.66292
ලේ	-8.66305
▁රූප	-8.66346
▁සල්ලි	-8.66614
ුවා	-8.66733
▁පෙන්වා	-8.66803
▁සැබෑ	-8.66825
ටම	-8.66839
▁ඉල්ලා	-8.66965
▁මාව	-8.6699
▁පමණි	-8.67068
වල්	-8.67128
නවා	-8.67239
▁එහිදී	-8.67251
▁පක්ෂ	-8.67525
▁නේ	-8.67542
▁ලිපි	-8.6759
▁මෙහෙම	-8.67648
▁ච	-8.67658
▁තෙල්	-8.67706
▁මිලියන	-8.67726
ණි	-8.67742
▁දෙ	-8.67933
▁දමා	-8.68011
ොත්	-8.68105
හා	-8.68184
▁ඕනෑ	-8.68243
▁සමාගම	-8.6835
▁රටට	-8.68383
▁මු	-8.68465
▁සේවා	-8.68546
▁පාසල්	-8.68823
යකින්	-8.68892
▁දෙනා	-8.68969
▁වත්	-8.6904
▁කෝ	-8.69172
▁සමාජය	-8.69324
ගා	-8.69572
ෙයි	-8.69575
සේ	-8.69631
▁සමත්	-8.69895
බ්	-8.69911
▁ප්‍රශ්නය	-8.6994
▁රජයේ	-8.70003
▁උඩ	-8.70075
▁බිහි	-8.70131
▁දැක	-8.70136
▁අනේ	-8.70139
▁ජාත්‍යන්තර	-8.70155
▁නා	-8.70188
▁ආවා	-8.70487
▁ආදී	-8.70492
▁මිය	-8.70522
▁හේතුවෙන්	-8.70894
▁පහත	-8.71191
▁ගමන	-8.7147
▁ප්‍රමාණය	-8.71479
▁දෙවියන්	-8.71485
▁පැය	-8.71579
▁උසස්	-8.71641
▁තේ	-8.71704
ඹ	-8.71738
▁වුවත්	-8.71821
▁තමන්ට	-8.71829
▁ඇතුළත්	-8.7189
බා	-8.71928
▁වෙන්නෙ	-8.71929
මයි	-8.71976
▁ලංකාවට	-8.71978
▁විනාශ	-8.72008
▁පිරිස	-8.72117
▁සුළු	-8.72222
▁උඹ	-8.72378
▁12	-8.72543
▁හෙවත්	-8.72945
▁ලකුණු	-8.72958
▁තියන	-8.73073
▁මිලදී	-8.73106
▁පල	-8.73295
▁මැද	-8.73328
▁තෝරා	-8.73345
▁ගැනීමේ	-8.73403
▁සංවිධානය	-8.73672
▁අදහස	-8.73794
▁කරා	-8.73854
▁වා	-8.73874
යන්ට	-8.73894
රෝ	-8.74009
ද්ද	-8.74083
▁තාත්තා	-8.74144
▁ආකාරයට	-8.74232
▁හතර	-8.74286
▁රු	-8.74387
▁හැකියි	-8.74457
▁පෙනී	-8.74539
▁පැවති	-8.74586
සන්	-8.74649
▁එබැවින්	-8.74752
▁මුලින්ම	-8.74753
වර	-8.7483
▁මාර්ගය	-8.74837
නී	-8.75045
▁වුණත්	-8.75112
▁ගිනි	-8.75394
▁ක්‍රම	-8.75601
▁අවධානය	-8.75691
ලී	-8.75751
▁ඉතිරි	-8.75763
▁ඉටු	-8.75831
▁වුනා	-8.75901
▁කතාවක්	-8.75957
කරණය	-8.75989
▁හට	-8.76079
▁මුස්ලිම්	-8.76192
▁පාවිච්චි	-8.76228
▁ලිංගික	-8.76381
▁මි	-8.76412
▁සකස්	-8.76473
▁මතක්	-8.76518
▁දකුණු	-8.76561
▁වයස	-8.76633
ීම	-8.76722
▁දාලා	-8.76738
▁අවස්ථා	-8.7678
▁දුන්නා	-8.76824
▁සාර්ථක	-8.76889
▁තියනවා	-8.76954
යයි	-8.77025
▁අධ්‍යාපනය	-8.77114
▁යාම	-8.77269
▁මෙහිදී	-8.77331
▁පොත	-8.77463
▁උපදෙස්	-8.77499
▁පෙ	-8.7754
ණය	-8.77544
▁වැඩේ	-8.77642
▁උනා	-8.77782
▁ජනතාවට	-8.78047
▁විවාහ	-8.78062
නො	-8.78095
▁පහර	-8.78117
▁අතට	-8.7812
▁දන්නේ	-8.7814
▁කෙටි	-8.78179
ග්	-8.78193
▁ඊ	-8.78194
▁බං	-8.78227
▁ජ	-8.78552
වරයා	-8.78615
▁නිකුත්	-8.78779
▁හමුදා	-8.78791
ිනි	-8.78795
▁ඉතාම	-8.78876
▁මහත්	-8.7891
▁සම්පූර්ණ	-8.78993
▁ජනප්‍රිය	-8.79007
▁දීමට	-8.79084
▁ඒකට	-8.79126
▁දුම්රිය	-8.79169
▁ලියන්න	-8.79216
▁කණ්ඩායම	-8.79223
▁පවතී	-8.79252
▁මාර්ග	-8.79262
▁දන්නවා	-8.79386
▁හැ	-8.79484
▁බය	-8.79694
▁යහපත්	-8.79703
▁තුළින්	-8.79718
▁අගය	-8.79754
ධ	-8.79901
▁නීතිය	-8.79995
▁තොරව	-8.80317
▁හරිම	-8.80325
▁ජලය	-8.80362
▁කන්න	-8.80557
▁තිබුණු	-8.80598
▁ඉහත	-8.80638
▁නිෂ්පාදනය	-8.80664
බි	-8.80694
▁වෙලාවට	-8.80698
▁අනු	-8.81021
▁මානසික	-8.81207
▁වුවද	-8.81217
▁නිවැරදි	-8.81308
▁විවෘත	-8.81435
▁නිල	-8.81483
▁ලස්සන	-8.81513
▁හරියට	-8.81524
▁අවම	-8.81632
▁නාට්‍ය	-8.81669
▁ඇද	-8.81815
▁වෙමින්	-8.82046
▁සූදානම්	-8.82065
▁අරන්	-8.82069
▁දැනුම	-8.82355
යන්ගේ	-8.82398
▁පියා	-8.82404
▁වැ	-8.82568
▁භාවිත	-8.82589
▁නිසි	-8.82715
▁11	-8.82848
වෙන්	-8.82857
▁ඇයට	-8.8294
▁ලා	-8.83052
▁හඬ	-8.83088
▁එකෙන්	-8.83285
▁තිබෙන්නේ	-8.83321
▁කුමක්ද	-8.83438
▁හිටියා	-8.83443
▁ආයතන	-8.835
▁අන්	-8.83705
▁ක්‍රිකට්	-8.83711
▁පහසු	-8.83776
▁දි	-8.83829
▁නැද්ද	-8.8389
▁ආරක්ෂා	-8.84064
▁අවසාන	-8.84088
▁කළු	-8.84166
▁ගීත	-8.84179
▁ගණන්	-8.84264
ිලා	-8.84354
කදී	-8.84452
▁පැන	-8.84499
▁පිය	-8.84527
▁ඩොලර්	-8.84659
▁ඡන්ද	-8.84705
ංග	-8.8476
▁දෙනවා	-8.84866
▁පහළ	-8.84893
▁සටහන්	-8.84952
▁පරි	-8.85067
▁කොරෝනා	-8.85228
▁නං	-8.85267
▁පෞද්ගලික	-8.85283
▁නෙ	-8.85324
‍්‍ර	-8.85677
▁විශ්ව	-8.85822
▁දිගටම	-8.85966
▁සැක	-8.85972
මත්	-8.86094
▁සර්	-8.86099
▁15	-8.86113
▁විශේෂයෙන්	-8.86206
▁සුව	-8.86467
▁දිනය	-8.86508
▁චරිත	-8.86826
▁නමින්	-8.8698
වරු	-8.87047
▁යමක්	-8.87362
▁ගුණ	-8.87429
ෙනි	-8.87506
▁දිග	-8.87552
▁කලේ	-8.87612
යො	-8.87634
▁හොඳයි	-8.87665
▁සිදුවන	-8.87691
▁කෙසේද	-8.87842
▁පළාත්	-8.87981
▁පර	-8.8804
▁අත්දැකීම්	-8.88145
පී	-8.8821
▁උදව්	-8.88581
▁මිනිස්	-8.88585
▁දුර	-8.88641
▁කියවන්න	-8.89019
▁ස්	-8.89265
රිය	-8.89378
▁කුමක්	-8.89436
▁පක්ෂය	-8.89513
ෆ්	-8.89537
▁සටන්	-8.89582
▁විදේශ	-8.89617
▁ති	-8.89832
▁කරන්නෙ	-8.90027
▁ඕක	-8.90048
සිය	-8.90084
▁දරුවා	-8.90123
▁හිස	-8.90149
▁මී	-8.90463
▁විද්‍යාව	-8.90575
▁බැ	-8.90604
ඟ	-8.9061
▁සියලුම	-8.90668
▁පුතා	-8.90788
▁ලැබූ	-8.90859
භාවය	-8.90951
▁වු	-8.91325
▁අයියා	-8.91327
▁නරක	-8.91348
▁ජල	-8.91395
▁කොළ	-8.91421
▁ඉතිහාසය	-8.91521
ළු	-8.9162
▁බෝ	-8.91836
▁ප‍්‍ර	-8.91853
▁ආවේ	-8.9197
▁කිය	-8.92078
ුනු	-8.92093
ප්‍ර	-8.92141
▁අපරාධ	-8.92298
▁එනවා	-8.92367
▁දිහා	-8.9241
▁දු	-8.9241
▁මිස	-8.92493
▁යනුවෙන්	-8.92528
▁ලේ	-8.92531
ඇ	-8.92568
▁කවුද	-8.92634
▁ප්ර	-8.92685
▁ලියන	-8.92781
තිය	-8.92829
▁අයි	-8.92852
වීමට	-8.92927
▁යෝජනා	-8.92972
▁අති	-8.92991
▁රැගෙන	-8.93028
▁දුක	-8.93041
▁විසි	-8.93291
▁තහවුරු	-8.93377
▁අගමැති	-8.93466
▁විදුලි	-8.93855
▁වාහන	-8.93946
▁අහිමි	-8.94052
වන්න	-8.94063
▁චෝදනා	-8.9412
▁තිබුණි	-8.94158
▁පී	-8.9417
▁පර්යේෂණ	-8.94268
▁බිඳ	-8.94531
▁දාන්න	-8.94752
▁ආදිය	-8.9485
▁යට	-8.95066
දැයි	-8.95132
▁යාමට	-8.95234
▁සිනමා	-8.95271
▁සාකච්ඡා	-8.95286
▁පිහිටි	-8.953
▁තරග	-8.95364
න්නේ	-8.95401
▁අධ්‍යාපන	-8.95406
▁ඉවර	-8.95448
රී	-8.9551
▁රටවල	-8.95553
▁කාලෙ	-8.95643
▁පද	-8.95687
▁පවුලේ	-8.95714
▁ධර්මය	-8.95793
▁අඩවිය	-8.95797
▁ශක්තිය	-8.95883
වරුන්	-8.96107
▁පුරුදු	-8.96148
▁බෙදා	-8.96181
▁පුදුම	-8.96322
▁නිදහස	-8.96359
යාගේ	-8.96575
▁ගුරු	-8.96598
▁බදු	-8.9664
▁සාමාන්‍යයෙන්	-8.96746
▁ආරක්ෂක	-8.96754
ලෝ	-8.96774
▁කථා	-8.9685
▁2015	-8.96859
▁බලන	-8.96863
වෙ	-8.96909
▁ප්‍රතිකාර	-8.96912
▁ලක්ෂ	-8.96946
▁නොකර	-8.97004
ඩා	-8.97019
3	-8.97062
▁දිගු	-8.97192
▁කන	-8.97266
කරුවන්	-8.97342
▁ශක්තිමත්	-8.9743
▁මොකක්ද	-8.9745
▁ඕනෙ	-8.97519
▁ගන්නට	-8.9761
▁එමෙන්ම	-8.97664
▁පාට	-8.97761
▁දුක්	-8.97773
▁බොරු	-8.97785
▁දවස්	-8.97833
▁සත්‍ය	-8.97978
▁අට	-8.98098
▁නොවෙයි	-8.98132
▁1.	-8.98134
ෙමි	-8.98225
00	-8.98291
▁ඔයාට	-8.98344
▁වග	-8.98452
ගල	-8.98462
▁තනි	-8.98557
▁බිම	-8.98569
තාවය	-8.98753
▁සිටීම	-8.98998
4	-8.99003
▁නොකළ	-8.99064
ටර්	-8.99124
▁පහ	-8.99165
▁චිත්‍රපටය	-8.99212
ෙන්නේ	-8.99334
▁නතර	-8.9937
▁දේව	-8.99436
▁පරීක්ෂණ	-8.99521
▁දත්ත	-8.99536
මී	-8.99596
5	-8.99907
▁තවදුරටත්	-8.99931
▁2.	-8.99962
▁සැලසුම්	-8.99978
▁ලි	-8.99999
▁මඟින්	-9.00056
▁තුන්	-9.00313
▁බිය	-9.00407
▁සුබ	-9.00501
▁ජනතා	-9.00556
ගොඩ	-9.00591
▁හිටියේ	-9.00652
▁ද්‍රව්‍ය	-9.00683
▁දෙන්නේ	-9.00715
▁මස	-9.00716
▁මරණ	-9.00732
▁අග	-9.00769
▁සිටින්නේ	-9.00877
▁හමු	-9.0092
▁ස්ථානය	-9.01021
▁දන්නා	-9.01117
▁සරල	-9.01129
▁ළඟ	-9.01165
▁අතරින්	-9.01234
▁සීමා	-9.01444
▁උදා	-9.01469
▁වර	-9.01471
▁මන්ද	-9.01494
▁කවි	-9.01587
▁නායක	-9.01591
වයි	-9.0163
▁වන්නට	-9.01731
▁ආගමික	-9.01828
▁ප්‍රමාණයක්	-9.02079
▁තුනක්	-9.02155
▁බා	-9.02242
▁කිව	-9.02508
වන්නේ	-9.02561
▁නිතර	-9.0261
▁පොල්	-9.02641
▁ප්‍රශ්නයක්	-9.02643
▁ගො	-9.02674
න්ත	-9.02709
▁මුල	-9.02715
▁දෙවන	-9.02723
0	-9.02915
▁ඔස්සේ	-9.03006
ආ	-9.03057
▁සංවර්ධනය	-9.03112
▁බි	-9.03154
ප්ප	-9.03158
භ	-9.03245
▁මගෙ	-9.03305
▁තිබ්බ	-9.03306
▁රැකියා	-9.03355
▁ගෙ	-9.03368
න්ද	-9.0338
▁පත්ව	-9.03401
▁සති	-9.03488
▁බො	-9.03523
ඳ	-9.03561
▁සිත්	-9.03593
කරන	-9.03603
▁වීඩියෝ	-9.03647
▁දෙයි	-9.0374
ෙකු	-9.03834
▁විරුද්ධ	-9.03893
▁කිසිවක්	-9.04145
▁පො	-9.04307
▁නුවර	-9.04341
ුන	-9.04347
▁තැන්	-9.04377
▁ඔක්කොම	-9.04527
▁ජනාධිපතිවරයා	-9.04625
▁දේශීය	-9.04777
▁කොටසක්	-9.04781
ණු	-9.04795
▁සිටිය	-9.04944
තර	-9.04947
▁තුන	-9.04995
▁13	-9.05035
▁දැ	-9.05074
▁යුතුව	-9.05223
▁අමාත්‍ය	-9.05303
▁මමත්	-9.05334
▁කිරීම්	-9.05412
▁ඩි	-9.05508
▁හම්බ	-9.05511
▁ගමේ	-9.05518
වද	-9.05569
▁ජීවිතයේ	-9.05725
▁මල්ලි	-9.05743
▁ලේකම්	-9.05871
▁සමාජයේ	-9.05895
▁චිත්‍රපට	-9.05921
▁පිරිමි	-9.05943
▁ආසන්න	-9.06062
▁ලක්ෂණ	-9.06289
▁ඇමති	-9.06309
▁මාගේ	-9.06449
▁සැප	-9.06517
▁තිබිණි	-9.06572
▁භාෂාව	-9.06651
▁නිලධාරීන්	-9.0667
▁අවසානයේ	-9.06682
▁පාලන	-9.06768
කළ	-9.06775
▁මැතිවරණ	-9.06845
සෙ	-9.06851
ාත්මක	-9.06927
▁රන්	-9.06978
▁සිද්ධ	-9.06981
▁ගස්	-9.07
ලිය	-9.07011
▁රො	-9.07092
▁ඉදිරි	-9.07109
▁උපන්	-9.0712
▁මල	-9.07195
▁අරමුණ	-9.07231
▁ඇස	-9.07373
▁කිව්වේ	-9.07392
▁ශ	-9.07471
▁වෙඩි	-9.07863
▁නිවාස	-9.08019
විට	-9.08145
▁ගහ	-9.08179
▁නැවතත්	-9.08198
▁ත්	-9.08222
▁වුණු	-9.08362
▁වියදම්	-9.08421
▁හෙ	-9.08461
▁පිරිසිදු	-9.08521
▁ආගම	-9.08581
ජා	-9.08666
ථ	-9.08692
▁වන්න	-9.08793
▁14	-9.08861
▁දුන්නේ	-9.08864
▁දුව	-9.08997
▁බු	-9.09007
▁ප්‍රදේශයේ	-9.09018
▁16	-9.09037
එ	-9.09132
▁නිසාය	-9.09175
▁කාර්ය	-9.0933
▁රටක්	-9.09354
▁සො	-9.09388
▁සතු	-9.0939
ඩු	-9.09485
▁දක්නට	-9.09604
▁වරක්	-9.09664
▁දවස	-9.09665
▁වැනිදා	-9.09675
▁2019	-9.09777
▁වනවිට	-9.09791
▁සුන්දර	-9.09844
▁විශ්වාසය	-9.09869
දීම	-9.09877
▁දායක	-9.10004
නං	-9.10024
▁30	-9.10097
▁නිසාම	-9.101
▁දවසක්	-9.10127
▁චීන	-9.10488
▁පැරණි	-9.10531
▁මතය	-9.10533
▁මහත්තයා	-9.10595
▁සභා	-9.10596
▁වට	-9.10663
2	-9.10944
▁අනෙකුත්	-9.10982
▁රතු	-9.11019
▁හොද	-9.11042
▁තුරු	-9.11202
ට්ට	-9.11264
▁දේශපාලනය	-9.11297
▁අසා	-9.11407
වෙනවා	-9.1146
▁දුටු	-9.11492
▁එන්නේ	-9.11521
▁25	-9.11523
▁සතුටු	-9.11541
▁යුද	-9.11541
▁කල්පනා	-9.11561
▁ගීතය	-9.1157
▁දකින	-9.11785
▁බවක්	-9.11786
▁කරමු	-9.1181
▁බුද්ධ	-9.11922
ෘ	-9.12005
▁ඝාතනය	-9.12222
▁ඌ	-9.12293
▁ස්ථාන	-9.12338
▁ආයතනය	-9.12385
ටී	-9.12467
▁කැප	-9.12547
▁සහාය	-9.12562
▁පහසුකම්	-9.12757
▁මඟ	-9.12785
▁මස්	-9.12814
▁උදේ	-9.12943
▁හමුවේ	-9.13028
▁හිටිය	-9.1306
▁කෙනෙකුට	-9.13144
▁කෙ	-9.13173
▁ඊයේ	-9.13271
▁උනත්	-9.1344
▁සිද්ධිය	-9.13527
▁කට්ටිය	-9.13646
▁අනතුරුව	-9.13669
▁හිතන්නේ	-9.13817
▁චිත්‍ර	-9.13829
▁තිබිය	-9.13899
▁චරිතය	-9.13978
▁සංගීත	-9.14077
ච්	-9.14091
නෝ	-9.14103
▁ගල	-9.14105
ියා	-9.14255
වෙන්න	-9.14289
▁ඉස්සර	-9.14316
▁බලාගෙන	-9.1439
▁කවර	-9.14403
පෙ	-9.14478
▁පිළිතුරු	-9.14497
▁ආපු	-9.14498
තී	-9.14499
▁දෙවැනි	-9.14537
▁පමණයි	-9.14539
▁පාර්ලිමේන්තු	-9.14561
ඞ්	-9.14619
▁කෙරේ	-9.14737
▁2018	-9.14814
▁ලී	-9.14919
▁17	-9.14977
▁සිටී	-9.15136
▁සම්පත්	-9.15151
▁යළි	-9.15209
▁හැමෝම	-9.15259
▁ගනිමින්	-9.1531
▁දෙදෙනා	-9.15329
▁මාර	-9.1538
▁කුල	-9.15396
▁2012	-9.15396
▁හමුදාව	-9.1541
▁සහතික	-9.15447
▁පුද්ගලයා	-9.1545
කාරී	-9.15471
ැයි	-9.15593
▁දෙය	-9.15698
▁කඩා	-9.15821
▁රෑ	-9.15932
▁අත්අඩංගුවට	-9.15996
▁වුනත්	-9.16017
තම	-9.16056
▁අවි	-9.1609
▁බවය	-9.16153
ෙනවා	-9.16407
▁ගම	-9.16461
▁ඉදිරියේ	-9.16499
▁හො	-9.16529
▁පෙනේ	-9.16554
▁වේවා	-9.16654
ච්ච	-9.16685
▁තැනක	-9.16694
7	-9.1677
▁සැ	-9.16865
▁5	-9.16881
▁අංක	-9.16946
▁සිතා	-9.17013
▁වුනේ	-9.17018
▁යුද්ධය	-9.17149
චි	-9.17185
ුව	-9.17277
▁භාණ්ඩ	-9.17333
▁අනුගමනය	-9.17383
▁වහන්සේගේ	-9.17387
▁දීලා	-9.17393
▁හෙළි	-9.17404
වෙයි	-9.17574
▁උතුරු	-9.17735
▁විද්‍යා	-9.17878
▁රජු	-9.1791
මන්	-9.1798
▁බී	-9.18005
▁2017	-9.18032
▁ගනී	-9.18053
මට	-9.18104
▁ආරක්ෂාව	-9.18168
▁මව	-9.18267
▁බඩු	-9.18318
▁තිබුණ	-9.18343
▁පස්	-9.18399
▁ගණනාවක්	-9.18591
න්ගෙන්	-9.18702
▁ඇඳුම්	-9.18719
▁විෂය	-9.18748
▁පෙනෙන	-9.18752
▁ගණනක්	-9.18841
▁අලි	-9.18871
▁ගැ	-9.18947
බී	-9.18995
▁ලිය	-9.19052
▁දක්වන	-9.19087
▁ආණ්ඩුවේ	-9.19146
න්ඩ	-9.19204
▁සිරිසේන	-9.19222
ෙමින්	-9.19254
▁බිරිඳ	-9.19278
▁වර්ණ	-9.19321
▁නගර	-9.19352
▁3	-9.19416
▁අදාල	-9.19421
්නේ	-9.19463
▁පරාජය	-9.19486
ාගේ	-9.19712
▁පිරි	-9.19787
▁එතරම්	-9.19796
▁දොර	-9.19824
▁අවබෝධ	-9.19871
▁ඉන්දියාවේ	-9.19897
▁ඖෂධ	-9.1994
▁වෙනම	-9.20033
▁කුමාර	-9.20135
▁හේතුවක්	-9.20247
▁වෘත්තීය	-9.203
▁සිහි	-9.20346
▁නැතිනම්	-9.2038
▁ගා	-9.20453
▁පදනම්	-9.20503
▁ඇඳ	-9.20522
▁කේ	-9.20568
▁මන්ත්‍රී	-9.20587
▁2020	-9.20619
▁සංඛ්‍යාව	-9.20686
▁නිරත	-9.20761
▁භාවිතය	-9.2092
▁කණ්ඩායම්	-9.20922
▁සෙට්	-9.20923
ජි	-9.20935
මෙ	-9.20965
▁හිතන්න	-9.20988
▁උන්වහන්සේ	-9.2104
ටු	-9.21082
▁පිහිට	-9.21122
▁කාන්තාවන්	-9.21172
▁සභාව	-9.2118
▁රාජ	-9.2123
▁කොච්චර	-9.21238
▁මෙතන	-9.21292
▁හොඳට	-9.21298
▁එකයි	-9.21342
▁ඉතාමත්	-9.21465
්න	-9.21489
▁රැ	-9.21518
▁මූ	-9.21578
▁සිටිනවා	-9.21653
▁ලියා	-9.2171
ද්දී	-9.21734
▁ගම්	-9.21811
▁රෝගය	-9.21843
දිය	-9.21873
▁වෙච්ච	-9.21929
▁සංවර්ධන	-9.21934
▁වෙනසක්	-9.21955
▁ආපසු	-9.21984
▁කියලයි	-9.22033
▁දැනුවත්	-9.22163
▁නගරය	-9.22177
▁හඳුනා	-9.2219
▁රැක	-9.22215
▁දකින්න	-9.22225
▁ජනතාවගේ	-9.223
▁මාත්	-9.22306
▁සමාගම්	-9.22318
▁ළමා	-9.22441
කල	-9.22447
▁නඩු	-9.22465
▁කලාව	-9.22528
ලූ	-9.22625
▁උපරිම	-9.2268
▁කාරණය	-9.22835
▁හෙට	-9.22918
බැ	-9.22935
▁පහසුවෙන්	-9.22987
වෝ	-9.23026
▁මටත්	-9.23054
▁සමස්ත	-9.23055
▁කොයි	-9.23061
▁ජීවිතේ	-9.23064
▁සිල්වා	-9.2307
▁අව	-9.23181
▁සංස්කෘතිය	-9.23218
▁ඉන්දියාව	-9.23336
▁කෑ	-9.23456
වර්	-9.23464
▁වෙළඳ	-9.23524
▁3.	-9.23536
▁වැය	-9.23537
▁පොලිසිය	-9.2355
▁2	-9.23603
▁උත්තර	-9.23611
ද්	-9.23676
▁දන්න	-9.2368
▁උස	-9.23841
▁ඔවුහු	-9.23862
▁අවස්ථාවක්	-9.23881
▁ඉන්නෙ	-9.23942
▁අයිතිය	-9.24015
▁පිළි	-9.2409
▁පවත්වා	-9.24172
▁පැවැති	-9.24204
▁ව්‍යාපාර	-9.24296
▁තාක්ෂණය	-9.24532
ීමට	-9.24735
▁රැස්	-9.24737
▁තිස්සේ	-9.24911
▁ලැබෙන්නේ	-9.24936
▁අල	-9.24991
▁ස්වභාවය	-9.25026
▁මහජන	-9.25152
▁පිහිටා	-9.25158
ක්ෂ	-9.25217
▁සංචාරක	-9.25271
▁කිව්ව	-9.25319
වලා	-9.2534
ශ්	-9.25348
▁ඡායාරූප	-9.25371
▁හඳුන්වා	-9.25374
▁පද්ධතිය	-9.25435
▁2016	-9.25531
▁ප්‍රජාතන්ත්‍ර	-9.25579
ලින්	-9.25618
▁බඩ	-9.25656
▁නිවස	-9.25671
වුන්	-9.257
ක්ස්	-9.25803
සිරි	-9.25837
▁පුර	-9.25857
▁දක්ෂ	-9.26018
පො	-9.26027
▁මාරු	-9.26044
වැ	-9.26098
කී	-9.26155
▁වෙනකොට	-9.26164
▁සටහන	-9.26166
▁තෙක්	-9.26178
▁දෙවි	-9.26196
▁ජනවාරි	-9.26252
▁හීන	-9.26349
▁මරණය	-9.26569
▁හු	-9.26606
▁පුද්ගලයන්	-9.26646
▁උපකාර	-9.26754
▁දුන්න	-9.26832
▁හදන්න	-9.26941
▁ඉංග්‍රීසි	-9.26959
▁ෂ	-9.27181
▁ලැබෙනවා	-9.27201
▁නිසයි	-9.27204
▁මිනිසා	-9.27266
රැ	-9.2743
▁අවශ්ය	-9.27479
▁ආර්	-9.27485
▁වැට	-9.27495
▁රා	-9.27527
▁පස	-9.27622
▁වශයෙන්ම	-9.27625
▁වේදනාව	-9.27663
▁දරුවන්ට	-9.27678
කරු	-9.2769
▁පරිවර්තනය	-9.27725
▁එකත්	-9.27796
▁අයගේ	-9.27798
▁සතුට	-9.27799
▁ජංගම	-9.27856
ීන්	-9.2786
▁වගකීම	-9.27883
බු	-9.27903
▁මරා	-9.27918
▁රටක	-9.27962
දින	-9.27986
▁පණ	-9.27994
කැ	-9.28072
▁අපූරු	-9.28145
ුණ	-9.28183
▁කවදාවත්	-9.28186
▁කමක්	-9.28275
ෙමු	-9.28422
▁ඉදි	-9.28528
පත්	-9.28631
▁පවසයි	-9.28654
▁තහනම්	-9.2868
ජ්	-9.28699
▁ලැබුණු	-9.28789
▁ලෙසින්	-9.28815
▁වැඩසටහන	-9.28911
▁කතන්දර	-9.28926
▁එල	-9.28926
▁සම්මත	-9.28947
▁ඉඳලා	-9.28952
▁ඇට	-9.28961
▁ස්තූතියි	-9.28971
▁මනස	-9.29043
▁ජාතිය	-9.2913
සෝ	-9.29226
▁ගෝඨාභය	-9.29348
බල	-9.29368
▁මණ්ඩලය	-9.29382
▁සිරි	-9.29431
▁සම්මාන	-9.29452
▁බවද	-9.29463
▁සිටියේය	-9.29482
යෙ	-9.29564
▁සිටියා	-9.2957
▁සුපිරි	-9.29603
▁කොවිඩ්	-9.2965
▁දිවි	-9.29651
▁කම	-9.29656
තුමා	-9.29752
පාල	-9.29781
▁පරීක්ෂා	-9.2979
▁කිසියම්	-9.29811
▁එකඟ	-9.29867
▁සේක	-9.29897
▁මොහොතේ	-9.29913
▁කන්ද	-9.29993
▁වටා	-9.30042
▁පනත	-9.3006
▁නියෝජනය	-9.30061
▁ආකාරයෙන්	-9.30099
ෙන්න	-9.30175
▁දිව	-9.30188
▁අංශ	-9.30191
▁අඩංගු	-9.30222
▁තැනක්	-9.30477
▁එතුමා	-9.30535
▁සිර	-9.30577
මෝ	-9.30761
▁පුළුල්	-9.30769
▁කින්	-9.30811
▁සභාපති	-9.30816
▁මෙහෙ	-9.3085
▁හිස්	-9.30874
▁ඡන්දය	-9.30909
▁ආචාර්ය	-9.30968
▁හිමිකම්	-9.30988
▁ලද්දේ	-9.30995
▁භ	-9.31011
න්නට	-9.31016
▁බුදුන්	-9.31061
▁කළහ	-9.31144
▁නොවූ	-9.31239
▁මහාචාර්ය	-9.31412
▁ආව	-9.31418
▁ස්තුතියි	-9.31427
▁පවත්වාගෙන	-9.31471
▁හැක්කේ	-9.31479
▁ප්‍රථම	-9.31482
▁ඉඩම්	-9.31488
▁අවස්ථාවේ	-9.31527
▁ආත්ම	-9.31556
▁පවුල්	-9.31569
▁කෙරෙන	-9.31572
▁ගැට	-9.31575
▁පවසා	-9.31577
▁නිම	-9.31588
▁කරගත්	-9.316
6	-9.31616
▁මෙතෙක්	-9.318
▁වචනය	-9.31822
▁කුමන	-9.31862
▁උදාහරණයක්	-9.31899
▁වරාය	-9.31901
▁හිතේ	-9.31917
▁ඔහොම	-9.32023
▁කෙනෙකු	-9.32024
▁පරණ	-9.32054
සං	-9.32072
ගැ	-9.32161
බර	-9.32231
▁බලපෑම්	-9.32242
▁21	-9.32349
ෂා	-9.32374
▁වෙහෙස	-9.3243
▁මැයි	-9.32436
ුම	-9.32439
▁කියයි	-9.32461
▁අහන්න	-9.32483
▁පුද්ගලික	-9.32549
▁පැමිණෙන	-9.32576
රේ	-9.32578
▁වුව	-9.32653
▁වීමේ	-9.32654
▁සුභ	-9.32779
▁සිදුවීම	-9.32792
▁ජේ	-9.32806
▁අස	-9.3281
▁ක්‍රියාවලිය	-9.3292
▁වාර්තාව	-9.32949
▁දෙනෙකු	-9.32954
▁පොර	-9.32963
▁සැලකිය	-9.3303
▁එළියට	-9.33186
▁ගනු	-9.33249
▁සහභාගි	-9.33265
▁වරද	-9.33353
▁එස්	-9.33354
▁ලැබීම	-9.33382
▁ගරු	-9.33397
▁ආර්ථිකය	-9.33409
▁කෙල්ල	-9.33434
▁බිලියන	-9.3351
▁බැවිනි	-9.3355
▁දැනටමත්	-9.33557
▁දැමීම	-9.33615
ුන්	-9.33624
ාය	-9.3365
ත්‍ර	-9.33686
▁අධි	-9.33759
▁සඳ	-9.33762
▁කපා	-9.33787
▁උනේ	-9.33799
▁බලවත්	-9.33983
මිනි	-9.34092
▁තිබුන	-9.34137
ඉ	-9.34138
▁දාන	-9.34144
▁වසා	-9.34146
▁බාර	-9.34151
▁ටී	-9.34168
▁කාරණා	-9.3418
▁අපහසු	-9.34326
පන්	-9.3435
▁හදා	-9.34369
▁කුඩු	-9.34513
▁මෙලෙස	-9.34602
▁තවද	-9.3461
▁ඇයගේ	-9.34633
▁ශරීරය	-9.34654
කල්	-9.34667
▁ලැබී	-9.3473
▁සලකා	-9.34744
▁100	-9.34813
▁නායකත්වය	-9.34963
▁නිවසේ	-9.34965
▁දැයි	-9.34975
මැ	-9.34984
▁වැඩිය	-9.35085
▁තරමක්	-9.35103
▁තියෙනව	-9.35223
දෙන	-9.3527
▁ගැටලු	-9.35349
▁හිරු	-9.35389
▁අභි	-9.35418
▁දුරකථන	-9.35428
▁තද	-9.35461
වනු	-9.35553
▁ව්‍යාපාරය	-9.35628
කය	-9.35679
▁සමහරු	-9.35739
▁ඉක්මනින්	-9.35771
▁අහ	-9.35896
▁බාල	-9.35907
▁බලපෑම	-9.35926
▁බලමු	-9.35988
▁හැමදාම	-9.3623
▁තිබීම	-9.3623
නිය	-9.36253
▁අසල	-9.36349
▁මෙවර	-9.36445
රුව	-9.36459
▁පුහුණු	-9.36465
▁ප්‍රමුඛ	-9.36506
▁දෙකම	-9.36591
▁මුදල	-9.36607
ගි	-9.3661
▁දියණිය	-9.36612
▁රථ	-9.36681
▁ළමයි	-9.36763
▁කවුරුත්	-9.36832
▁සන්	-9.3686
▁මංගල	-9.36864
▁එහෙනම්	-9.3687
▁දර්ශනය	-9.36875
▁ගණන	-9.36917
▁ඉහල	-9.36925
▁දෙන්නා	-9.36946
▁පුවත්	-9.37044
▁ඉඳන්	-9.37103
▁2013	-9.37185
වලදී	-9.37286
ගු	-9.37337
හෙ	-9.3738
▁සහභාගී	-9.37386
▁කීපයක්	-9.3739
▁කහ	-9.3748
▁ඊළඟ	-9.37531
▁බැංකු	-9.37539
▁සෝ	-9.37593
▁පත	-9.3766
▁පින්	-9.37741
8	-9.3782
▁කුණු	-9.37893
▁මනෝ	-9.37983
▁ආදරේ	-9.38055
උ	-9.38359
▁ගියේය	-9.38383
යක්‌	-9.38385
▁එකෙක්	-9.38399
හැ	-9.38445
▁සියයට	-9.38452
▁ප්‍රබල	-9.38593
▁යන්නට	-9.38673
ඩී	-9.38674
▁කියපු	-9.38824
▁ප්‍රිය	-9.38861
සර	-9.38887
▁තිබුනේ	-9.3895
▁සහගත	-9.3904
▁දෑ	-9.39054
▁පැතිර	-9.3923
ිං	-9.39295
▁හය	-9.39353
▁මො	-9.39379
▁හදන	-9.39438
▁කිහිප	-9.39469
▁බැඳ	-9.39731
▁පක්ෂයේ	-9.39763
▁භාවය	-9.39919
▁වාසය	-9.39957
(	-9.39993
ණ්ඩ	-9.4005
▁ප්‍රසිද්ධ	-9.40073
▁උපත	-9.40177
▁අදහසක්	-9.40196
▁පෝ	-9.40206
ිකා	-9.40354
▁සංශෝධනය	-9.40508
▁දහම	-9.40564
▁වෙනස	-9.40596
▁අන්ත	-9.4063
▁එයාට	-9.40636
හ්	-9.40641
▁වූහ	-9.40713
▁ගී	-9.40864
▁සාධාරණ	-9.40875
▁මහණෙනි	-9.40947
▁කිරීමයි	-9.40962
▁නාම	-9.40964
▁අර්ථ	-9.40984
▁ජනපති	-9.41032
▁ලැබුණා	-9.4111
▁ඇතිවන	-9.41118
▁උදෙසා	-9.41129
▁අන්න	-9.41144
▁මොනවද	-9.41162
▁තිබුනා	-9.41221
ටා	-9.41237
ුණා	-9.41325
▁කාන්තාව	-9.41344
▁කරති	-9.41554
▁වහාම	-9.41565
▁වටිනා	-9.41566
▁24	-9.41595
▁අතරේ	-9.41603
▁ජයග්‍රහණය	-9.41663
▁භාග්‍යවතුන්	-9.41668
ඛ	-9.41722
▁හෙයින්	-9.41729
▁එතන	-9.41762
▁2014	-9.418
තො	-9.41838
▁විනාඩි	-9.41878
▁තාම	-9.41921
▁නගරයේ	-9.42164
▁ඔප්පු	-9.42179
සැ	-9.4221
▁ඉන්දීය	-9.42213
▁වර්තමාන	-9.42256
▁විශේෂයෙන්ම	-9.42257
වුණා	-9.42287
▁දුර්වල	-9.4231
ැති	-9.42372
▁කොටි	-9.425
▁රැසක්	-9.42501
▁වික්‍රමසිංහ	-9.4251
▁යූ	-9.42518
▁නොමැත	-9.42539
▁මුදලක්	-9.42554
රණ	-9.42554
▁වෙති	-9.426
▁නොවී	-9.42664
ජන	-9.42665
▁දැනුම්	-9.42712
▁දේශනා	-9.42722
▁යටත්	-9.42729
▁බෙහෙත්	-9.42736
▁සිහින	-9.4277
▁වේවි	-9.42809
▁අනික	-9.42818
▁වීමෙන්	-9.42837
▁තෙ	-9.4284
▁අම්ම	-9.42859
▁කීවේ	-9.42872
▁රැකියාව	-9.42972
▁දරු	-9.43139
1	-9.43156
▁නියමිත	-9.43164
▁ප්‍රතිචාර	-9.43169
යෙකි	-9.43259
යාට	-9.43263
▁මළ	-9.43319
▁පාර්ලිමේන්තුව	-9.43349
▁මුහුදු	-9.43461
▁අල්ලා	-9.43573
කිරීම	-9.43627
▁තත්ත්වයක්	-9.43711
▁අඩි	-9.43775
▁හානි	-9.43789
▁රෝගීන්	-9.43877
▁2011	-9.43915
ෙට	-9.43917
ද්දි	-9.44075
▁කැමැත්ත	-9.441
▁ජීවන	-9.44242
▁බුද්ධි	-9.44244
▁අර්බුදය	-9.44286
▁අතේ	-9.44388
▁අංග	-9.44389
▁වගා	-9.4444
රො	-9.44548
▁විශිෂ්ට	-9.44591
ුනා	-9.44661
▁නමැති	-9.44699
▁හරියටම	-9.44707
▁තුවාල	-9.44718
ධි	-9.44904
හී	-9.44957
▁පෙරමුණ	-9.45016
▁සිදුවීම්	-9.45077
▁දවසේ	-9.45166
▁බත්	-9.45193
▁ගු	-9.45214
▁පෙරේරා	-9.45309
▁මධ්‍යම	-9.45335
▁සංචාරය	-9.45344
▁නොකරන	-9.45419
▁හැඩ	-9.45492
▁මාර්තු	-9.45509
ම්බ	-9.45592
▁4.	-9.456
▁කඳු	-9.45663
▁පරිසර	-9.45697
▁කාර්	-9.4589
ස්ට්	-9.45904
▁දස	-9.45942
▁මොනවා	-9.45989
▁පූජා	-9.46007
▁යෑම	-9.46016
▁චා	-9.46087
▁දවස්වල	-9.46286
▁පෝස්ට්	-9.46329
▁අයිති	-9.46347
▁ටෙලි	-9.46423
▁න්	-9.4647
▁මාළු	-9.46527
▁වෙලාව	-9.46592
▁පැත්තට	-9.46705
▁දැවැන්ත	-9.4671
▁කරගත	-9.46825
9	-9.4685
▁යුක්ත	-9.46865
ගෝ	-9.4692
යේදී	-9.46966
▁නොහැක	-9.47
▁බන්	-9.47028
පති	-9.47089
▁හැකියාවක්	-9.47111
▁පුද්ගලයින්	-9.4715
▁වෙනව	-9.47348
▁ආකාරයේ	-9.4737
▁පානය	-9.47381
▁ක්‍රමයක්	-9.47392
▁වැලි	-9.4745
ඩෝ	-9.47536
▁බුදුරජාණන්	-9.47543
▁පවුල	-9.47657
ක්‍ෂ	-9.47788
වුණු	-9.47864
▁ගෝ	-9.4789
▁කාන්තා	-9.47943
▁වනවා	-9.48006
▁උපකරණ	-9.48032
▁අතුරු	-9.4805
▁දර්ශන	-9.48083
▁පිටුව	-9.48109
නායක	-9.48153
කේ	-9.4823
පැ	-9.48306
▁මුලින්	-9.48324
▁වෙ	-9.48341
▁දිනවල	-9.4836
▁ගහන්න	-9.48365
▁සැම	-9.48412
▁ශ‍්‍රී	-9.48432
▁සිටිති	-9.4844
▁වත්මන්	-9.4856
▁පීඩනය	-9.48567
▁හදිසි	-9.48697
▁කිරීමේදී	-9.48703
▁2021	-9.48722
▁බැංකුව	-9.48746
්‍ර	-9.48781
හම	-9.4892
▁ශිෂ්‍ය	-9.48933
▁අලෙවි	-9.48975
▁අඩවි	-9.49038
▁විද්‍යාත්මක	-9.49138
ණා	-9.49176
▁ධ	-9.49182
වම	-9.49218
▁ගිවිසුම	-9.49278
▁තරමට	-9.49321
▁සිදුවිය	-9.49429
▁කොර	-9.49506
▁ආපහු	-9.49581
▁දරුණු	-9.49589
▁ගත්තේය	-9.49614
▁දවසක	-9.49629
▁එක්තරා	-9.49648
▁ආණ්ඩු	-9.49677
▁50	-9.49697
▁සාක්ෂි	-9.49811
▁බැහැර	-9.49814
▁දේශ	-9.49824
▁අපේක්ෂා	-9.49916
▁වටහා	-9.49953
▁ප්‍රේම	-9.50054
▁හෙළ	-9.50122
▁කරදර	-9.50149
▁නායකයා	-9.50164
▁අවස්ථාවක	-9.50224
ුණේ	-9.50299
කරන්න	-9.50322
▁තමාගේ	-9.50365
▁දීර්ඝ	-9.50384
මාන	-9.50459
ෙදි	-9.50526
ලය	-9.50608
▁දාල	-9.50624
රය	-9.50705
▁ඩී	-9.50757
▁අන්තිමට	-9.50759
▁අවසර	-9.50974
▁ඇමරිකානු	-9.51164
20	-9.51182
▁22	-9.51216
▁විධායක	-9.51285
▁ලෝ	-9.51358
▁තීරණ	-9.5138
▁එකක	-9.51448
▁එක්ව	-9.51463
▁ආණ්ඩුවට	-9.51505
▁සංස්කෘතික	-9.51514
▁සංගීතය	-9.51561
▁හින්දා	-9.51581
▁දැනගන්න	-9.5162
▁පරිසරය	-9.51641
ුවේ	-9.51691
▁සාධක	-9.51869
▁විරුද්ධව	-9.5192
ඥ	-9.51932
▁අන	-9.51986
වැනි	-9.5204
වූයේ	-9.52071
හරි	-9.5213
▁සංවිධාන	-9.52166
▁යැ	-9.52269
▁ලබන්නේ	-9.52315
▁අස්	-9.52329
▁වුණ	-9.52354
▁පෑ	-9.52381
▁ඇල	-9.52423
▁නිශ්චිත	-9.52467
▁පෙන්නුම්	-9.5253
▁පවසන්නේ	-9.52594
ගිය	-9.52601
රන්	-9.52723
▁ප්‍රතික්ෂේප	-9.52745
▁පිටි	-9.52756
▁සතුන්	-9.52789
▁විරෝධී	-9.52901
▁7	-9.52906
▁එකල	-9.52943
▁ගැටලුව	-9.52961
▁6	-9.52987
▁මඩ	-9.53015
▁ගොවි	-9.5304
▁සජිත්	-9.53085
▁හිර	-9.53121
පත	-9.53176
▁දන්නෙ	-9.53185
▁සමීප	-9.53239
▁හිනා	-9.53431
▁ජනයා	-9.53504
▁වස	-9.53569
▁පරිගණක	-9.53593
▁4	-9.5361
▁සිදුවූ	-9.53646
▁විස	-9.53741
▁පිරිස්	-9.53807
▁රෙ	-9.53839
▁අනාගත	-9.53922
▁තු	-9.53934
▁කර්මාන්ත	-9.53954
▁ජෙ	-9.53973
ෛ	-9.54027
▁සබඳතා	-9.54033
ළි	-9.54095
බව	-9.54164
කමක්	-9.54214
▁දහස්	-9.54226
▁පොඩ්ඩක්	-9.54255
▁රෙදි	-9.54332
▁මෝඩ	-9.54352
▁අවට	-9.54382
▁අරමුණු	-9.54386
▁නැගෙනහිර	-9.54433
ගන්	-9.54483
▁නිර්දේශ	-9.54484
▁බෙ	-9.5457
▁ඒකාබද්ධ	-9.54573
▁එලෙස	-9.54717
▁ගැනත්	-9.54726
▁නොමිලේ	-9.54802
▁එකකට	-9.54838
▁ඉන්පසු	-9.54875
▁සම්පූර්ණයෙන්ම	-9.54875
▁දැකිය	-9.5491
▁පැවසීය	-9.54913
හන	-9.54924
▁බරපතල	-9.54926
▁නිතරම	-9.55045
රත්න	-9.5509
▁ක්‍රීඩාව	-9.55091
▁නිල්	-9.55104
▁කොල	-9.55106
▁සමයේ	-9.55113
තෝ	-9.55128
▁පිළිතුර	-9.55196
▁අරගලය	-9.55325
▁සිරුර	-9.55422
▁ඉතිහාසයේ	-9.55462
▁පදනම	-9.55465
▁නාමය	-9.55473
▁නොමැතිව	-9.55547
▁අයුරින්	-9.55652
▁රංගන	-9.55715
▁එහා	-9.55797
බෝ	-9.55923
▁ලිපියක්	-9.56023
▁ප්‍රතිඵල	-9.56126
▁බාහිර	-9.56245
▁එරෙහි	-9.56273
▁පොහොර	-9.56294
▁සාහිත්‍ය	-9.56296
▁බාධා	-9.56305
▁සෙල්ලම්	-9.56474
සර්	-9.56502
▁සීමාව	-9.56517
▁මහතාගේ	-9.5657
රියා	-9.56603
▁සුවඳ	-9.56646
▁තවම	-9.56689
▁සහෝදර	-9.56755
▁ගෙන්	-9.56798
සිංහ	-9.56891
▁වලදී	-9.56906
පිය	-9.56921
▁දිනා	-9.56977
▁චීනය	-9.5698
▁අධ්‍යක්ෂ	-9.56985
▁යන්නෙ	-9.56998
▁පදිංචි	-9.57066
▁ඇමැති	-9.57172
▁ව්‍යවස්ථාව	-9.57263
▁මොකක්	-9.57303
▁වීර	-9.57327
▁සතුව	-9.57378
▁මෝටර්	-9.57395
▁වැසි	-9.57513
න්ස්	-9.57576
▁මිත්‍ර	-9.57608
▁වාඩි	-9.57615
▁කැමතියි	-9.57672
▁මාතලන්	-9.57719
▁ඩ	-9.57763
ගැනීම	-9.57785
▁ප්‍රමාණවත්	-9.57853
▁සියළු	-9.57875
▁වේගයෙන්	-9.57876
ින	-9.57888
▁තරු	-9.57992
▁දුරට	-9.58038
▁හද	-9.58092
▁ඕනි	-9.58102
▁එවන්	-9.58143
▁මෙයා	-9.58143
▁හේ	-9.58163
▁ආරාධනා	-9.58228
▁එල්	-9.58279
දෙ	-9.58283
▁අනාගතය	-9.58316
යන	-9.58334
කරණ	-9.58366
▁සමන්විත	-9.58413
▁පත්තර	-9.58442
▁ඒවායේ	-9.58454
▁කාර්යය	-9.58455
ම්ම	-9.58538
▁නුඹ	-9.58566
▁ලාභ	-9.58585
▁හදවත	-9.58641
කන්	-9.5867
▁සටන	-9.5876
▁දෙන්නට	-9.58825
▁වසංගතය	-9.58883
ොන්	-9.58979
්‍යා	-9.59027
▁වෙලාවේ	-9.5903
▁විභාග	-9.59054
▁වළ	-9.59219
පුර	-9.59244
▁උත්සවය	-9.59315
▁සිවිල්	-9.59318
▁ජාති	-9.59345
▁නින්ද	-9.59394
▁පට්ට	-9.5941
▁සැල	-9.59475
▁මෙයට	-9.59506
▁අත්‍යවශ්‍ය	-9.59513
▁ගැටළු	-9.59536
▁කොහෙද	-9.59552
ගත්තා	-9.59565
▁වෙනස්කම්	-9.59583
▁සූත්‍රය	-9.59588
,000	-9.59593
▁මූල්‍ය	-9.59647
▁සීනි	-9.59653
ටෝ	-9.59672
▁අසරණ	-9.59698
ක්ද	-9.59711
▁වරදක්	-9.59798
▁සතර	-9.59819
▁ජවිපෙ	-9.59828
▁පැත්තේ	-9.59834
▁කිරීමක්	-9.59857
▁කන්	-9.59944
▁ලබයි	-9.5996
▁නායකයන්	-9.59986
▁බෝම්බ	-9.60014
▁රූ	-9.60104
▁මෙයින්	-9.60197
▁ලැබුණේ	-9.60202
මො	-9.60309
එස්	-9.60337
▁වෙද්දී	-9.60433
▁කියවන	-9.60451
▁වටිනාකම	-9.60554
▁ගස	-9.60559
▁අනතුරු	-9.60573
▁අහිංසක	-9.60628
▁දෙපාර්තමේන්තුව	-9.60677
▁වෙළෙඳ	-9.60726
▁විජය	-9.60773
ාගෙන	-9.60781
▁කමෙන්ට්	-9.60802
▁කෙනා	-9.60814
ලෙ	-9.6097
▁සිදුවන්නේ	-9.60973
▁එකා	-9.60979
හන්	-9.60999
▁ගෙවල්	-9.61027
▁අනතුර	-9.61074
▁හර	-9.61095
▁දුෂ්කර	-9.61209
▁තිර	-9.61233
ඊ	-9.6126
▁යුත්	-9.61313
▁තරගය	-9.6132
▁ව්‍යාපාරික	-9.6135
▁23	-9.61373
▁ලැබ	-9.61403
ෙක	-9.61415
▁සම්බන්ධව	-9.61434
සින්	-9.61481
▁කාම	-9.61508
▁වැඩිම	-9.61519
▁යානය	-9.61539
ාන	-9.61587
▁සහයෝගය	-9.61625
▁ප්‍රහාරය	-9.61658
▁උතුම්	-9.61686
▁සවි	-9.61784
වත	-9.62021
▁ප්‍රතිපත්ති	-9.6213
▁කොතරම්	-9.62162
▁බේ	-9.62193
▁සූ	-9.62236
ෂි	-9.62275
▁ගලා	-9.62335
වමින්	-9.62369
▁පොරොන්දු	-9.62374
▁ලැ	-9.62377
▁රුධිර	-9.62407
▁සංගමය	-9.62482
▁ගැනීමෙන්	-9.62499
▁අමාරු	-9.62503
▁ඇර	-9.62659
▁සිසුන්	-9.62695
ේය	-9.62705
▁අතරතුර	-9.62836
▁අන්තර්ජාලය	-9.6289
▁අදටත්	-9.62973
සො	-9.63077
▁පැත්තෙන්	-9.63172
▁අනික්	-9.63201
දුර	-9.63212
ගත්ත	-9.63259
▁භූමිය	-9.63267
▁චරිතයක්	-9.63291
▁විනය	-9.63299
▁කෙතරම්	-9.63304
▁අහු	-9.63365
▁වෙතින්	-9.63386
▁රජතුමා	-9.6341
▁හුරු	-9.63417
▁විටම	-9.63577
▁ලෙ	-9.63592
▁කරමි	-9.63593
සම්	-9.63624
▁ව්‍යවස්ථා	-9.63665
ගහ	-9.63697
▁හොර	-9.63823
▁හිට	-9.63847
▁සමු	-9.63865
යන්ගෙන්	-9.63932
▁මන්	-9.63963
▁බිම්	-9.64051
දැ	-9.64124
▁සහිතව	-9.64135
▁පුද්ගල	-9.64187
▁රටාව	-9.64441
▁තියා	-9.64446
▁ඔයාගේ	-9.64472
සල්	-9.64559
නැ	-9.64593
▁සැමියා	-9.64657
▁තමන්ගෙ	-9.64662
▁තුමා	-9.64689
▁බීම	-9.64716
▁ලබාදීම	-9.64741
▁වහන්සේලා	-9.64885
▁හයි	-9.64895
▁එම්	-9.64901
▁වර්තමානයේ	-9.64918
▁නෙමේ	-9.64935
▁පැවැත්ම	-9.64951
ග්‍ර	-9.64991
▁ස්ව	-9.65001
▁අප්‍රේල්	-9.65003
▁ශාක	-9.65108
▁වැඩිපුර	-9.6514
▁බැලූ	-9.65141
▁බලයට	-9.6518
▁වේගය	-9.65254
ඝ	-9.65407
▁කොල්ල	-9.65415
▁දරන	-9.65424
▁රූපය	-9.65465
▁නූතන	-9.65474
▁මනුෂ්‍ය	-9.65537
▁මිතුරන්	-9.65604
▁කාලයේදී	-9.65617
▁තා	-9.65627
▁නංගි	-9.65628
▁උණුසුම්	-9.65653
▁ප්‍රදේශ	-9.65681
▁සරත්	-9.6574
▁බැලීම	-9.65748
▁ආයෙත්	-9.65761
▁වෛරසය	-9.65773
▁වෙරළ	-9.65797
▁අන්තිම	-9.65835
▁ගහන	-9.6588
▁ගි	-9.65947
වෙන්නේ	-9.65954
▁එනිසා	-9.65974
▁මැතිවරණය	-9.66023
වක	-9.66086
▁ප්‍රදේශය	-9.66091
▁26	-9.66148
▁මට්ටමේ	-9.66323
▁අහස	-9.66371
කර්	-9.66423
▁ආධාර	-9.66427
▁අකුරු	-9.66445
▁ආවරණය	-9.66524
ෆි	-9.66561
ෆ	-9.66709
▁ඉතුරු	-9.66769
▁කොමිසම	-9.66773
▁විරෝධය	-9.66806
▁ලාංකික	-9.66838
▁තියෙන්න	-9.66882
▁ව්‍යාපෘතිය	-9.66918
▁සංකීර්ණ	-9.66924
▁අධ්‍යයනය	-9.66963
▁දෙකකට	-9.67021
▁කරුණ	-9.67026
ත‍්‍ර	-9.67058
▁කථාව	-9.67101
ෙන්ම	-9.67158
▁තල	-9.67166
▁ඇන්	-9.67252
තල	-9.67324
▁ළ	-9.67356
▁ශරීර	-9.67426
ාම	-9.6747
▁අයුරු	-9.67483
▁ඉන්දියානු	-9.67504
යු	-9.6753
▁එන්නත්	-9.67541
▁ආදායම්	-9.67585
▁ඉර	-9.67589
▁දැක්වූ	-9.67593
බ්බ	-9.676
▁ශුද්ධ	-9.67628
▁යෝජනාව	-9.6769
▁පාර්ලිමේන්තුවේ	-9.67763
▁රිය	-9.67766
▁ලියාපදිංචි	-9.67774
▁රත්	-9.67818
▁දෙනු	-9.67912
▁පිලි	-9.6799
▁ප්‍රවෘත්ති	-9.68015
▁වේද	-9.68016
▁මරු	-9.68101
▁පාරේ	-9.68102
▁උණ	-9.6812
කෙ	-9.68129
▁ආදි	-9.68253
▁හිටියෙ	-9.68272
▁වගාව	-9.68435
▁ඵල	-9.68446
ශීලී	-9.6852
▁දැනෙන	-9.68524
▁වියදම	-9.68536
▁අමුතු	-9.68582
▁අක්කා	-9.68593
▁භාෂා	-9.68607
▁අතිශය	-9.68628
▁මාසයේ	-9.68651
▁වැඩියෙන්	-9.68738
ෙකි	-9.68763
ානු	-9.68836
▁මෙහෙයුම්	-9.68861
ඳු	-9.68908
වෙනි	-9.68937
▁ඉලක්ක	-9.68987
▁බ්‍ර	-9.6902
▁ස්වාභාවික	-9.69047
▁වාසි	-9.6905
▁භෞතික	-9.69069
▁කලාපය	-9.69178
▁නැත්තේ	-9.6918
පන	-9.69184
▁තැනට	-9.69197
▁ෆ	-9.69257
▁ගැහැණු	-9.69271
▁ජා	-9.69303
▁ලෙඩ	-9.69337
▁සත්‍යය	-9.69474
▁ගෙදරට	-9.69506
▁තුලින්	-9.69525
▁කීවේය	-9.69531
▁කිව්වොත්	-9.69542
▁ධම්ම	-9.69574
▁මීටර්	-9.69619
▁සැර	-9.69681
▁විවාහය	-9.69742
▁රහස්	-9.69823
▁කවුරු	-9.69873
▁තොර	-9.70001
30	-9.70024
▁හිතනවා	-9.70118
ිම	-9.70151
▁කීය	-9.70155
ජී	-9.70181
පොළ	-9.70183
න්හි	-9.70202
▁නොහැකිය	-9.70205
▁සුවිශේෂී	-9.7023
▁එකී	-9.7024
▁එන්	-9.70298
▁ප‍්‍රකාශ	-9.70379
▁අමු	-9.70403
▁පන්ති	-9.70416
▁ආබාධ	-9.70516
▁ගෘහ	-9.70566
▁කරුණක්	-9.70569
▁දූ	-9.70595
▁සතියේ	-9.70678
▁ජි	-9.7068
ාට	-9.70791
▁බොන්න	-9.70827
▁විවේචනය	-9.70837
▁කර්මාන්තය	-9.70851
▁පුරුෂ	-9.70855
▁වැටී	-9.70859
▁සදහන්	-9.70897
▁හිතට	-9.70984
▁ජීව	-9.71069
▁මියගිය	-9.71088
▁නොදන්නා	-9.71111
▁ප‍්‍රධාන	-9.71131
▁පූර්ව	-9.71144
▁වැඩසටහන්	-9.7115
▁මොවුන්	-9.71178
▁දැක්ක	-9.71179
▁වල්	-9.71187
▁තැන්පත්	-9.71203
▁තැබීම	-9.71217
▁පිටු	-9.71226
▁පැමිණීම	-9.71284
▁පාද	-9.71294
▁විහාරය	-9.71391
▁ආත්මය	-9.71393
▁අල්	-9.7142
▁වැස්ස	-9.71435
▁අගෝස්තු	-9.71455
▁කිව්වෙ	-9.71472
▁ඇතුළත	-9.71738
▁හිතෙනවා	-9.7177
වරයකු	-9.71785
▁වසරේදී	-9.71823
▁සතිය	-9.7191
පෝ	-9.71937
ීම්	-9.71981
▁දිගින්	-9.72088
▁කැබිනට්	-9.72144
▁ගැලපෙන	-9.72205
▁කියව	-9.72323
ගී	-9.72336
▁රථය	-9.72377
▁පූර්ණ	-9.72409
ිල්ල	-9.72437
තේ	-9.72485
▁සංවේදී	-9.72517
▁විදෙස්	-9.72591
▁අයිය	-9.72615
▁තාත්ත	-9.72725
න්ති	-9.72854
▁එයාගේ	-9.72871
▁බහු	-9.72874
▁විෂ	-9.72943
▁හසු	-9.72958
▁පට	-9.73111
▁ගෞරවය	-9.73125
▁ආගම්	-9.73143
▁හිමියන්	-9.7317
▁මට්ටම	-9.73221
▁ක්‍රි	-9.73254
▁5.	-9.73298
ෙකුට	-9.73316
▁උත්සහ	-9.73391
▁වුන	-9.73395
▁27	-9.73485
මක්	-9.73486
▁ආනන්ද	-9.73501
▁සැපයීම	-9.7352
▁ළඟා	-9.73558
වීමේ	-9.73599
▁මෝ	-9.73604
▁28	-9.73606
මල්	-9.73613
▁න්‍යාය	-9.73711
▁ස්වයං	-9.73755
▁ස්වභාවික	-9.73767
▁දමන	-9.7379
▁අවශ්‍යතා	-9.73812
පේ	-9.73822
▁ආස	-9.73828
▁ජූලි	-9.73993
▁බොහොමයක්	-9.7401
▁දහ	-9.741
▁වරට	-9.74274
▁දෙසැම්බර්	-9.74285
▁සතුටින්	-9.74288
දුන්	-9.74417
රූ	-9.74435
▁කම්	-9.74462
තුරු	-9.74489
▁ජනාධිපතිතුමා	-9.74585
වන්නට	-9.74608
▁වර්ගය	-9.74611
නාව	-9.74622
▁කියමින්	-9.7474
ියක්	-9.7485
▁බැලුවා	-9.74921
▁රජයට	-9.7493
▁මෑත	-9.74953
▁නමක්	-9.75036
▁වද	-9.75064
▁මහත්තය	-9.75122
▁මැදිහත්	-9.75138
▁බලපෑමක්	-9.7515
▁සෑහෙන	-9.75167
▁දෙමින්	-9.75223
▁වැටීම	-9.75223
▁කල්හි	-9.75289
▁දැක්වීම	-9.7532
▁චිත්ත	-9.75423
▁පන්දු	-9.7543
▁මදි	-9.75447
▁පෙබරවාරි	-9.75492
▁දරුවන්ගේ	-9.7557
පොල	-9.75661
▁කණ්ඩායමේ	-9.75701
▁අතීත	-9.75703
▁ඒකෙ	-9.7572
ුරු	-9.7577
▁උඩු	-9.75774
▁එක්කම	-9.75818
▁ඇඟ	-9.75834
▁කලබල	-9.75857
ඕ	-9.75871
▁ආලෝකය	-9.75883
▁අත්සන්	-9.75898
▁අනාවරණය	-9.75907
▁විමසා	-9.75932
▁ගසා	-9.7608
▁යුගයේ	-9.76173
▁අවදි	-9.76254
▁කෝටි	-9.76275
▁විකල්ප	-9.76285
▁පුරාම	-9.763
▁තිබ්බා	-9.76328
▁ගැඹුරු	-9.76332
ලට	-9.76355
▁බේර	-9.76356
නුත්	-9.7638
▁පැතුම්	-9.76396
▁ෙ	-9.76403
▁හැඟීම්	-9.76621
ුනේ	-9.76714
▁මෙවන්	-9.76757
▁කම්කරු	-9.7677
▁උපකාරී	-9.76775
▁ශාලාව	-9.76803
ට්ස්	-9.7681
▁අපිත්	-9.76813
▁මහනුවර	-9.76845
▁ඉල්ලීම	-9.76859
▁පොළ	-9.76865
▁තරඟ	-9.76882
▁වැටෙන	-9.76915
▁ඈත	-9.77077
▁පැල	-9.77124
▁සේවක	-9.77144
▁ඓතිහාසික	-9.77154
▁එවකට	-9.7716
▁සිටීමට	-9.77161
▁වැව	-9.77165
▁පූ	-9.77184
▁දැක්කා	-9.77213
ෝය	-9.77222
▁වීමයි	-9.77224
▁කඩේ	-9.77228
▁මචං	-9.77243
නට	-9.7737
▁වගෙ	-9.77518
▁ක්රීඩා	-9.77536
න්ට්	-9.77586
▁ප්‍රජාව	-9.77625
▁පවසන	-9.77628
▁පව්	-9.77755
▁හින්ද	-9.77797
▁බැස	-9.77798
▁ඉස්	-9.7792
▁හැමෝටම	-9.77995
▁අනුමත	-9.77997
ිණි	-9.78023
▁ඩො	-9.78101
▁සිටියහ	-9.78128
බො	-9.78148
වුනා	-9.78164
▁පැහැදිලිව	-9.78166
දේ	-9.78189
▁මොනව	-9.78226
▁යනකොට	-9.78298
▁ගියාම	-9.78395
▁ප්‍රාදේශීය	-9.78396
▁ඉන්නව	-9.78405
▁හත	-9.78439
▁පැණි	-9.78457
▁ඉවරයි	-9.78497
▁ඒවාට	-9.78497
▁ශරීරයේ	-9.78505
▁ගබඩා	-9.78506
▁ගැල	-9.78528
▁භයානක	-9.7853
▁වැඩියි	-9.78547
▁අංශය	-9.78582
▁ජී	-9.78643
▁සමිති	-9.78648
▁අභ්‍යන්තර	-9.78705
▁පැත්ත	-9.7872
▁එළ	-9.7873
▁ගෑ	-9.7892
▁දැම්මා	-9.78947
▁වෘත්තිය	-9.78967
▁මොනවාද	-9.78977
▁පාසල	-9.78998
▁අවධාරණය	-9.79091
▁මනා	-9.79097
හෝ	-9.79134
ුර	-9.79189
▁හුස්ම	-9.79228
▁උදෑසන	-9.79248
▁මිශ්‍ර	-9.79406
▁අභියෝග	-9.79447
▁අමතර	-9.79452
▁සිතුවිලි	-9.79475
▁වහන්සේට	-9.79529
▁නිවසට	-9.79536
▁හී	-9.7961
▁සංකල්ප	-9.79642
▁දැරිය	-9.7969
▁හිතන	-9.79708
▁ලො	-9.79719
▁ලංකාවෙ	-9.7975
▁වෙලාවක	-9.79776
වාද	-9.79808
▁උන	-9.7984
▁ජීවිතයට	-9.79843
▁අතහැර	-9.79851
▁බේරා	-9.79854
▁විඳ	-9.79856
▁සාදා	-9.79974
▁සත්	-9.80048
ගත්තේ	-9.8008
▁කිලෝ	-9.80084
▁ධන	-9.8012
මන	-9.80153
▁උරුම	-9.80221
▁එහෙමත්	-9.80237
▁බැලීමට	-9.80367
පර	-9.80386
▁යුගය	-9.80417
සේන	-9.80434
▁රසික	-9.8049
▁පොතක්	-9.80498
▁අඩ	-9.80538
▁හැසිරීම	-9.80538
▁වඩාත්ම	-9.80546
▁විමුක්ති	-9.80558
▁අමාත්‍යවරයා	-9.80667
▁කරණ	-9.80677
▁රසායනික	-9.80707
▁අමාත්‍යාංශය	-9.80727
▁නොවැම්බර්	-9.80746
මහ	-9.80767
▁වැඩිහිටි	-9.80803
ෂන්	-9.80825
▁ඉල්ල	-9.80882
▁අවසානය	-9.80916
ිලි	-9.80917
▁බලලා	-9.80942
▁ප්‍රදේශවල	-9.8097
▁රැස්වීම	-9.81005
▁අමාරුයි	-9.81027
▁නොයෙක්	-9.81032
▁පාඩම්	-9.81036
▁මුණ	-9.81068
▁සේවාව	-9.81076
ගන	-9.81076
▁අක්ක	-9.81082
▁ස්වාධීන	-9.81084
▁අධිකරණ	-9.81111
▁දෙමාපියන්	-9.81114
▁ආරක්ෂිත	-9.81116
▁පුද	-9.81121
▁පේ	-9.81191
▁නැගී	-9.81216
▁යෙද	-9.81216
▁නිරූපණය	-9.81281
▁සාමාජිකයන්	-9.81295
▁කාර්යාලය	-9.81297
හර	-9.81333
▁පහල	-9.81358
▁ඇත්නම්	-9.8137
▁සත්ව	-9.81449
කඩ	-9.81489
▁බරපතළ	-9.81502
▁කැමැති	-9.81536
▁හැරීම	-9.81618
▁අවදානම	-9.81645
▁නොදැන	-9.81652
▁දෙසට	-9.81654
සම	-9.81663
▁විදිය	-9.81666
ගුණ	-9.81697
▁පෝෂණය	-9.81708
▁හැඟීම	-9.81776
▁වැල	-9.81847
▁යමින්	-9.81889
▁සැප්තැම්බර්	-9.82011
▁පිළිකා	-9.82015
▁පර්	-9.82052
▁තත්වයක්	-9.82101
▁කණ්ඩායමක්	-9.82118
▁ආදායම	-9.82141
▁දඬුවම්	-9.82142
▁රාත්‍රී	-9.82153
සන	-9.82178
දුරු	-9.82269
▁වර්ෂ	-9.82286
▁9	-9.82314
ෙන්නට	-9.82377
▁සංකල්පය	-9.82388
▁සමය	-9.82405
▁විශ්වවිද්‍යාල	-9.82436
▁2010	-9.82489
▁උඩින්	-9.82628
ුණි	-9.82663
▁එවුන්	-9.82667
▁ජෝ	-9.82728
▁ෆිල්ම්	-9.82777
▁පොතේ	-9.82784
ෙති	-9.82829
▁අල්ල	-9.82894
▁අතීතයේ	-9.82913
▁ඉන්ධන	-9.82936
▁කැමරාව	-9.8296
ටිය	-9.82973
▁තීන්දු	-9.8298
▁තමාට	-9.82992
ැල්ල	-9.83002
▁කිහිපයකට	-9.83004
ච්ඡ	-9.83007
▁ලදි	-9.83082
▁පිස්සු	-9.83098
ශා	-9.83134
ශය	-9.83146
▁ඇතිව	-9.83164
▁දෙනකු	-9.83177
▁සාම	-9.83179
▁සිදුව	-9.83221
්ය	-9.83223
▁ඔට්ටු	-9.83242
▁අධිකරණය	-9.8328
ඤ්ඤ	-9.83312
▁ලබාදෙන	-9.83315
▁අණ	-9.83321
▁හොයා	-9.83337
▁කටු	-9.8334
▁40	-9.83354
▁6.	-9.83359
ර්ස්	-9.83417
▁මගෙන්	-9.83511
ාකාර	-9.83529
▁තර්ක	-9.8353
▁අංකය	-9.8358
▁ඒකත්	-9.83602
▁සභාවේ	-9.83625
සල	-9.83646
▁පරම්පරාව	-9.83688
▁වර්ගයේ	-9.83788
න්ඩ්	-9.83827
▁නාවික	-9.83834
▁පිටුපස	-9.83893
▁විසිනි	-9.83911
▁වෙලාවක්	-9.83917
▁හත්	-9.83969
▁දහම්	-9.8398
▁රැඳී	-9.84017
▁දාගෙන	-9.84026
▁විදුලිය	-9.84036
ෂ්ඨ	-9.84134
▁සම්මානය	-9.8416
▁උත්සාහය	-9.84215
▁අලංකාර	-9.84215
▁ෆෝන්	-9.84236
▁දැනගෙන	-9.84245
▁ඇන	-9.8428
▁රසවත්	-9.84283
▁ඔවුනට	-9.84402
▁ශබ්ද	-9.84416
▁විදිහ	-9.84436
▁නිවාඩු	-9.84507
▁එතැන	-9.84525
▁නීතිඥ	-9.84605
▁ෆේස්බුක්	-9.84684
▁නිර	-9.84687
▁යළිත්	-9.84754
▁කොන්දේසි	-9.84756
▁ප්‍රදර්ශනය	-9.84778
▁මිනිස්සුන්ට	-9.84785
ෙල්	-9.84862
▁කෘතිය	-9.84864
▁ලු	-9.84919
වරයෙක්	-9.84934
▁ගඟ	-9.84943
වහන්සේ	-9.84968
ශි	-9.85001
ගල්	-9.85087
▁මින්	-9.85088
▁තියන්න	-9.85113
▁නොවීම	-9.85147
ානි	-9.85217
▁ගොඩාක්	-9.85228
▁යන්නයි	-9.85243
▁ප්‍රහාර	-9.85314
▁මේකට	-9.85359
▁උඹට	-9.85368
▁ලග	-9.85434
▁ආශාව	-9.85459
ආර්	-9.85506
▁තියාගෙන	-9.85538
▁මොහු	-9.85566
රාජ	-9.85653
▁පෙනුම	-9.85664
▁සිටියදී	-9.857
▁හොඳටම	-9.8571
▁බහුල	-9.85749
▁තත්ත්වයට	-9.85808
ර්ථ	-9.85857
හට	-9.85865
▁විශේෂඥ	-9.85868
▁අඩුම	-9.8592
▁අවුරුද්ද	-9.85926
▁පලා	-9.85954
වුණේ	-9.85986
▁ගොදුරු	-9.86037
▁දිනයේ	-9.86038
▁ඉස්කෝලෙ	-9.86064
▁වේදිකාව	-9.86115
▁පසුපස	-9.86125
▁වේගවත්	-9.86133
▁පංච	-9.86154
ාර	-9.86175
▁එ්	-9.86182
▁මුර	-9.8625
▁එලියට	-9.86267
▁විද්‍යාල	-9.86282
▁දුරු	-9.86283
▁ක්‍රියාව	-9.8629
▁දූෂණය	-9.86325
▁සමාජයට	-9.86342
▁බලන්	-9.86361
▁හමුව	-9.86407
▁දැමීමට	-9.86411
▁මැර	-9.86428
▁අනවශ්‍ය	-9.86435
▁කාටවත්	-9.86464
▁ගනුදෙනු	-9.86573
▁කීම	-9.8658
▁උන්ට	-9.86605
▁ගති	-9.86675
▁කවිය	-9.8668
තය	-9.86715
▁දකින්නට	-9.8672
▁රාජ්‍යය	-9.86778
▁සිටින්න	-9.86894
▁සමාගමේ	-9.86921
▁අංශයේ	-9.86924
▁වූවා	-9.86977
▁:00	-9.86983
▁සෙසු	-9.86992
▁කියවීම	-9.87045
▁ලෝකයට	-9.87115
▁යහපත	-9.87182
▁කලක්	-9.87187
▁රෝහල	-9.87264
▁සිටම	-9.87275
හාර	-9.87297
▁පවතින්නේ	-9.87338
▁මහන්සි	-9.87374
▁මිනිසුන්ට	-9.87423
▁පහුගිය	-9.87437
ඵල	-9.87441
▁ආහාරයට	-9.87446
▁මෛත්‍රී	-9.87447
▁කැපී	-9.87455
▁මතකය	-9.87472
▁ජො	-9.87488
▁තරගාවලිය	-9.87494
▁සමාව	-9.87568
▁පාරක්	-9.87574
▁එමගින්	-9.87596
▁නවකතාව	-9.87599
ින්ම	-9.87623
▁දැකලා	-9.87639
තන	-9.87728
▁චිත්‍රපටයේ	-9.87745
▁එන්නත	-9.8775
▁හදලා	-9.87798
▁කරගැනීම	-9.87829
▁නු	-9.87846
තුන්	-9.8786
යත්	-9.87867
▁මුව	-9.8789
▁මොහොත	-9.87928
▁අත්දැකීම	-9.87936
▁ලේඛන	-9.87978
▁බණ	-9.87982
ගම්	-9.88023
▁යානා	-9.88044
හො	-9.88107
▁පත්වීම	-9.88133
▁ගෝලීය	-9.88133
▁තැ	-9.88134
▁ඉඩක්	-9.88146
මම	-9.88168
▁කැර	-9.88263
රෙ	-9.88321
▁සීතල	-9.88325
▁සියල්ලම	-9.88365
▁ඇතුල්	-9.8837
▁වහ	-9.88389
▁ගහලා	-9.88425
▁නාග	-9.88466
▁තරහ	-9.88484
වෙක්	-9.8851
▁සම්බන්ධතා	-9.88511
ණිය	-9.88543
ජ්ජ	-9.88645
▁නැතහොත්	-9.88652
▁අළුත්	-9.88698
▁වෙද්දි	-9.88699
ඩිය	-9.88723
▁ආදර	-9.88753
▁වඩ	-9.8884
▁ඔහුව	-9.8889
▁මෙච්චර	-9.88909
▁පිටත්	-9.88956
ඔ	-9.88973
ටයි	-9.89042
▁කිරිම	-9.89051
▁ඒකෙන්	-9.89111
▁ගෙඩි	-9.89123
▁පින	-9.89128
▁හැකිද	-9.89154
▁වැටුප්	-9.89196
▁කමිටුව	-9.89199
▁කළත්	-9.89219
▁සත	-9.89221
ිල	-9.89319
▁01	-9.89366
▁පැවසුවේ	-9.8938
වරිය	-9.89465
▁දත්	-9.8949
▁යකඩ	-9.89505
▁ධනය	-9.89506
▁29	-9.89532
▁වේලාව	-9.89616
▁ඉරිදා	-9.8963
ක්ක	-9.89646
▁මහණ	-9.89647
දායක	-9.89661
▁අන්තර්	-9.89669
▁සම්ප්‍රදාය	-9.8968
▁අයින්	-9.89699
▁ඔක්තෝබර්	-9.8973
▁රාජපක්‍ෂ	-9.8973
▁දුරකථනය	-9.89779
ගැනීමට	-9.89805
ුල	-9.8982
▁උත්සව	-9.89835
හොත්	-9.89956
ිකාව	-9.9006
▁ක‍්‍රමය	-9.9014
▁බලපාන	-9.90175
▁නුඹලා	-9.90276
▁අවුල්	-9.90333
▁උරුමය	-9.90413
▁ප්‍රකාශයට	-9.90457
වන්ත	-9.90474
▁මයි	-9.90505
▁රචනා	-9.90509
▁එකිනෙකා	-9.90576
▁ලැබුවේ	-9.90584
▁දියත්	-9.90601
▁අයිතිවාසිකම්	-9.90605
▁යෙදීම	-9.90629
▁කරගැනීමට	-9.90689
වේද	-9.90713
▁කෙළවර	-9.90749
▁කොන්	-9.90751
▁බ්‍රිතාන්‍ය	-9.90774
▁පුද්ගලයෙක්	-9.90775
▁තාක්ෂණික	-9.90783
▁උෂ්ණත්වය	-9.90899
▁පිලිබඳ	-9.90916
▁වදාළ	-9.90933
▁පොලීසිය	-9.9094
▁සාපේක්ෂව	-9.90946
▁නිරීක්ෂණය	-9.90956
ෞ	-9.91039
▁සරණ	-9.91088
▁අතීතය	-9.91107
▁මහත්මිය	-9.91119
▁ප්‍රේමය	-9.9121
▁වො	-9.91212
▁ජෝන්	-9.91212
▁පිටින්	-9.91233
▁අහෝසි	-9.91253
▁අවබෝධයක්	-9.91261
වත්ත	-9.91261
▁ගාන	-9.91276
▁කාලීන	-9.91329
▁තනතුර	-9.91382
12	-9.91488
▁අහල	-9.91535
▁ලබාගත්	-9.91591
ත්‍ය	-9.91626
▁මතකයි	-9.91638
නව	-9.91681
▁බිත්තර	-9.91706
රණය	-9.91712
▁ප්‍රේමදාස	-9.91809
▁ටි	-9.91829
▁ඇතුලත්	-9.91855
▁පාලක	-9.91868
▁මූල	-9.91925
▁භික්ෂූන්	-9.91931
දාස	-9.91975
▁ස්ථිර	-9.92083
▁එළි	-9.92181
▁රාශියක්	-9.92183
ඹු	-9.9219
▁ගමනක්	-9.92199
▁ආයතනයේ	-9.92251
▁ස්ථානයේ	-9.9229
▁විද්‍යාලයේ	-9.92302
▁කළොත්	-9.92309
▁හොයන්න	-9.92359
▁අවකාශය	-9.9244
▁යෑමට	-9.9248
මං	-9.92507
පාද	-9.92529
▁ආර	-9.92581
ස්‌ස	-9.92616
▁බහුතරය	-9.92625
පිට	-9.92629
▁සිංහ	-9.92652
▁නඩුව	-9.92673
▁යෙදුම	-9.92777
▁කාන්තාවක්	-9.92813
ක්ඛ	-9.92886
රිස්	-9.92925
▁ඊළඟට	-9.9294
▁අසාර්ථක	-9.92959
▁ඔබව	-9.93032
▁අකමැති	-9.93035
▁ෆෝ	-9.93047
▁ලියූ	-9.93089
පය	-9.93118
▁ඉදිරියේදී	-9.93172
▁සිදුවේ	-9.93188
▁විද්‍යාලය	-9.93204
අපි	-9.9321
▁සිදුකළ	-9.93245
▁හිතන්නෙ	-9.9325
▁ඉස්සරහට	-9.93276
▁ඊනියා	-9.93305
▁ඉඳ	-9.93367
බෙ	-9.93467
▁අයෙක්	-9.93477
▁යෙදෙන	-9.93546
▁අවස්ථාවේදී	-9.9357
යාම	-9.93628
▁විපාක	-9.93663
▁සියලූ	-9.93664
▁ආයුධ	-9.93666
▁පන්තිය	-9.93796
ග්ග	-9.93796
▁වීමත්	-9.93809
▁යුද්ධ	-9.93813
▁ඇහුවා	-9.93834
▁පහක්	-9.93834
ද්‍ර	-9.93906
අයි	-9.93927
▁තෙම	-9.93961
▁තියනව	-9.93978
▁විල	-9.93997
▁පවත්වන	-9.94034
▁පළමුව	-9.94104
▁කීවා	-9.94112
▁ඉහළින්	-9.94158
▁යන්ත්‍ර	-9.94159
වනවා	-9.94189
▁එහෙ	-9.942
▁සිතේ	-9.94206
▁බෙහෙවින්	-9.94257
▁කොපමණ	-9.94285
▁සාර්ථකත්වය	-9.94358
▁අතිරේක	-9.94362
▁පින්තූර	-9.94483
▁තිබුණත්	-9.94509
▁උතුර	-9.94516
▁නොවීය	-9.94649
ඨ	-9.94659
දෙනා	-9.94781
▁එරට	-9.94861
▁පහත්	-9.9488
▁නියෝජ්‍ය	-9.94887
සාර	-9.9491
▁පැළ	-9.94985
▁දුන්නේය	-9.94994
▁රෝගී	-9.95012
▁දිගට	-9.95078
▁විනෝද	-9.95096
▁සුර	-9.95118
▁රේ	-9.95126
▁දරුවාගේ	-9.95146
▁නවීන	-9.95148
▁නොවැ	-9.95158
▁ව්‍යාපෘති	-9.95166
▁දිසානායක	-9.95179
▁කාමර	-9.95234
▁භාවනා	-9.95245
▁විහාර	-9.95285
▁දොස්තර	-9.95291
තැ	-9.95298
▁ගියොත්	-9.953
▁අර්ථය	-9.95325
▁වර්	-9.95441
▁දෙකක	-9.95453
▁කොහොමත්	-9.95519
▁වුවහොත්	-9.95533
▁පොළොව	-9.95583
පද	-9.95598
මෙන්	-9.95614
▁ඉඩකඩ	-9.95615
පල	-9.95633
▁විමල්	-9.95655
▁මූණ	-9.9569
▁රෝහලේ	-9.95771
ල්ස්	-9.95777
▁දිනපතා	-9.95786
ලාගේ	-9.95839
▁ඉස්ලාම්	-9.95892
▁ළමයින්	-9.9593
▁කර්ම	-9.95975
හේ	-9.95999
▁චි	-9.96
▁එදින	-9.96075
▁මධ්‍ය	-9.96161
ෂ්ට	-9.96208
▁මරණයට	-9.96232
▁ගාල්ල	-9.96257
▁රහිත	-9.96281
▁ප්‍රනාන්දු	-9.96319
▁ව්‍යාප්ත	-9.96329
▁අනුර	-9.96342
▁කියවා	-9.96374
▁නාට්‍යය	-9.96385
වෙමින්	-9.96434
▁ආසන	-9.96437
▁පෙල	-9.96466
▁දැක්වෙන	-9.96468
ස්ට	-9.96519
ෂණය	-9.96544
▁මර	-9.96616
▁දැම්ම	-9.96654
▁කියලත්	-9.96661
▁වාසනාව	-9.96726
▁කුරු	-9.96731
▁යත්	-9.96743
කයන්	-9.96747
▁සතුටක්	-9.96763
▁විභාගය	-9.96774
▁චන්ද	-9.96781
▁රෝහල්	-9.9682
▁සංවාදය	-9.96826
▁ජු	-9.96858
▁බැලිය	-9.96875
▁දරා	-9.96899
▁ජාලය	-9.96908
▁ඇඳුම	-9.96937
▁දුරටත්	-9.96949
▁විඳින්න	-9.97025
▁ගෙවන්න	-9.97079
▁බීජ	-9.97114
▁ඩෙ	-9.9718
▁සාමය	-9.97204
▁රඳවා	-9.97219
▁ඔලුව	-9.97282
▁ටො	-9.97283
ුනි	-9.97317
▁දෝෂ	-9.97347
▁වතු	-9.9744
▁ගායනා	-9.97472
▁කරද්දී	-9.97583
▁මාර්ගයේ	-9.9761
▁චීනයේ	-9.97624
▁යථාර්ථය	-9.97636
▁චන්ද්‍රිකා	-9.97648
▁හැරී	-9.97687
▁ලබාගත	-9.97699
▁රෝ	-9.97767
▁ජනමාධ්‍ය	-9.97827
▁මෙහෙයුම	-9.9783
▁අත්හදා	-9.97853
▁ඇවිල්ලා	-9.9795
▁තාමත්	-9.97951
▁පුටුව	-9.97954
▁වැසියන්	-9.97977
▁මාංශ	-9.98014
▁ගිණුම	-9.98102
▁මද	-9.98114
▁වෙනි	-9.982
▁අන්තර්ජාල	-9.98297
▁කතාබහ	-9.983
හල	-9.98307
කුල	-9.98313
▁විචාර	-9.98356
▁පසුබිම	-9.98392
▁ඈත්	-9.98407
▁දායකත්වය	-9.98413
▁ලියලා	-9.98421
▁හතරක්	-9.98458
▁එහෙයින්	-9.98484
▁නෝ	-9.98488
▁වායු	-9.98491
ලො	-9.98542
▁තබන්න	-9.98547
▁උබ	-9.98561
▁පිළිබද	-9.9858
▁බහ	-9.9858
▁කීප	-9.98606
▁වුණාට	-9.98631
▁කපු	-9.98645
තුර	-9.98673
▁ප්‍රමාද	-9.987
▁ස්ත්‍රී	-9.98703
▁දැකීම	-9.98715
▁දැමූ	-9.98736
පහ	-9.98737
▁කළමනාකරණය	-9.98753
▁සම්මා	-9.98762
රූප	-9.98783
▁මාමා	-9.98802
▁හැවිරිදි	-9.98808
▁උතුරේ	-9.98819
▁ගැසීම	-9.98856
▁කොටුව	-9.9886
ියට	-9.98864
▁කාමරේ	-9.9887
වරයෙකු	-9.98948
▁විමසීම	-9.98976
▁;	-9.98981
න්ග්	-9.9899
ගන්නා	-9.98994
▁ආයේ	-9.99181
▁බණ්ඩාර	-9.9919
ම්ප	-9.99238
පං	-9.99259
▁වටේ	-9.99317
▁කවදා	-9.99329
▁හෙතෙම	-9.99336
▁කියන්නට	-9.99354
▁දන්	-9.99354
ුළු	-9.9947
▁ඇපල්	-9.99472
ැන්	-9.99473
▁වෙද	-9.99584
▁අදත්	-9.99655
ගය	-9.99659
▁පිරී	-9.99667
▁ඇත්තෙන්ම	-9.9967
▁තත්ත්වයන්	-9.99697
▁හිතෙන	-9.99699
▁ස්ථාවර	-9.99881
පිටිය	-9.99882
▁නිවන්	-9.99885
▁විටෙක	-9.99897
▁හොයාගන්න	-9.99949
▁සැබවින්ම	-9.99989
▁ආවෙ	-9.99992
▁කිසිවෙකු	-10.0003
▁ගිහි	-10.0003
▁තිරය	-10.0004
▁වර්ණය	-10.0004
▁ආතල්	-10.0005
වාදීන්	-10.0011
ියේ	-10.0012
එම්	-10.0013
ස්ථානය	-10.0016
▁ක්ෂේත්‍රය	-10.0017
▁දිගේ	-10.0017
▁වහා	-10.0018
▁බුද්ධිමත්	-10.0019
‍ය	-10.0024
▁වතාවක්	-10.0026
▁ලොකුම	-10.0033
▁දේශපාලනික	-10.0041
▁වළක්වා	-10.0046
▁ඇමරිකාව	-10.0049
▁ඛ	-10.005
කරුවෙකු	-10.0051
▁දෙවෙනි	-10.0053
▁ක්‍රියාකාරකම්	-10.0053
▁තැන්වල	-10.0056
▁ක්ලික්	-10.007
▁ලැබුවා	-10.0072
▁ප්‍රකට	-10.0073
▁බලයක්	-10.0074
▁ගත්තොත්	-10.0076
▁ලුණු	-10.0076
යින්ට	-10.0077
▁අත්ත	-10.0083
ජු	-10.0083
▁වෙල	-10.0084
ඔබ	-10.009
▁හදාගන්න	-10.0095
▁පුවත්පත	-10.0095
▁එමඟින්	-10.0097
▁කොහේ	-10.0103
▁එළිය	-10.0103
▁එච්චර	-10.0104
ිච්ච	-10.0107
▁දළ	-10.011
ක්‌ෂ	-10.0115
▁සිටියි	-10.0118
▁දකින්නේ	-10.012
▁වාහනය	-10.0122
ට්ඨ	-10.0124
▁කාලා	-10.0128
▁ගෑස්	-10.0132
දේශ	-10.0133
▁පටි	-10.0133
ක්‍රම	-10.0134
▁සාකච්ඡාව	-10.0137
යම්	-10.0139
▁ගිහිල්ලා	-10.014
▁යහපාලන	-10.0141
▁අහලා	-10.0141
▁මන්දා	-10.0149
▁අයවැය	-10.0155
▁කියනව	-10.0158
▁මිසක්	-10.0159
▁පත්කර	-10.0159
▁අයෙකු	-10.0162
▁වනුයේ	-10.0167
▁ආදරණීය	-10.0175
▁මොකද්ද	-10.0176
ල්ලා	-10.0176
▁ශි	-10.0179
▁හිතාගෙන	-10.0182
ගො	-10.0183
▁නිදා	-10.0186
▁නළු	-10.0194
▁ක්‍රමයෙන්	-10.0197
▁සිදුකර	-10.0197
▁මුන්	-10.0198
▁31	-10.0199
▁ලබාගෙන	-10.0208
▁එව	-10.0212
▁මණ්ඩල	-10.0213
▁දශක	-10.0213
▁අධිපති	-10.0213
▁පැවැත්වෙන	-10.0216
▁සහෝදරයා	-10.0217
▁හුදෙක්	-10.022
▁ආණ්ඩුවක්	-10.0223
▁සර්ව	-10.0225
▁අගමැතිවරයා	-10.0225
▁පවත්නා	-10.0229
▁ස්ට	-10.0231
▁දරුවාට	-10.0232
▁ජාල	-10.0233
▁අවුලක්	-10.0233
ගනී	-10.0233
▁අඹ	-10.0239
▁විසඳුම්	-10.0244
▁ක්‍රියාමාර්ග	-10.0244
▁වෙලාවෙ	-10.025
▁දැන්වීම්	-10.0251
▁හිටි	-10.0259
▁ගෙවන	-10.0263
▁ගැටුම්	-10.0275
ස්ත	-10.0279
▁සිහිපත්	-10.0279
▁ඇමරිකාවේ	-10.028
ලක්	-10.0282
▁හුඟක්	-10.0285
▁ටැ	-10.0292
▁එයාගෙ	-10.0298
▁යථා	-10.0299
▁උළෙල	-10.0304
පූ	-10.0306
▁වැළ	-10.0313
50	-10.0318
▁ගෙවා	-10.0319
▁සෛල	-10.0329
▁ආයෝජන	-10.0332
▁පෙන්වන	-10.0333
▁යුධ	-10.0335
▁අවශ්‍යයි	-10.0345
▁සිනා	-10.0353
▁දො	-10.0354
▁පේනවා	-10.0356
▁භා	-10.0358
▁හුවමාරු	-10.036
▁සපයන	-10.0361
▁ප්‍රකාශය	-10.0369
▁ප්‍රා	-10.0371
▁ඉක්මවා	-10.0375
▁කැට	-10.0378
▁අවශ්‍යතාව	-10.0381
▁7.	-10.0382
▁පුවත්පත්	-10.0382
▁ලබාගන්න	-10.0388
තින්	-10.0397
▁ශා	-10.0398
▁බලවේගය	-10.0398
එන්	-10.0399
▁එයි	-10.0401
▁වාර	-10.0406
▁සැලකිලිමත්	-10.0406
▁පාරිභෝගික	-10.041
▁බැලුව	-10.0411
▁ධුරය	-10.0418
▁උපුටා	-10.0429
▁කරවන	-10.043
▁ටෙස්ට්	-10.0439
▁යු	-10.0439
▁නැතත්	-10.0443
▁කතෝලික	-10.0444
▁ජාන	-10.0446
▁තර	-10.0447
▁පුහුණුව	-10.045
▁අඩවියේ	-10.0455
▁ළඟට	-10.046
හැකි	-10.0461
▁බෙද	-10.0462
▁සමන්	-10.0464
▁පීඩා	-10.0464
▁සම්	-10.0467
▁60	-10.0472
▁අර්ධ	-10.0472
▁ඒකයි	-10.0475
▁අල්ලාහ්	-10.0475
ුයේ	-10.0477
▁යවන්න	-10.0477
කරගෙන	-10.0481
▁කිහිපය	-10.0487
▁බහුතරයක්	-10.0489
▁ෆි	-10.0492
▁නිෂ්පාදිතය	-10.0501
යැ	-10.0505
ජන්	-10.0509
▁ඇල්	-10.0511
▁යනව	-10.0513
▁වේල	-10.0515
▁බබා	-10.0518
▁ජීවිතයක්	-10.052
▁විප්ලවය	-10.0523
▁ආරංචි	-10.0524
▁කෑලි	-10.0525
▁එයාලා	-10.0527
▁අනිවාර්යයෙන්ම	-10.0527
▁07	-10.0529
ෙනුත්	-10.053
විල	-10.053
▁මත්ද්‍රව්‍ය	-10.054
▁ජනාධිපතිවරණය	-10.054
▁පාප	-10.055
▁සුද්ද	-10.0553
▁මිස්	-10.0554
▁ලං	-10.0554
▁හැඟ	-10.0555
▁පුරාණ	-10.0557
▁දෙයක්ම	-10.056
▁උනාට	-10.0562
▁ග්‍රහ	-10.0569
▁ගත්තෙ	-10.0574
▁ක්ෂේත්‍රයේ	-10.058
▁ක්‌	-10.0584
▁කඳුළු	-10.0587
▁යද්දී	-10.0594
▁ගව	-10.0596
▁උගත්	-10.0598
▁තෙමේ	-10.0599
▁බැසිල්	-10.06
▁මුල්ම	-10.0601
නීය	-10.0611
▁අසීරු	-10.0613
▁චන්ද්‍ර	-10.0613
▁ඇල්ල	-10.0614
▁ලෝකෙ	-10.0615
▁වංචා	-10.0616
ඩුව	-10.0617
▁මිනිසුන්ගේ	-10.0621
▁අජිත්	-10.0622
ීමෙන්	-10.0629
▁නිරන්තරයෙන්	-10.0641
ංස	-10.0644
▁ඊටත්	-10.0645
ත්වයට	-10.0652
▁පිං	-10.0653
▁ලැබිය	-10.0654
▁පහන්	-10.0655
▁සිතන	-10.0658
▁නිකන්	-10.0664
හිත	-10.0666
▁ලබාදුන්	-10.0674
▁දීල	-10.0674
▁ස්ථාපිත	-10.0675
▁තබන	-10.0676
▁ලිවීම	-10.0679
▁පවතිනවා	-10.0679
▁පූජාව	-10.0683
▁මෙහෙය	-10.0685
▁විම	-10.0691
යෙනි	-10.0692
▁අඳුරු	-10.0694
▁හැඩය	-10.0699
ලර්	-10.07
▁දෝ	-10.0703
ංක	-10.0706
▁පුද්ගලයකු	-10.0714
▁හිතා	-10.0714
ජීව	-10.0716
▁මුදා	-10.0717
▁සිව්	-10.0722
▁සිනමාව	-10.0723
▁වනාහි	-10.0723
▁කැසිනෝ	-10.0726
▁බ්‍රහ්ම	-10.0732
▁අමුද්‍රව්‍ය	-10.0738
▁ඉඳල	-10.074
▁දිවයින	-10.0742
▁මුහුණු	-10.0745
▁සුනිල්	-10.075
▁භූ	-10.0752
▁නිදි	-10.0753
▁කටයුත්ත	-10.076
▁මවු	-10.0763
්නෙ	-10.0765
▁මට්ටමක	-10.0768
▁මිලට	-10.0773
ක්කු	-10.0776
▁දිනකට	-10.0777
▁භුක්ති	-10.0783
▁පද්ධති	-10.0784
▁සහන	-10.079
▁විමර්ශන	-10.0791
▁සේම	-10.0794
වීමෙන්	-10.0797
▁එන්නෙ	-10.0798
▁ආයෝජනය	-10.0801
▁කැඳ	-10.0801
▁පරීක්ෂණය	-10.0803
චා	-10.0808
▁තියලා	-10.0812
▁කුස	-10.0817
▁පරපුර	-10.0818
▁වස්තුව	-10.082
▁ඔයාගෙ	-10.0822
▁නැව	-10.0824
▁ධාවනය	-10.0827
▁සර	-10.0835
මත	-10.0839
▁ගොනු	-10.0839
▁03	-10.0842
▁චින්තනය	-10.0846
▁නිවැරදිව	-10.0848
▁කාරක	-10.0848
▁මුහුද	-10.0852
පාර	-10.0853
▁ශාන්ත	-10.0858
පරි	-10.086
කගේ	-10.0864
ධාන	-10.0865
▁සාහිත්‍යය	-10.0866
▁හූ	-10.0868
▁භූමි	-10.087
▁පාසලේ	-10.0875
ලත්	-10.0877
▁කෝල්	-10.0878
▁බලධාරීන්	-10.0879
▁හැට	-10.0885
▁පන්තියේ	-10.0887
▁එළවළු	-10.0891
▁සිදුකරන	-10.0892
▁විර	-10.0896
ාස	-10.0899
▁කකුල්	-10.0903
▁ආඩම්බර	-10.0912
කාරක	-10.0912
▁නවතම	-10.0913
නෑ	-10.0918
▁නිදහසේ	-10.0922
▁යෙදී	-10.0923
බර්	-10.0929
යෙකුට	-10.0929
▁සංස්කරණය	-10.0931
▁නිවේදනය	-10.0937
▁වෙත්	-10.094
▁අලුතින්	-10.0944
▁පාස්කු	-10.0951
▁අපහාස	-10.0952
▁මැති	-10.0952
▁ප්‍රයෝජන	-10.0955
▁තානාපති	-10.0967
▁පිටත	-10.0967
▁ෆොන්සේකා	-10.0973
නයක්	-10.0974
▁උදවිය	-10.0985
▁දැනුමක්	-10.0986
▁පසුගියදා	-10.0988
▁ස්ප	-10.0992
එක	-10.0997
▁ඡ	-10.0998
▁ඇප	-10.1002
▁විනිශ්චය	-10.1013
▁උදාහරණ	-10.1019
▁අත්දැකීමක්	-10.1024
▁විද	-10.1025
න්නා	-10.103
ලියා	-10.1036
▁තත්වයන්	-10.1039
▁නියෝග	-10.1042
▁සිල්	-10.1042
▁පැවිදි	-10.1044
තික	-10.1047
▁ඇඟිලි	-10.1051
▁ලෙසත්	-10.1057
▁වාගේ	-10.1057
▁පාන්	-10.1065
▁විටත්	-10.1075
▁අඩුයි	-10.1076
▁කරනව	-10.1077
▁පාර්ලිමේන්තුවට	-10.1079
▁හින්දු	-10.108
▁නොවන්නේ	-10.1088
▁අනුරාධපුර	-10.1088
▁ගලවා	-10.1092
▁ගියත්	-10.1098
▁02	-10.11
▁දුප්පත්	-10.11
▁කණ	-10.1101
▁නොදන්න	-10.1106
▁එකකින්	-10.1106
▁කෙලින්ම	-10.1109
▁බොන	-10.1113
▁කාරණයක්	-10.1118
▁වෙසක්	-10.1119
සූ	-10.1119
▁ඉඩම	-10.1119
ප්පු	-10.1127
▁වැඩිදුරටත්	-10.113
චාර	-10.1131
වේදී	-10.1133
▁පැහැ	-10.1137
▁තැනැත්තා	-10.1146
යිස්	-10.1148
පාත	-10.1151
▁දෙකේ	-10.1154
▁ලඟ	-10.1157
▁සකසා	-10.1161
වන්ට	-10.1165
▁හිතෙන්නේ	-10.1174
▁නැඟ	-10.118
▁මණ්ඩලයේ	-10.1181
▁අනෙක	-10.1181
▁ඉංජිනේරු	-10.1187
▁මාතෘකාව	-10.1191
▁දෙන්නෙක්	-10.1192
▁වත්ත	-10.1193
▁ලැබීය	-10.1194
▁කුමරු	-10.12
▁බස	-10.1201
▁එහෙමයි	-10.1202
▁රෝම	-10.1203
▁වසරකට	-10.1205
▁විකෘති	-10.1207
▁තිබු	-10.1208
▁තැනකට	-10.1209
▁ගැටලුවක්	-10.121
▁ආශ්‍රිත	-10.1212
▁ගොඩනැගිල්ල	-10.1212
▁බොල	-10.1214
▁සුදුසුකම්	-10.1221
▁ප‍්‍රශ්න	-10.1223
▁සේවයේ	-10.1223
▁නොකිරීම	-10.1224
▁ඉක්මනට	-10.1224
▁ඉලක්කය	-10.1228
▁උණු	-10.1229
▁දාපු	-10.123
▁ජ්‍යෙෂ්ඨ	-10.1233
▁මහතාට	-10.1234
▁නෑනේ	-10.1236
▁ක්‍රියාකාරී	-10.1238
▁ඇවිද	-10.1238
▁නඩත්තු	-10.1239
ප්ත	-10.124
▁අතු	-10.124
▁ෆොටෝ	-10.124
000	-10.1249
▁දවල්	-10.1249
ෂණ	-10.1254
තෙ	-10.1254
▁රවි	-10.1262
▁අවුරුද්දේ	-10.1263
▁පුද්ගලයෙකු	-10.1265
▁ගෑනු	-10.1265
▁සමහරවිට	-10.1265
▁ජනපදය	-10.1266
වුන	-10.1268
▁ස්ථාපනය	-10.1271
▁ලිපියේ	-10.128
▁ව්‍යාජ	-10.1282
ගස්	-10.1282
▁ස්ථානයක්	-10.1286
▁කැමරා	-10.1287
වෙල	-10.1288
▁එදිනෙදා	-10.129
▁ළමුන්	-10.129
දෝ	-10.1294
▁වෛද්‍යවරුන්	-10.1294
▁හිඳ	-10.1295
▁පෙනෙන්නට	-10.13
ධර්ම	-10.1304
▁එකකි	-10.131
▁පන	-10.1311
▁පත්වූ	-10.1312
▁රජුගේ	-10.1322
▁අලූත්	-10.1324
▁දරුවෝ	-10.133
▁ආයෙ	-10.1331
▁විද්‍යුත්	-10.1334
▁හදපු	-10.1336
නින්	-10.1341
▁ප‍්‍රති	-10.1345
▁ගුණය	-10.135
▁පාහේ	-10.1354
▁ලබාදී	-10.1355
ඩර්	-10.1355
ක්කා	-10.1356
▁වැඩිහිටියන්	-10.1358
▁හැඟීමක්	-10.1359
▁චු	-10.1363
▁ඉනිම	-10.1364
වීම්	-10.1365
▁එත්	-10.1366
▁පරම	-10.1367
▁ප්‍රතිලාභ	-10.1368
▁තල්ලු	-10.1368
▁අපිව	-10.1369
▁පිළිගත්	-10.1372
▁දිස්	-10.1378
▁තීන්දුව	-10.1382
▁වුණොත්	-10.1382
▁පත්විය	-10.1382
කරුවා	-10.1383
▁විශ්ලේෂණය	-10.1384
▁රංගනය	-10.1387
▁පුළුවන	-10.1387
▁දේශය	-10.1387
▁පිටතට	-10.1388
▁මාලාව	-10.139
▁ධාතු	-10.1391
▁යමු	-10.1393
▁ආචාර	-10.1399
▁උනන්දුවක්	-10.1401
ශ්‍ර	-10.1407
▁වකුගඩු	-10.141
▁දෙකට	-10.1415
▁ඒමට	-10.1415
▁සමාජවාදී	-10.1416
▁වේදිකා	-10.1416
ාවක්	-10.1417
▁ඇහැ	-10.1421
▁කොස්	-10.1423
▁හදන්නේ	-10.1426
ණී	-10.1428
වය	-10.1429
ස්ටර්	-10.1431
ුවක්	-10.1437
▁වැළඳ	-10.1439
▁නිර්	-10.1443
▁2009	-10.1444
25	-10.1446
▁තරඟය	-10.1446
▁මොහොතක	-10.1451
▁උපක්‍රම	-10.1454
▁නිගමනය	-10.1455
▁බට	-10.1457
▁බලවේග	-10.1461
▁කියූ	-10.1463
ව්ව	-10.1464
▁ඇනෝ	-10.1465
▁මැණික්	-10.1466
▁සේවකයන්	-10.1466
▁කාඩ්	-10.1467
▁භාවනාව	-10.147
ඒක	-10.1478
▁ආකෘතිය	-10.1478
▁මිනිහා	-10.1479
▁වගකීම්	-10.1485
▁ලෙසයි	-10.1485
▁ලබාදීමට	-10.1485
▁වේදනා	-10.1491
▁ග්‍ර	-10.1494
▁චැට්	-10.1502
▁කියනු	-10.1503
ෙහෙ	-10.1505
▁මිනිහ	-10.1507
▁කලාපයේ	-10.1509
▁සියුම්	-10.1511
▁තියෙනවද	-10.1522
තව	-10.1533
කිරීමට	-10.1538
▁දිව්‍ය	-10.1539
▁නැතැයි	-10.1541
▁උපාංග	-10.1542
▁(19	-10.1543
▁රුසියානු	-10.1546
▁වැඳ	-10.1546
▁වසරක්	-10.1547
▁05	-10.155
▁සම්පන්න	-10.1554
▁හම්බන්තොට	-10.1555
▁වුයේ	-10.1556
දාන	-10.1556
▁තිබ්බේ	-10.1567
▁මාසය	-10.1569
▁අත්පත්	-10.1569
▁වෙමි	-10.1569
▁වැඩම	-10.1573
දූ	-10.1573
▁දූෂණ	-10.1574
ාංග	-10.1578
වරුන්ගේ	-10.1578
▁මාතර	-10.1579
▁එකතුව	-10.158
ාගාරය	-10.158
▁සැහැල්ලු	-10.1582
▁කර්මය	-10.1582
▁අන්තර්ගතය	-10.1585
▁වන්නේය	-10.1586
▁සිතින්	-10.1586
▁ඔබතුමා	-10.1589
▁ආසයි	-10.1592
▁හඳ	-10.1594
▁විශාලතම	-10.1596
▁යන්ත්‍රය	-10.1597
▁පාරට	-10.1601
▁ලෝකේ	-10.1605
කං	-10.1606
විත	-10.1606
▁පැමිණියේ	-10.1608
▁ජාතීන්ගේ	-10.1611
▁තරංග	-10.1612
▁ප්‍රතිඵලයක්	-10.1612
▁සමගම	-10.1614
▁සාමාජික	-10.1615
▁ඇතුලේ	-10.1617
▁කාට	-10.1621
▁ඇසුරු	-10.1621
▁තිස්	-10.1642
▁පොලිසියට	-10.1647
▁නිකං	-10.165
▁දුම්	-10.1654
ෙම	-10.1656
▁රූපවාහිනී	-10.1662
▁තියාගන්න	-10.1667
ගෙදර	-10.167
▁රස්සාව	-10.1675
▁තිය	-10.1675
වින්	-10.1679
▁විවිධාකාර	-10.1679
▁උපාය	-10.1684
▁70	-10.1684
ඔය	-10.1684
▁අනුමැතිය	-10.1685
▁මෙහෙමයි	-10.1685
▁දෙන්නෙ	-10.169
▁විදේශීය	-10.169
▁අයිස්	-10.1691
▁ඇතුලු	-10.1692
▁විපක්ෂය	-10.1692
▁සංඛ්‍යාවක්	-10.1705
▁පාලම	-10.1705
▁පිල	-10.1711
▁ගෞරව	-10.1712
▁අඩුපාඩු	-10.1715
▁පහු	-10.1717
▁සිදුවී	-10.1718
ේදි	-10.172
▁සේරම	-10.1721
▁කතාවේ	-10.1722
▁ඉරණම	-10.1725
▁ගතිය	-10.1725
▁මාවත	-10.1726
බ්‍ර	-10.1727
▁සංගමයේ	-10.1729
▁පළාතේ	-10.1735
කාරයා	-10.1738
▁විපක්ෂ	-10.174
▁පත්‍ර	-10.1743
15	-10.176
ෙස්	-10.1763
▁රසය	-10.1767
▁ලැබුණ	-10.1767
වතී	-10.1767
▁හානියක්	-10.1768
▁මව්	-10.1768
▁සූර්ය	-10.1773
▁ඇතුළේ	-10.1774
තූ	-10.1778
කරුවකු	-10.1783
▁අරාබි	-10.1784
▁ලෝහ	-10.1785
▁දානවා	-10.1792
▁පිළිගැනීම	-10.1793
ට්ටු	-10.1793
▁පැත්තෙ	-10.1796
යර්	-10.1803
▁ලස්සනට	-10.181
▁වගකීමක්	-10.181
▁ධීවර	-10.1811
▁අයකු	-10.1814
▁අවංක	-10.1815
▁එක්‌	-10.1817
▁අවශ්‍යතාවය	-10.1819
▁සිහිනය	-10.1826
▁ව්‍ය	-10.1827
සිටි	-10.1827
▁නියත	-10.1828
▁පෙන්වන්න	-10.183
කයා	-10.1834
▁ළමයා	-10.1841
ුත්	-10.185
▁පෙම්	-10.185
▁දඬුවම	-10.1857
විම	-10.1858
▁අයියේ	-10.1866
කාල	-10.1869
▁ඇමෙරිකානු	-10.1871
▁මෛත්‍රීපාල	-10.1872
▁සුවය	-10.1872
▁කිරීමත්	-10.1873
▁අඳුර	-10.1875
▁0	-10.1876
▁වැදගත්කම	-10.1879
▁තැබූ	-10.1881
▁සවස	-10.1883
▁අමුත්තන්	-10.1883
▁බණ්ඩාරනායක	-10.1888
▁ලබාගැනීම	-10.1888
▁සංඝ	-10.1889
▁ප්‍රචාරය	-10.1889
ිති	-10.189
▁පිළිබදව	-10.1892
පර්	-10.1897
▁දැං	-10.1898
▁රැල්ල	-10.1899
▁බැන	-10.1899
▁දිවිය	-10.19
▁පැවැත්වීමට	-10.1901
▁චෙ	-10.1904
▁පත්‍රය	-10.1907
චර	-10.1911
ිනුත්	-10.1914
▁වෙයිද	-10.1918
▁බෝධි	-10.1918
▁ප්‍රයෝජනවත්	-10.1924
▁වැටුප	-10.1929
ත්ව	-10.1938
▁අකුර	-10.1943
▁ප්රති	-10.1943
▁කම්කරුවන්	-10.1944
▁රත්නායක	-10.1952
තුව	-10.1959
කරමින්	-10.1963
▁ඔළුව	-10.1968
ාන්ත	-10.1969
ජය	-10.1971
▁පැමිණිලි	-10.1973
▁තනතුරු	-10.1976
▁ක්‍ර	-10.1979
▁මත්පැන්	-10.1988
▁කිහිපයක	-10.1995
ාර්	-10.1999
▁ආනයනය	-10.1999
▁තර්ජනය	-10.2005
ස්ථාන	-10.2011
▁80	-10.2012
▁පරිපූර්ණ	-10.2012
න්තර	-10.2013
▁ස්වරූපය	-10.2014
▁ගණ	-10.2014
▁භික්ෂුව	-10.2016
▁අධ්‍යක්ෂණය	-10.2016
▁ගුරුවරුන්	-10.2025
▁සෝම	-10.2028
ංගු	-10.2031
ියන්	-10.2032
▁හෙල	-10.2037
▁දෙනෙකුට	-10.2039
▁ඔයාලට	-10.2043
▁ඉහළට	-10.2043
වුම්	-10.2043
11	-10.2045
▁විසඳුමක්	-10.2046
▁බලනවා	-10.2047
හං	-10.2047
▁අන්තර්ගත	-10.205
▁යකෝ	-10.2053
▁රෝස	-10.2055
▁වෛද්‍යවරයා	-10.2061
▁පෙට්ටිය	-10.2066
සක්	-10.2071
▁හානිය	-10.2079
▁පළවෙනි	-10.2081
වකට	-10.2087
▁චිත්‍රපටිය	-10.209
▁ලියපු	-10.209
▁ආණ්ඩුක්‍රම	-10.2091
▁සුපුරුදු	-10.2097
▁කෙළ	-10.2105
▁මැන	-10.2105
යැයි	-10.2109
ාන්	-10.2111
▁පැහැර	-10.2112
▁මතුපිට	-10.212
▁ඵ	-10.212
න්නෙ	-10.2121
▁අතුරුදහන්	-10.2121
▁දර	-10.2122
▁වීඩියෝව	-10.2124
▁රූපවාහිනිය	-10.2126
▁දෙමව්පියන්	-10.2136
▁පරිගණකය	-10.2137
▁තීරණයක්	-10.2137
▁උනන්දු	-10.2139
▁දමන්න	-10.2143
කිනි	-10.216
▁සනාථ	-10.2162
14	-10.2162
▁කතාවට	-10.217
▁පිහිටුවා	-10.2174
▁ප්‍රසන්න	-10.2175
ලයි	-10.2175
▁අධ්‍යයන	-10.2176
▁කණ්ඩායමට	-10.2178
▁පෙන්න	-10.2178
▁වහල	-10.2183
▁සැකයක්	-10.2183
▁ජයවර්ධන	-10.2183
▁ඒකකය	-10.2188
▁වාද	-10.2193
▁මර්දනය	-10.2194
▁නාගරික	-10.2204
▁කැපවීම	-10.2205
▁සීන්	-10.2205
▁ගාව	-10.221
▁සොයාගෙන	-10.2211
▁ගත්තු	-10.2212
▁සමාජයක්	-10.2215
▁ට්‍ර	-10.2218
▁මහජනතාව	-10.2219
යිට්	-10.222
▁විඳින	-10.2225
▁පත්වන	-10.2227
▁බැගින්	-10.2228
▁රහ	-10.2229
▁අහිතකර	-10.2231
▁ජනපද	-10.2231
▁අනිවාර්ය	-10.2234
▁පපුව	-10.2237
▁ස්ක	-10.2238
▁අවබෝධය	-10.224
▁04	-10.2243
▁සාර්ථකව	-10.2245
▁පැහැති	-10.2247
▁ඉක්මන්	-10.2249
▁තේරුම	-10.2251
▁වසංගත	-10.2252
තක	-10.2261
▁ආරම්භය	-10.2264
▁ප්‍රතිඵලය	-10.2267
▁පෙරමුණේ	-10.2267
ාධිපති	-10.2269
▁ප්‍රාර්ථනා	-10.2269
▁යම්කිසි	-10.2269
▁ගුණාත්මක	-10.2276
▁රංග	-10.2281
▁වැන්න	-10.2287
▁උස්	-10.229
▁දෙකෙන්	-10.2299
▁අනි	-10.2305
▁නැත්තං	-10.2307
▁නැග	-10.2309
▁අම්මට	-10.2309
ෑන්	-10.2311
▁සියවසේ	-10.2311
▁ගින්න	-10.2311
ත්තා	-10.2312
ටුව	-10.2312
▁සංවිධානයේ	-10.2312
▁දරුවෙක්	-10.2322
▁කියවලා	-10.2323
▁ආකර්ෂණය	-10.2325
▁මෘදු	-10.2325
▁අසනීප	-10.2328
ත්වයක්	-10.2329
▁නිහඬ	-10.2334
▁විශේෂාංග	-10.2335
▁ප්ලාස්ටික්	-10.2335
▁ගූගල්	-10.2335
▁පරිත්‍යාග	-10.2342
▁යුග	-10.2344
▁විවර	-10.235
▁පශ්චාත්	-10.2353
▁වචනයක්	-10.2357
ලැ	-10.2357
රට	-10.2357
▁තිබියදී	-10.2358
▁යො	-10.2359
▁දිශාව	-10.2359
▁මෙතැන	-10.2364
යන්හි	-10.2368
▁ක්‍රමවේදය	-10.2372
▁ගේන්න	-10.2373
පත්ති	-10.2373
ීමේ	-10.2374
▁නික්ම	-10.2381
ට්ටි	-10.2381
▁ඉදිරිපිට	-10.2383
▁යටි	-10.2384
▁සන්නිවේදනය	-10.239
▁තිස්ස	-10.2392
▁සලකන	-10.2393
▁උපදේශක	-10.2395
▁නාන	-10.2402
ලන	-10.2405
▁සංඥා	-10.2408
▁බිරිය	-10.2408
▁මෙකී	-10.2409
▁වම්	-10.2413
▁පෙනෙන්නේ	-10.2415
▁කෙර	-10.2415
▁ගානක්	-10.2421
▁අවස්ථාවල	-10.2425
▁ලූ	-10.2429
▁වෙමු	-10.243
▁බුද්ධිය	-10.2431
▁අහන	-10.2431
▁ඉරි	-10.2433
▁හඳුනාගෙන	-10.2442
▁යෝග	-10.2444
ලන්	-10.2445
▁නිර්මාණයක්	-10.2446
▁පැවසූ	-10.2447
▁අසමත්	-10.2449
රම්	-10.2449
රින්	-10.245
▁එයයි	-10.2451
▁වන්දි	-10.2452
▁ගැනීමයි	-10.2452
▁තිබුණෙ	-10.2453
▁බෙල්ල	-10.2453
▁මුලු	-10.2459
▁උද	-10.246
කුළ	-10.2462
▁වෙළෙඳපොළ	-10.2474
▁රුසියාව	-10.2474
▁ධනාත්මක	-10.2478
වුණ	-10.2479
▁ආසාදනය	-10.2479
ියෝ	-10.2482
▁තත්පර	-10.2484
▁අරගල	-10.2486
▁විනාශය	-10.2488
▁ස්ථානයට	-10.2488
වො	-10.2493
▁දෙව	-10.2503
▁ආච්චි	-10.2504
නර්	-10.2504
▁සරු	-10.2509
▁විචාරක	-10.2512
▁ශ්‍රි	-10.2514
▁නුවණ	-10.2517
▁ප‍්‍රශ්නය	-10.2517
▁කඳවුර	-10.252
▁වීමක්	-10.2531
දර	-10.2532
▁මෙලොව	-10.2535
▁දානය	-10.2536
17	-10.2544
දෙන්න	-10.2545
10	-10.2545
▁කලු	-10.2545
▁(1)	-10.2546
▁බලතල	-10.2546
▁ලියල	-10.2547
▁කරන්නත්	-10.2548
▁එබඳු	-10.2548
▁දැල්	-10.2548
▁ශබ්දය	-10.2549
▁හිතුවේ	-10.255
▁ඉස්කෝලේ	-10.2551
මූ	-10.2555
නන්	-10.2557
▁පැවැත්	-10.2559
ැත්ත	-10.2562
▁සන්ධානය	-10.2562
▁ශක්තියක්	-10.2565
▁ස්වාමීනි	-10.2565
▁සවන්	-10.2566
ර්ශ	-10.2573
▁වාසිය	-10.2577
▁වික්‍රම	-10.2581
කිරි	-10.2584
▁සාම්ප්‍රදායික	-10.2584
▁සටහනක්	-10.2584
වැසි	-10.2584
▁සොයන්න	-10.259
▁බහුලව	-10.2591
▁පළාත	-10.2591
▁රැකියාවක්	-10.2597
▁දෙදෙනෙකු	-10.2597
▁නැඹුරු	-10.2598
ඬ	-10.2601
▁තනියම	-10.2601
▁ඉද	-10.2601
▁ක්‍රමයට	-10.2606
▁හදනවා	-10.2606
▁ශාරීරික	-10.2612
▁අදියර	-10.2612
වීය	-10.2616
▁සින්දු	-10.2624
▁තදින්	-10.2625
▁ලස්සනයි	-10.2625
▁පක්‍ෂ	-10.2626
▁භව	-10.2627
▁දිනක	-10.2629
▁ආර්ය	-10.263
▁කොටු	-10.2631
▁බර්	-10.2635
නික	-10.2635
▁පාලකයන්	-10.2637
▁සත්ත්ව	-10.2638
▁දියුණුව	-10.2639
▁ඉහළම	-10.2639
තුමන්	-10.2648
▁ලැබුන	-10.2652
▁ඉදන්	-10.2652
▁ශීත	-10.2656
▁අබ	-10.2657
▁කාබනික	-10.2659
▁ඔහේ	-10.2659
▁ඇතුලට	-10.2663
▁බැඳීම	-10.2664
▁ගන්නෙ	-10.2671
▁මේසය	-10.2676
▁දැනෙනවා	-10.2678
▁හෝටලය	-10.2688
▁උඩට	-10.269
▁නෙව	-10.2691
▁පුවත	-10.2696
▁35	-10.2697
▁සහය	-10.2698
තෙම	-10.2701
▁පල්ලිය	-10.2708
▁ඉදිකිරීම	-10.2709
ර්‍	-10.2713
▁ආකාර	-10.2722
▁ඉදිරියෙන්	-10.2724
▁ට්‍රම්ප්	-10.2728
▁මොක	-10.2728
▁රාජකාරි	-10.2729
▁බලාපොරොත්තුව	-10.2738
▁වෙස්	-10.2743
ෆා	-10.2745
▁පෙති	-10.2751
ඟු	-10.2756
▁සිතීම	-10.2761
▁මෙබඳු	-10.2764
▁බලාගන්න	-10.2764
▁අභියෝගය	-10.2766
▁පාන්දර	-10.2767
▁සපුරා	-10.2773
නියා	-10.2774
▁යද්දි	-10.2779
▁සෝවියට්	-10.2779
▁වතාව	-10.2781
▁ඉකුත්	-10.2781
▁ඉක්ම	-10.2784
▁දෙනාම	-10.2787
▁අරමුදල	-10.279
▁වහන්ස	-10.279
▁හැක්	-10.2795
සික	-10.2796
ොස්	-10.2798
▁ඉදිකිරීම්	-10.2798
▁ඇසූ	-10.2799
▁කාලයක	-10.2799
රීම	-10.28
▁දෙව්	-10.28
▁විරෝධතා	-10.2801
▁උපාධි	-10.2802
▁ලක්ව	-10.2805
▁ප්‍රතිපත්තිය	-10.2808
▁එතනින්	-10.2808
▁මිරිස්	-10.2811
▁කාර්යාල	-10.2812
▁හෘද	-10.2812
▁පුරවැසියන්	-10.2813
▁වුනාට	-10.2815
▁ජාතියක්	-10.2821
▁වටිනවා	-10.2825
▁බිමට	-10.2829
▁සයි	-10.2833
▁ගෙවීම	-10.2834
▁කිවුව	-10.2834
▁අධිකාරිය	-10.2834
01	-10.2836
▁මුතු	-10.2838
▁තැපැල්	-10.2838
▁පවරා	-10.2838
▁දළදා	-10.2842
▁අපේක්ෂක	-10.2845
බිම	-10.2845
▁විශේෂිත	-10.2846
්වල	-10.2848
▁මධ්‍යස්ථානය	-10.2849
▁මල්ල	-10.2851
ානං	-10.2852
▁ලබන්න	-10.2856
▁විදුහල්පති	-10.2856
▁උදය	-10.2858
▁රුව	-10.2862
▁සිරා	-10.2864
▁ලැබීමට	-10.2871
▁සමුළුව	-10.2876
▁පාර්ශ්වය	-10.2877
▁හොයාගෙන	-10.2878
▁නියෝජිත	-10.2879
▁ව්‍යායාම	-10.2881
▁බාධක	-10.2882
▁තත්වයට	-10.2884
▁මෘදුකාංග	-10.2886
▁පක්‍ෂය	-10.2891
▁දහසක්	-10.2892
▁උර	-10.2899
▁ආහාරය	-10.2903
කාරය	-10.2904
▁නිසාත්	-10.2904
▁කෙරිණි	-10.2911
▁ඩිජිටල්	-10.2911
▁වෙන්නත්	-10.2913
▁නොහොත්	-10.2914
▁දහය	-10.2915
ටරය	-10.2916
▁කෝපය	-10.2921
▁අළු	-10.2922
▁නයි	-10.2923
▁බලන්නේ	-10.2924
▁ජාතිවාදී	-10.2925
▁අවසානයේදී	-10.2927
▁එජාපය	-10.2935
▁ගීය	-10.2938
▁පොදුවේ	-10.2938
වපු	-10.2938
▁මන්ත්‍රීවරුන්	-10.294
▁කට්ට	-10.2941
භාව	-10.2943
ර්ණ	-10.2946
▁දකුණේ	-10.2949
ුවන්	-10.295
▁රිදී	-10.295
▁අම්මලා	-10.2952
▁සිරුරේ	-10.2952
▁ජූනි	-10.2957
▁සහල්	-10.2957
ෝප	-10.2959
▁මිනිත්තු	-10.296
▁රාත්‍රිය	-10.2966
▁විජිත	-10.2967
▁පරිභෝජනය	-10.2967
▁අනුභව	-10.2969
▁ආන්ඩුව	-10.2971
ල්ඩ්	-10.2972
▁හිතුවා	-10.2972
▁තිබේද	-10.2976
▁රෝද	-10.298
▁දෛනික	-10.2982
▁බලශක්ති	-10.2983
▁ව්‍යාපාරයක්	-10.2983
▁අප්ප	-10.2985
▁දෙපැත්ත	-10.299
▁සම්පූර්ණයෙන්	-10.2995
දන	-10.2996
▁වැව්	-10.3002
▁තෝ	-10.3003
▁ප්රතිඵල	-10.3005
▁ජපන්	-10.3006
▁රාම	-10.3007
▁හමුදාවේ	-10.301
▁ආලෝක	-10.3014
▁ඇසුර	-10.3016
▁ආරම්භක	-10.3016
ැහැ	-10.3017
▁කිව්වට	-10.3024
නයේ	-10.3025
▁නොසිත	-10.3026
▁වාණිජ	-10.3028
▁ගෙන්වා	-10.3029
▁නොදී	-10.3031
▁පරිශීලකයින්	-10.3033
▁යටින්	-10.3035
▁ආලය	-10.3036
වාගෙන	-10.3038
▁නිවන	-10.3038
▁යාපනය	-10.304
▁අනුපාතය	-10.304
සෙන	-10.3041
▁පෙන්	-10.3043
ඩේ	-10.3045
▁ලොක	-10.3046
▁සම්බන්ද	-10.3046
▁ජාතීන්	-10.3048
්ර	-10.3056
▁සියළුම	-10.3057
ැලි	-10.3061
▁භාජනය	-10.3064
▁වස්	-10.3067
▁කැම්පස්	-10.3068
▁යාවත්කාලීන	-10.3072
▁ගමට	-10.3072
▁පැවැත්වීම	-10.3074
▁ශිල්පීන්	-10.3076
ස්සා	-10.3081
▁ප්‍රවාහන	-10.3082
▁කඩුලු	-10.3082
▁ගැටළුව	-10.3084
▁පැවැත්වූ	-10.3084
▁ආකාරයකින්	-10.3089
▁තාක්	-10.309
▁තිබිණ	-10.3091
▁අඟ	-10.3093
▁ගැහුව	-10.3098
▁කාර්මික	-10.31
▁ප්‍රායෝගික	-10.3101
▁හැමදේම	-10.3102
▁සසර	-10.3104
▁තරුණයා	-10.3104
▁නිලධාරියා	-10.3106
▁අමර	-10.3109
▁අන්ධ	-10.311
▁රුධිරය	-10.3112
▁ලෑස්ති	-10.3114
▁ගැබ්	-10.3114
▁විසඳ	-10.3114
ගනු	-10.3115
▁ප්‍රවේශ	-10.3116
▁හිතලා	-10.3118
▁බිත්ති	-10.3123
▁බූ	-10.3124
▁වියළි	-10.3125
යින්ගේ	-10.3131
▁ඇතිවිය	-10.3134
▁දෙවියන්වහන්සේ	-10.3134
▁ඉන්දියාවට	-10.3137
▁උඹේ	-10.314
▁කෘති	-10.3141
▁ගැනීම්	-10.3142
▁එතැන්	-10.3143
▁කාන්තාවන්ට	-10.3147
වකු	-10.3156
ිඳු	-10.3157
▁කැමැත්තක්	-10.3158
▁නිය	-10.3159
ත්වයෙන්	-10.316
▁මැටි	-10.316
▁සිද්ද	-10.3166
▁තෙර	-10.3167
▁පුරවැසි	-10.3168
▁විනිසුරු	-10.3169
▁පරිමාණ	-10.3169
▁නෑනෙ	-10.3169
▁බැව්	-10.3174
▁විශ්වවිද්‍යාලය	-10.3179
▁ගාමිණී	-10.3182
ාවේ	-10.3184
▁මිනී	-10.3189
▁උපදින	-10.319
▁පෙළඹ	-10.3192
▁ස්පර්ශ	-10.3193
▁බලල	-10.3193
▁යැවීම	-10.3199
22	-10.3203
▁ජාතිවාදය	-10.3203
▁නිරෝගී	-10.3205
▁වෙසෙන	-10.3205
▁රුවන්	-10.3207
▁රාජ්	-10.321
▁1,	-10.321
▁ගෑනි	-10.3213
▁හමාර	-10.3218
▁ඇයව	-10.3219
▁එළඹ	-10.3222
▁ලැයිස්තුව	-10.3225
▁දුක්ඛ	-10.3227
▁අන්දම	-10.3228
▁ටයි	-10.3231
▁ා	-10.324
▁ඉතිහාස	-10.3242
▁හවුල්	-10.3244
▁90	-10.3249
▁කොමිෂන්	-10.3251
▁නාමල්	-10.3253
▁බුරු	-10.3254
කූ	-10.3256
ලීම	-10.3258
පාන	-10.3258
▁නාස්ති	-10.326
▁විස්ස	-10.3265
▁ඉස්මතු	-10.327
▁ක්‍රියාකාරිත්වය	-10.3275
▁තුනකට	-10.3276
▁කකුල	-10.3276
▁දැක්ම	-10.3278
▁ඇතුලෙ	-10.3285
▁බැඳී	-10.3286
▁හවස	-10.3288
▁මත්	-10.3291
▁යහ	-10.3292
▁රැු	-10.3293
▁ආලේප	-10.3299
▁හිසකෙස්	-10.3301
▁එනකොට	-10.3303
▁නොකරන්න	-10.3305
▁බ්‍රාහ්මණ	-10.3305
▁ගොඩනැගීම	-10.3309
▁කාව්‍ය	-10.331
▁පේන්න	-10.3314
▁ප්‍ර‍	-10.3317
කුයි	-10.3321
▁යුත්ත	-10.3323
ළා	-10.3325
▁කලකට	-10.3325
▁සැලකිල්ලට	-10.3326
▁ගිල	-10.3327
ාධි	-10.3327
▁පෙම්වතිය	-10.3328
ස්ථ	-10.3333
▁ලින්ක්	-10.3333
▁අසන්නට	-10.3335
▁හෙන	-10.3335
▁පිරිවැය	-10.3336
▁නෙවේ	-10.3339
▁එජාප	-10.3341
▁08	-10.3341
ඩින්	-10.3344
▁ලේසි	-10.3344
▁සපත්තු	-10.3347
▁දිනක්	-10.3351
▁පැත්තකින්	-10.3351
▁චෝදනාව	-10.3352
▁ලබනවා	-10.3359
▁එහාට	-10.3364
ට්‌	-10.3364
▁දැකගත	-10.3365
▁තීරණාත්මක	-10.3365
▁බෝල	-10.3366
▁කිසිවකු	-10.3367
▁නවක	-10.3368
▁ගාණ	-10.3368
▁පටු	-10.337
▁ඇමෙරිකාව	-10.3374
▁මාල	-10.3378
▁ගහල	-10.3378
▁උපාධිය	-10.3379
▁හිම	-10.3383
▁අඩුවෙන්	-10.3389
▁නැව්	-10.3391
▁සීමිත	-10.3394
▁එච්	-10.3396
▁සිංහලෙන්	-10.3396
▁මනාව	-10.3401
තෙක්	-10.3401
බේ	-10.3406
▁දෙයකි	-10.3414
▁ලබාගැනීමට	-10.3414
▁ගත්හ	-10.3416
▁ඇණවුම්	-10.3419
▁උපසිරැසි	-10.3421
▁කීමට	-10.3422
▁පුරාවිද්‍යා	-10.3423
▁තාරකා	-10.3425
▁බ්ල	-10.3428
▁ගැටළුවක්	-10.3429
▁කඳ	-10.343
▁සේවාවන්	-10.3433
▁විශ්‍රාම	-10.3436
▁නොසලකා	-10.3441
▁රඳා	-10.3442
▁ඉඟි	-10.3443
▁කව	-10.3443
කලා	-10.3443
▁ඔවුන්ගෙන්	-10.3445
්‍යය	-10.3449
▁කුසල්	-10.3458
▁නගා	-10.346
▁ක්‍රිස්තියානි	-10.346
▁දවසට	-10.3461
කරුවෙක්	-10.3464
▁ගුණවර්ධන	-10.3465
▁මොළය	-10.3467
ජාත	-10.3467
භා	-10.3469
▁එනව	-10.347
▁පැන්	-10.347
▁උයන	-10.3472
▁ෂෙ	-10.3476
▁මැක්	-10.3478
▁විවේක	-10.3478
▁ලිපියෙන්	-10.3479
▁අපනයන	-10.3481
එල්	-10.3484
▁කවුරුවත්	-10.3486
▁සැබැවින්ම	-10.3488
▁වෙළඳපොළ	-10.3489
▁විකාර	-10.3491
▁අසු	-10.3499
සියා	-10.35
▁පිළිගන්න	-10.35
▁ඇළ	-10.3502
▁දිවා	-10.3502
▁පඩි	-10.3503
▁ක්‍රීඩකයන්	-10.3503
▁විශ්වාසයක්	-10.3504
රන	-10.3506
▁හෙළිදරව්	-10.3507
▁පාපන්දු	-10.3508
▁පැහැය	-10.3511
▁තරම	-10.3515
▁අස්වැන්න	-10.3517
ාල	-10.3517
▁දශකයේ	-10.352
▁හිතුනා	-10.3522
තාවයක්	-10.3523
▁අවදානම්	-10.3528
▁සමා	-10.3533
▁නිමා	-10.3533
▁ඩුබායි	-10.3535
▁හෝටල්	-10.3535
ාහ	-10.3539
▁සෑහෙන්න	-10.3539
▁යේසුස්	-10.3539
▁කෙස්	-10.3545
▁හොදින්	-10.3545
▁විද්‍යාඥයන්	-10.3546
▁වැටිලා	-10.3546
▁අමාරුව	-10.3553
▁රෝගියා	-10.3559
▁සැමට	-10.356
▁ළමයෙක්	-10.3561
▁පැවත	-10.3564
▁නසා	-10.3566
▁සඟරාව	-10.3567
▁සිසු	-10.3569
▁ඇසි	-10.3573
▁රවී	-10.3576
▁පිටපත්	-10.3578
▁ගොඩනැගිලි	-10.3579
▁නොකිය	-10.3583
▁නැහැනේ	-10.3583
භව	-10.359
▁කරුණකි	-10.3595
▁කෝපි	-10.3602
▁පච්ච	-10.3603
රියන්	-10.3607
▁පලතුරු	-10.3608
▁අයිතියක්	-10.361
▁සෙවීම	-10.3613
▁ඇතිකර	-10.3616
▁සම්පාදනය	-10.362
▁භාවිතයෙන්	-10.3622
යිඩ්	-10.3622
▁ලේඛක	-10.3623
▁අක්කර	-10.3628
▁ලබ	-10.363
▁හොදයි	-10.3631
▁විජේ	-10.3632
ටික්	-10.3636
▁ඥාති	-10.3642
▁කෙල	-10.3645
13	-10.3649
ේෂන්	-10.3655
සුන්	-10.3664
▁කුසලාන	-10.3667
▁ක‍්‍රියා	-10.3669
▁බැර	-10.3676
බල්	-10.368
▁රයි	-10.3682
▁විකුණන	-10.3683
පාට	-10.3691
▁ගෝල	-10.3692
▁ජීවත්වන	-10.3697
▁ශ්‍ර	-10.3703
▁බැද	-10.3707
▁දුකක්	-10.3711
▁0.	-10.3712
▁පෙන්නන්න	-10.3715
▁පැට	-10.3718
ළුව	-10.3722
සන්න	-10.3723
යෙන්ම	-10.3726
▁වර්ෂයේ	-10.3727
▁තර්කය	-10.3727
▁යවන	-10.3729
රයක්	-10.3732
▁කියන්නම්	-10.3738
ර්ඩ්	-10.3739
▁වගකිව	-10.374
▁ප්‍රඥාව	-10.3741
▁ගැළපෙන	-10.3743
▁ප්‍රංශ	-10.3746
▁කළාය	-10.3746
▁පයින්	-10.3747
▁කේක්	-10.3748
ීමක්	-10.3751
▁කටයුතුවල	-10.3757
▁වංචාව	-10.3759
▁06	-10.376
▁මෙතරම්	-10.3761
▁ඇඩ්	-10.3762
▁කලෙක	-10.3765
▁හැරිය	-10.3769
වාදි	-10.3773
සුව	-10.3774
▁පැහැදිළි	-10.3778
▁එතැනින්	-10.3782
▁සැකසීම	-10.3784
▁ලෙසට	-10.3786
▁තෝර	-10.3786
▁විටමින්	-10.3786
▁යුරෝපීය	-10.3787
දැන්	-10.3798
▁ආතතිය	-10.3799
▁විසින්ම	-10.3809
▁අයගෙන්	-10.3811
▁ලොක්ක	-10.3812
මාන්	-10.3814
▁සම්බන්ධතාවය	-10.3816
▁තමුන්	-10.3818
▁පුත්‍ර	-10.3821
▁අනිත්‍ය	-10.3822
▁භාෂාවෙන්	-10.3823
▁සීයා	-10.3824
▁ටෙ	-10.3826
▁කෝප්ප	-10.3827
▁සංවාද	-10.3828
▁පාර්ශවය	-10.3829
▁සම්බන්ධය	-10.3831
්‌	-10.3835
▁පිර	-10.3841
▁දැක්විය	-10.3841
ඩො	-10.3841
▁කෙල්ලෙක්	-10.3843
▁රාජකීය	-10.3843
▁සොඳුරු	-10.3844
▁හිඟ	-10.3845
▁ඍජු	-10.3848
▁කරුවන්	-10.3848
තාවක්	-10.385
ිමින්	-10.3851
▁කරුණාකර	-10.3851
▁යුරෝපයේ	-10.3855
▁ධාරාව	-10.3865
ාදි	-10.3868
▁නවතා	-10.3869
▁ස්වාමි	-10.3875
වකි	-10.3877
▁දරුවෙකු	-10.3882
▁නොගෙන	-10.3883
▁මෙරටට	-10.3883
▁සම්මුඛ	-10.3884
▁සිතට	-10.3888
▁ඉල්ලීම්	-10.3888
පට	-10.389
▁දුරකතන	-10.3896
▁පෘථිවිය	-10.39
ලොව	-10.3905
▁අවහිර	-10.3905
▁ත්‍රස්තවාදය	-10.3905
ණ්ඩු	-10.3909
▁ගැමි	-10.3915
▁නීතිමය	-10.3917
▁ගහනවා	-10.3919
▁යමෙකු	-10.392
▁ඇතිවීම	-10.3922
ාර්ථ	-10.3924
▁පාරවල්	-10.3926
ුමක්	-10.3927
▁හිතාගන්න	-10.393
▁ඝන	-10.3932
▁බෝග	-10.3934
▁බළ	-10.3935
ක්වත්	-10.3937
▁ඉස්සරහ	-10.3938
▁ස්ථානයක	-10.3939
▁යෝධ	-10.3939
▁දෘෂ්ටි	-10.3943
▁කෑල්ල	-10.3943
▁වසන්ත	-10.3945
▁ජනපදයේ	-10.3947
▁ඉල්ලීමක්	-10.3949
▁අග්‍රාමාත්‍ය	-10.395
▁එපමණක්	-10.3953
▁සැපය	-10.3953
▁කාසි	-10.3955
▁බෙදීම	-10.3956
▁සම්බන්ධයක්	-10.3957
ෙව්	-10.3965
▁පිහිටුවීම	-10.3967
වලු	-10.3971
ගොල්ල	-10.3978
▁ලිපිනය	-10.3979
▁හිතවත්	-10.398
පස	-10.3982
ාස්	-10.3983
▁යෑයි	-10.3987
▁වටින	-10.3989
▁හරී	-10.3991
▁බඳු	-10.3991
ගනි	-10.3992
▁අමා	-10.3995
▁මාර්ගයක්	-10.3996
▁රාමුව	-10.4001
▁එකවර	-10.4001
▁ඔබත්	-10.4007
▁බයි	-10.4008
▁දේවාලය	-10.4011
▁යොදාගෙන	-10.4013
▁මැතිතුමා	-10.4017
▁පැමිණිය	-10.4018
▁ගම්පහ	-10.4021
▁පිටරට	-10.4022
▁බද්ද	-10.4023
ඵ	-10.4029
ොල්	-10.4029
යුතු	-10.403
ධා	-10.4031
ක්‍ර	-10.4032
ඡ	-10.4032
▁ඔලිම්පික්	-10.4032
▁වුනු	-10.4035
▁රාත්‍රියේ	-10.4037
▁ප්ල	-10.4037
▁අනා	-10.404
▁තොට	-10.4042
▁කියාය	-10.4049
▁දක්වන්න	-10.4051
▁නරඹන්න	-10.4052
‍ටු	-10.4052
▁පෙන්වීම	-10.4056
▁ආසියානු	-10.4057
▁ගෙව	-10.4057
▁තී	-10.4061
▁රීති	-10.4061
ම්බර	-10.4061
▁තන	-10.4063
▁විරහිත	-10.4066
ලන්තය	-10.4069
▁පූජක	-10.4071
▁වාතය	-10.4072
▁ජුනි	-10.4074
▁මෙතනින්	-10.4074
▁විශ්වවිද්‍යාලයේ	-10.4075
▁විධිමත්	-10.4076
▁තුළදී	-10.4077
▁ලියන්නේ	-10.4078
▁උපයෝගී	-10.4078
▁බැඳුම්කර	-10.4078
න්ඩි	-10.4081
සය	-10.4084
▁සේවයට	-10.4084
▁පීරිස්	-10.4085
ලාට	-10.4086
▁වස්තු	-10.409
▁බද්ධ	-10.4091
▁හාමුදුරුවෝ	-10.4091
▁කීව	-10.4091
▁ළමයින්ට	-10.4096
▁දක්වමින්	-10.4096
▁උස්ස	-10.4101
▁බෑග්	-10.4102
▁මෑතකදී	-10.4105
▁සජීවී	-10.4108
▁දිනෙක	-10.411
▁කාමරය	-10.4114
▁වඳ	-10.4115
යාව	-10.4116
▁ගිණුම්	-10.4119
▁වෙනිදා	-10.4121
▁උදාහරණය	-10.4123
▁එකිනෙකට	-10.4124
▁තෙරුන්	-10.4125
▁මන	-10.4125
▁වතාවට	-10.4127
▁රැඳ	-10.413
▁ජීවීන්	-10.4132
▁ඔසවා	-10.4134
▁බන්ධනාගාර	-10.4137
▁මිනිහෙක්	-10.414
▁අතුරුදන්	-10.4141
▁ප්‍රවීණ	-10.4144
▁ගණනාවක	-10.4145
▁කලාප	-10.4145
▁ගෑණු	-10.4147
▁දරුව	-10.4153
▁හැකියාවන්	-10.4157
▁සේවකයින්	-10.4158
▁ඝාතන	-10.4158
▁අස්ස	-10.4159
▁භූමිකාව	-10.4162
ේන්ද්‍ර	-10.4163
▁ඡායාරූපය	-10.4165
වරුන්ට	-10.4167
▁වෛරය	-10.4169
▁දූෂිත	-10.4171
▁යතුරු	-10.4177
▁තුළට	-10.4177
▁ජාතියේ	-10.4177
මන්ට්	-10.4178
▁විසඳුම	-10.4181
▁ඔන්ලයින්	-10.4183
පළ	-10.4184
ගෙයි	-10.4189
▁පාන	-10.419
▁සපයා	-10.4195
ක්ශ	-10.4196
▁ගනුදෙනුකරුවන්	-10.4198
▁ශාකය	-10.4198
▁විහිළු	-10.4198
▁බුදුදහම	-10.42
▁පොල	-10.4202
▁බහුතර	-10.4203
▁අවස්ථාවන්	-10.4204
▁මාසයේදී	-10.4208
ත්ථ	-10.4209
▁වැරැද්ද	-10.421
▁සාගර	-10.4212
▁කඩදාසි	-10.4212
▁හොත්	-10.4214
▁සත්කාර	-10.4214
ෙනු	-10.4215
▁භික්ෂු	-10.4216
තං	-10.4219
▁පමණින්	-10.4223
▁කරදරයක්	-10.423
▁ස්තුති	-10.4235
▁හැඳින්වෙන	-10.4237
▁කොල්ලෙක්	-10.4239
▁උඹල	-10.4241
18	-10.4243
▁බාධාවක්	-10.4249
▁සිතන්නේ	-10.425
ර්ට්	-10.4252
ාන්තය	-10.4261
▁සන්නිවේදන	-10.4265
▁මිනිසෙකු	-10.4267
▁අහනවා	-10.4269
▁හැසිර	-10.4272
▁දීමේ	-10.4275
▁අනුමාන	-10.4276
▁උද්	-10.4278
▁මධු	-10.4283
▁මඳ	-10.4285
▁ලැබෙනු	-10.4287
▁හාල්	-10.429
▁ගැටුම	-10.429
▁හොරෙන්	-10.4295
▁ඉවස	-10.4302
▁මැඩ	-10.4305
▁නැගීම	-10.4309
▁යෙදුම්	-10.4311
▁යුරෝපා	-10.4311
▁අමාරුවෙන්	-10.4312
▁පුත්	-10.4316
▁චිත්‍රපටයක්	-10.4317
▁ක්‍රීඩක	-10.4318
රාව	-10.4321
40	-10.4323
වෙකු	-10.4325
පිරි	-10.4326
▁කදිම	-10.4328
▁සල	-10.4329
▁අවුල	-10.4334
ථා	-10.4338
▁තෑගි	-10.434
ිල්	-10.434
ධර	-10.4343
▁රාජකාරිය	-10.4345
සත්	-10.4349
ිණ	-10.4349
▁මේකේ	-10.4352
ගුරු	-10.4359
▁අලුත්ම	-10.4362
▁දම්	-10.4363
▁අනන්ත	-10.4366
▁ද්විත්ව	-10.4367
▁පන්සල	-10.4375
▁මිනි	-10.4381
▁බාගත	-10.4381
▁දන්නව	-10.4388
▁තිබී	-10.4389
▁කුරුණෑගල	-10.4391
▁නොවේද	-10.4395
▁බොහෝවිට	-10.4396
▁ඇමතිවරයා	-10.4397
▁කැමැත්තෙන්	-10.4401
ජනක	-10.4402
ගර්	-10.4404
▁ඝ	-10.4407
▁විධි	-10.4411
▁සද්ද	-10.4415
සාද	-10.4416
▁දේපළ	-10.4416
සේක	-10.4417
ාරාමය	-10.4419
රාජ්	-10.4419
▁දකුණ	-10.4422
▁ඉන්දික	-10.4423
▁පහසුව	-10.4428
▁නියමයි	-10.4429
▁පේන	-10.4431
▁මිළ	-10.4431
කාරි	-10.4433
▁භාවිතයට	-10.4434
▁ඇද්ද	-10.4434
▁පාත්‍ර	-10.4435
▁ලිව්වේ	-10.4439
▁ජනක	-10.444
▁වර්ජනය	-10.4441
▁ගැහැනු	-10.4445
▁සුද	-10.4445
▁සරලව	-10.4448
▁ඇග	-10.4449
▁ඇවිල්ල	-10.4453
▁තෙත්	-10.4453
▁පැහැදිලිය	-10.4454
▁සුරක්ෂිත	-10.4456
වැන්න	-10.4457
▁යුක්තිය	-10.4458
▁නාමයෙන්	-10.4459
▁සොයන	-10.446
▁ග්ල	-10.4465
▁බලයෙන්	-10.448
▁දඩ	-10.4483
▁කාය	-10.4485
සීම	-10.4488
▁ගොවීන්	-10.4491
ගාමී	-10.4495
▁උඩරට	-10.4496
▁හැදුව	-10.4501
▁ගිවිසුම්	-10.4502
▁වැළකී	-10.4503
▁ඉන්ද්‍රිය	-10.4505
▁පරාසය	-10.4506
▁කාටත්	-10.4506
▁පාඩු	-10.4508
▁පිරිමින්	-10.4511
▁පැහැදිලිවම	-10.4511
▁ගංගා	-10.4512
16	-10.4515
▁ශරීරයට	-10.4515
▁පන්සල්	-10.4517
▁ගාස්තු	-10.4528
▁සුවිශේෂ	-10.4529
▁ක‍්‍රියාත්මක	-10.453
▁ස්වාමීන්	-10.4531
▁මැදිහත්වීම	-10.4531
▁අත්හැර	-10.4532
්නට	-10.4532
▁මිතුරා	-10.4533
▁තැනින්	-10.4534
▁මුද්‍රණය	-10.4534
▁අසන	-10.4543
▁සතුටුයි	-10.4545
ෂය	-10.4546
▁හඳුන්වන	-10.4546
▁අතිශයින්	-10.4547
▁9.	-10.4549
▁සංසාර	-10.4552
▁ජපානය	-10.4553
ලද	-10.4554
▁කෙනෙක්ට	-10.4554
▁ඔයාලා	-10.456
▁වන්දනා	-10.4563
චර්	-10.4564
▁සුලු	-10.4566
▁කුමක්දැයි	-10.4567
▁පාසැල්	-10.457
▁නිපදවන	-10.4573
▁ත්‍රි	-10.4574
▁සරසවි	-10.4576
▁ක්රියා	-10.4576
▁දෙකකින්	-10.4581
වීමක්	-10.4581
▁ආකල්ප	-10.4584
▁සග	-10.4586
▁පාදක	-10.4587
▁තට්ටු	-10.4587
▁දිස්ත්‍රික්කයේ	-10.4595
▁අපව	-10.4597
▁අරං	-10.4598
▁උපයා	-10.4599
▁වැඩිවීම	-10.4602
▁ළමය	-10.4603
ත්‍රි	-10.4603
▁කෙරුණු	-10.4605
▁වැළැක්වීම	-10.4607
▁එයාල	-10.4608
▁ආයුර්වේද	-10.4608
▁යටපත්	-10.4609
▁රී	-10.461
▁තරුණියන්	-10.4611
▁වෙන්නට	-10.4612
▁නිසැකවම	-10.4613
ල්ලේ	-10.4616
▁පිහිටීම	-10.4619
දෑ	-10.4621
▁පහළට	-10.4621
▁ප්රධාන	-10.4623
ීස්	-10.4626
යෙකුගේ	-10.4627
▁නොප	-10.4627
▁පරා	-10.463
▁දැකල	-10.4631
▁වන්	-10.4632
▁අවධානයක්	-10.4633
සුම	-10.4634
▁නිව්	-10.4635
▁පදය	-10.4636
▁ප්‍රකාශයක්	-10.4639
▁බඳවා	-10.4642
ඩ්‍ර	-10.4643
▁පුත්‍රයා	-10.4644
▁ඇමැතිවරයා	-10.4645
වුනේ	-10.4645
▁රත්න	-10.4646
▁ප්‍රො	-10.465
▁කළහොත්	-10.4652
▁කිරීමටත්	-10.4654
▁වීදුරු	-10.4654
▁නිමල්	-10.4655
▁අමුතුවෙන්	-10.4656
▁නායකයින්	-10.4656
▁අවුරුද්දක්	-10.4656
ච්චි	-10.4657
කාරයන්	-10.4659
කරලා	-10.4668
▁අවු	-10.467
ැක්	-10.4672
▁ඉගෙනීම	-10.4678
▁කතරගම	-10.4679
▁මහත්මයා	-10.4685
▁කෙරෙන්නේ	-10.4685
ලංකා	-10.4687
▁කෑව	-10.4692
▁සිතිය	-10.4694
▁අනාගතයේ	-10.4696
▁හදුනා	-10.4699
▁සංඥාව	-10.4703
▁බැලුවේ	-10.4704
▁ලැබෙන්න	-10.4706
▁ගණනය	-10.4706
▁හොරු	-10.4707
▁හිනාව	-10.4708
▁බොහෝම	-10.4709
▁සර්ප	-10.4712
▁චූ	-10.4716
ාවට	-10.4716
▁අමාත්‍යංශය	-10.4716
ම්මා	-10.4717
ඔයා	-10.472
▁දැක්කම	-10.4725
▁වදන්	-10.4726
▁පියවරක්	-10.4727
▁තත්ත්ව	-10.4728
▁ගිහිං	-10.4733
▁ඇබ්බැහි	-10.4737
▁දෙනාට	-10.4737
▁රෝහලට	-10.4739
▁තාක්ෂණ	-10.4742
වුල	-10.4743
▁පද්ධතියක්	-10.4743
▁ගැනීමේදී	-10.4744
▁කායික	-10.4747
▁එක්කෝ	-10.475
සයි	-10.475
භි	-10.4755
පස්ස	-10.4757
▁වයි	-10.4766
▁වාර්තාවක්	-10.4768
▁උදවු	-10.4771
▁දැම්මේ	-10.4772
▁සිටු	-10.4773
▁මොකෝ	-10.4774
▁ආදරෙයි	-10.478
▁වටිනාකමක්	-10.4782
▁සැන්	-10.4784
▁200	-10.4784
▁අඬ	-10.4784
▁විමර්ශනය	-10.4786
▁ආයු	-10.4788
මුද	-10.4795
▁නෝනා	-10.48
▁මිතුරු	-10.48
▁(1	-10.4803
ෆෝ	-10.4804
▁තණ	-10.4808
▁සංවිධායක	-10.4812
▁සෘජු	-10.4816
▁නොවිය	-10.482
▁දොස්	-10.482
▁ආයතනයක්	-10.4823
▁කරන්නන්	-10.4823
▁සිදුවීමක්	-10.4826
▁කාර්යාලයේ	-10.4833
▁පේශි	-10.4836
යෝජන	-10.4836
▁දෙදෙනාම	-10.4838
▁කසාද	-10.4838
▁දුරක්	-10.4838
▁හෙහ්	-10.484
හාන්	-10.4843
කාලීන	-10.4844
▁කාරණාව	-10.4845
▁රාග	-10.485
▁ස්ථානවල	-10.4851
කන	-10.4852
ඩන්	-10.4857
▁තොග	-10.4859
▁කටයුතුවලට	-10.4862
▁එත	-10.4867
▁තරමින්	-10.4872
▁වංශ	-10.4872
▁දහස	-10.4873
▁ගුණාංග	-10.4873
▁නී	-10.4877
▁එලි	-10.4878
▁ගානේ	-10.4878
ීකරණය	-10.488
▁සලක	-10.4883
▁හරක්	-10.4884
▁ලාංකීය	-10.4884
ෙයාර්	-10.4885
▁අතුරින්	-10.4885
▁පවසනවා	-10.4885
යං	-10.4886
▁සත්තු	-10.4887
▁පරීක්ෂක	-10.4889
▁දේශක	-10.4893
▁අන්තර්ජාතික	-10.4894
▁පිළිම	-10.4896
▁මන්දිරය	-10.4898
▁කවුරුන්	-10.4902
▁ගෙවී	-10.4904
▁වෑන්	-10.4904
▁පක්ෂයට	-10.4908
▁පුවරුව	-10.4916
▁පිළිවෙල	-10.4917
▁යාමේ	-10.4918
▁කාර්යයන්	-10.4919
වති	-10.4921
▁වූවාය	-10.4921
▁දැනෙන්නේ	-10.4922
▁සලකුණු	-10.4925
දිග	-10.4926
▁සියවස	-10.4927
තොට	-10.4932
▁සුන්දරත්වය	-10.4937
▁ජිවත්	-10.4937
▁බැංකුවේ	-10.4938
▁ජනගහනය	-10.4938
▁ශ්‍රේෂ්ඨ	-10.4939
▁වනාන්තර	-10.4939
▁කියෙව්ව	-10.4943
▁රේඛාව	-10.4943
▁නිවැරැදි	-10.4943
▁පරිච්ඡේදය	-10.4944
▁නොකරයි	-10.4945
▁ව්‍යුහය	-10.4945
▁චලනය	-10.4947
▁දිස්ත්‍රික්	-10.4949
තරම්	-10.495
▁මොර	-10.4954
-19	-10.4956
▁සුළඟ	-10.4958
▁තේමාව	-10.4959
▁ලත්	-10.496
▁ගනි	-10.4961
වනේ	-10.4962
▁සෝදා	-10.4964
▁නැමැති	-10.4966
▁බුද්ධාගම	-10.4967
▁ලැබිණි	-10.4967
▁කුසලතා	-10.4969
ධාරී	-10.497
ව්‍ය	-10.4974
ඩ්ස්	-10.4974
▁ගිහිල්ල	-10.4977
▁එංගලන්තය	-10.4977
▁පෙරළ	-10.4984
▁ඒකේ	-10.4986
සිස්	-10.4986
▁මීටර	-10.4987
▁ග්‍රන්ථ	-10.4988
▁පංති	-10.4988
▁දේශපාලනයට	-10.4988
ඒත්	-10.4991
▁වෙන්කර	-10.4991
▁මුදලාලි	-10.4994
▁පරිපාලන	-10.4997
▁මේකෙ	-10.4997
▁මැරෙන	-10.4998
▁සමගින්	-10.5
▁ගෙඩිය	-10.5001
▁සුඛ	-10.5003
▁නොපෙනෙන	-10.5004
▁ඇතිවූ	-10.5007
▁කිව්වත්	-10.5012
▁විඳි	-10.5014
▁විකාශය	-10.5016
▁නල	-10.502
භේද	-10.502
▁අවස්ථාවලදී	-10.5028
▁මුඛ	-10.5031
▁නැත්තම්	-10.5033
▁අරුත	-10.5035
▁රඟ	-10.5036
ර්ත	-10.504
▁ඇණ	-10.504
▁මතයක්	-10.5042
▁හැරුණු	-10.5044
▁චිත්‍රපටි	-10.5044
▁ගියාට	-10.5053
ළී	-10.5053
▁නැවුම්	-10.5054
▁බස්සි	-10.5057
▁සක්	-10.5062
▁මොනා	-10.5063
.1	-10.5064
▁වැහි	-10.5067
▁වැටුණු	-10.5067
▁නිෂ්පාදකයා	-10.5068
▁සංග්‍රහය	-10.5073
▁ළං	-10.5074
දෙනෙක්	-10.5075
▁ගෙවීමට	-10.5075
වංශ	-10.5076
තුංග	-10.5079
▁භූත	-10.508
▁වැඩිදියුණු	-10.5081
▁දෙපාර්තමේන්තුවේ	-10.5088
▁මුකුත්	-10.5093
දේව	-10.5096
තීන්	-10.5097
▁කිලෝමීටර්	-10.5098
▁තිරගත	-10.51
▁අසල්වැසි	-10.5104
▁අඛණ්ඩව	-10.5104
▁දහයක්	-10.5108
▁කුමාරයා	-10.5109
සඳ	-10.511
▁අඳින්න	-10.5113
▁නලින්	-10.5114
▁රටකට	-10.5117
රම	-10.5119
ංගි	-10.512
ටින්	-10.5123
▁එතෙක්	-10.5126
▁09	-10.5127
▁ගියහ	-10.5128
▁කීයක්	-10.513
ෙය්‍ය	-10.5132
▁ලයිට්	-10.5134
▁පාඩම	-10.5134
▁උන්ගේ	-10.5135
▁දැක්කේ	-10.5137
සහ	-10.5143
▁වැඩිදුර	-10.5144
▁මැදි	-10.5145
▁තුනෙන්	-10.5152
▁ප්‍රවාහනය	-10.5156
▁පෙනුන	-10.5156
▁තබාගෙන	-10.5158
▁සමූහය	-10.5158
▁ආකාරයක	-10.5159
▁දෙනාගේ	-10.5161
▁සූත්‍ර	-10.5163
▁කූ	-10.5164
▁කරුණා	-10.5174
න්ධ	-10.5174
▁කිසිවෙකුට	-10.5179
▁අනාවැකි	-10.5179
▁පත්වී	-10.5181
▁නොයෙකුත්	-10.5183
▁තිබුනෙ	-10.5183
▁දරුවකු	-10.5185
▁සිකුරාදා	-10.5187
▁අර්	-10.5188
▁මෙයයි	-10.5189
▁ගෙදරින්	-10.519
▁දැනගත	-10.5192
▁සේනා	-10.5194
▁දිනයක්	-10.5196
▁රටවලට	-10.5197
ගනිමින්	-10.5197
▁වාදනය	-10.5197
වෙන්නෙ	-10.5202
▁තරුණිය	-10.5204
▁අස්සේ	-10.5207
▁පුපුර	-10.5209
▁ලාබ	-10.521
▁නගරයට	-10.5213
▁තරමක	-10.5216
▁සෙන්	-10.5216
▁මාධ්‍යවේදීන්	-10.5217
▁ගෙවීම්	-10.5219
▁තුන්වන	-10.5219
▁යනුවෙනි	-10.5222
▁ක්ෂේත්‍ර	-10.5222
▁මිනිසාගේ	-10.5225
▁කෙසෙල්	-10.5225
▁ටිකට්	-10.5225
▁2022	-10.5227
ැස්	-10.5227
▁කරමිනි	-10.5229
කොළ	-10.5231
▁වුණාම	-10.5233
▁ලැබුණි	-10.5236
▁වුවමනාව	-10.524
කාරයෝ	-10.5244
▁45	-10.5247
▁ගීතයක්	-10.5248
▁යොවුන්	-10.5249
▁විපක්ෂයේ	-10.525
▁බලු	-10.525
▁තිබ්බෙ	-10.5254
▁සන්ත	-10.526
▁සෙනසුරාදා	-10.5262
▁සුමන	-10.5263
▁කුසල	-10.5264
▁අධිකරණයට	-10.5265
▁ආසියාවේ	-10.5269
▁ශක්ති	-10.527
▁ගැන්වීම	-10.527
▁සමඟම	-10.5275
▁ආගන්තුක	-10.5276
▁මැණික	-10.5278
ෙකින්	-10.5278
▁කාලෙකට	-10.5285
▁සංඛ්‍යා	-10.5286
▁දක්වයි	-10.5287
▁අඳින	-10.5287
ියානු	-10.5287
▁දෙන්නම්	-10.5288
▁කරු	-10.529
▁දක්ෂතා	-10.529
▁හඩ	-10.5291
▁මධ්‍යස්ථාන	-10.5291
කාරිය	-10.5294
▁රෙද්ද	-10.5296
▁හදාගෙන	-10.5296
ියෙක්	-10.5297
▁දැව	-10.5298
▁වහල්	-10.5302
▁උන්වහන්සේගේ	-10.5303
▁නවකතා	-10.5303
න්දර	-10.5304
▁ඇදී	-10.5304
▁ලැබිලා	-10.5306
▁සොයාගත	-10.5306
ෂාන්	-10.5307
▁දෙදෙනෙක්	-10.5312
▁ගේම්	-10.5313
▁විනිමය	-10.5316
▁කාලගුණ	-10.5324
ඤ්ච	-10.533
▁බිල්	-10.5331
▁පන්	-10.5332
▁බෞද්ධයන්	-10.5332
▁සැලකෙන	-10.5335
▁විවාදය	-10.5335
භූත	-10.5337
▁සමහරක්	-10.5338
▁පෙම්වතා	-10.5342
▁පදනම්ව	-10.5343
▁ඒව	-10.5344
▁සදා	-10.5347
▁පොහොසත්	-10.5351
▁ප‍්‍රමාණය	-10.5353
බෑ	-10.5355
▁ලකුණ	-10.5356
▁අභ්‍යවකාශ	-10.5356
▁වෑ	-10.5357
▁රබර්	-10.536
ටො	-10.536
තැන	-10.5361
▁පොලි	-10.5362
▁පය	-10.5366
▁පාර්	-10.5371
▁සරසවිය	-10.5372
▁වෙස	-10.5373
▁කාර	-10.5378
කන්ද	-10.5379
▁සිද්ධි	-10.538
▁දුරකතනය	-10.538
▁අවස්‌ථාව	-10.5392
▁වැදගත්ම	-10.5392
▁බිලි	-10.5396
▁බැස්ස	-10.5396
▁ධනවාදය	-10.5399
ිනා	-10.5399
▁ඔහුගෙන්	-10.5401
▁මායා	-10.5406
▁පුක	-10.5407
▁සංග	-10.5409
▁ෆ්‍ර	-10.541
යකුට	-10.5413
▁ලක්‍ෂ	-10.5416
ඤ්ඤා	-10.5417
ඃ	-10.5418
▁අල්ලන්න	-10.5424
රික	-10.5427
▁දැමිය	-10.5428
▁ෆ්ල	-10.543
▁දාගන්න	-10.5431
▁රසායන	-10.5433
▁මුළුමනින්ම	-10.544
▁කරන්නා	-10.5441
▁හොරා	-10.5449
▁පත්තරේ	-10.545
▁තාවකාලික	-10.5455
▁ලැබෙයි	-10.5456
▁දැවී	-10.5456
▁ඔව්හු	-10.5456
ුවොත්	-10.5458
▁වුනොත්	-10.546
▁සෙනඟ	-10.5461
▁පොදුජන	-10.5461
ලං	-10.5462
▁තෙවන	-10.5462
▁නිකම්	-10.5463
▁සිතුවම්	-10.5465
▁කේන්ද්‍ර	-10.5465
▁පාරිසරික	-10.5465
▁පාස්	-10.5468
▁බාර්	-10.5469
ොප්	-10.547
කරුවන්ට	-10.5471
▁අවදානමක්	-10.5473
නුව	-10.5475
පෑ	-10.5475
▁බැක්ටීරියා	-10.5475
▁සැලකීම	-10.5475
▁නොවනු	-10.5477
▁වැඩිපුරම	-10.5477
▁හදල	-10.548
▁කිසිදා	-10.548
▁දෙන්නම	-10.548
▁පිටපත	-10.5482
▁අවවාද	-10.5483
▁ඉන්නා	-10.5483
▁පිරුණු	-10.5486
▁වැද	-10.5486
ෝර්	-10.5487
▁කාගෙ	-10.5488
▁යුතුද	-10.5493
▁ටොන්	-10.5495
කටම	-10.5496
▁හිතුව	-10.5497
▁පල්ල	-10.5498
▁කර්තෘ	-10.5499
▁කරගන්නා	-10.55
▁සැමවිටම	-10.5504
▁මෛත්‍රිපාල	-10.5505
▁මානය	-10.5507
රජ	-10.5514
▁හොදට	-10.5514
▁ෆා	-10.5519
▁අපාය	-10.5521
▁නොකියා	-10.5521
▁පොස්ට්	-10.5522
▁කල්‍යාණ	-10.5523
▁රාජිත	-10.5524
▁පරක්කු	-10.5526
▁ඔක්	-10.553
▁වර්ෂය	-10.5532
05	-10.5537
▁අභියෝගයක්	-10.554
▁සමර	-10.5541
▁පාඩුව	-10.5544
▁දීපු	-10.5545
නමුත්	-10.5545
▁චතුර	-10.5549
▁භික්ඛවෙ	-10.5552
▁සිංදු	-10.5554
ථි	-10.5556
ඥා	-10.5556
▁ඇත්	-10.5558
▁සුහද	-10.5558
▁ෂධ	-10.556
▁ත්‍රස්ත	-10.5561
▁ගහපු	-10.5561
▁මෙවලම්	-10.5565
▁නිලධාරී	-10.5565
රයේ	-10.5566
දින්න	-10.557
80	-10.5575
▁ඉදලා	-10.5579
▁නාද	-10.5581
▁වටපිටාව	-10.5582
▁සංස්ථාව	-10.5588
▁ජිවිතය	-10.559
ඪ	-10.5591
▁ඇමෙරිකාවේ	-10.5591
▁දෑස්	-10.5591
▁විද්‍යාඥ	-10.5594
▁නිළිය	-10.5595
▁ඇරඹු	-10.5596
▁මොකටද	-10.5598
ශීලි	-10.5599
▁උන්න	-10.5601
▁වාසනාවන්ත	-10.5606
▁උත්	-10.561
▁හික්	-10.5612
▁ලවා	-10.5612
▁කොන්ද	-10.5617
▁සුපර්	-10.5619
▁32	-10.562
▁පසෙක	-10.5622
▁නියෝජිතයන්	-10.5622
▁පින්වත්	-10.5624
▁සේවාවක්	-10.5625
▁සන්නද්ධ	-10.5625
▁හමුදාවට	-10.5626
▁වැටුන	-10.5629
▁ක්ෂ	-10.5633
▁කෙනෙකුගේ	-10.5635
▁පැවසීම	-10.5637
▁වයසට	-10.564
▁2,	-10.5642
▁ලොවට	-10.5651
▁තරගයේ	-10.5651
▁යමෙක්	-10.5652
▁ඇදගෙන	-10.5652
▁දවසෙ	-10.5653
▁හයක්	-10.5654
▁දේශනාව	-10.5656
▁ස්වභාව	-10.566
▁රාවය	-10.566
▁එංගලන්ත	-10.5663
▁තහනම	-10.5664
▁කෑමට	-10.5665
▁සබ්	-10.5667
▁ප්‍රවේශය	-10.5668
▁කාණ්ඩය	-10.5673
▁ජාතිකයන්	-10.5673
ුවට	-10.5675
▁ආසන්නයේ	-10.5678
▁ඔත්තු	-10.5679
▁එකකුත්	-10.5679
▁දේශපාලනයේ	-10.5679
කමට	-10.568
▁බැල	-10.5683
▁හැඳින්වේ	-10.5684
▁විකල්පයක්	-10.5686
▁ෂෝ	-10.5688
▁වැටෙන්න	-10.5689
▁කෙටියෙන්	-10.5691
▁නොවෙන	-10.5691
▁අප්‍ර	-10.5691
පෙන	-10.5692
▁ඉන්නකොට	-10.5692
▁පුතු	-10.5695
▁බොරුවක්	-10.5697
19	-10.5697
▁තරමේ	-10.5699
▁අපේක්ෂකයා	-10.5699
▁සම්පත	-10.57
▁ඉසි	-10.5701
▁බෝතල්	-10.5703
▁ඇත්තම	-10.5705
▁බෙර	-10.5708
▁දක්වන්නේ	-10.571
▁කොමියුනිස්ට්	-10.5713
ගැන	-10.5713
▁කපන	-10.5713
▁සමේ	-10.5716
බන්	-10.5717
▁කෘෂි	-10.5718
▁මිට	-10.5719
▁කොට්ට	-10.5719
▁නාට්‍යයේ	-10.572
දර්ශන	-10.5723
▁ගනිමු	-10.5723
▁පත්තු	-10.5727
▁ප්‍රශ්ණ	-10.5729
▁සපයන්න	-10.5729
▁අලුතෙන්	-10.5732
▁උසාවිය	-10.5737
▁නිෂ්පාදනයක්	-10.5743
▁කොල්ලො	-10.5744
▁ලිබරල්	-10.5747
▁ගැහැනිය	-10.5762
▁තාප	-10.5765
▁කොටින්ම	-10.5768
▁ආශ්‍රිතව	-10.577
▁ඕනා	-10.577
▁මනාප	-10.5771
▁ඵලදායී	-10.5772
▁අතිශයින්ම	-10.5773
ග‍්‍ර	-10.5773
▁සූදානම	-10.5775
▁කැන්	-10.5776
▁අනෙකා	-10.5777
▁හන්දිය	-10.5781
▁ඕවා	-10.5786
▁අනුන්	-10.5788
▁සිංදුව	-10.5791
▁නිපදවීම	-10.5792
▁දෙපස	-10.5792
▁උද්‍යානය	-10.5794
▁ඩේ	-10.5795
▁පිටිය	-10.5797
▁කොමෙන්ට්	-10.5801
ආරච්චි	-10.5803
▁වැටුණ	-10.5807
▁සිහින්	-10.5808
▁සල්	-10.581
▁කුලී	-10.5811
▁ගොන්	-10.5811
▁කළෙමි	-10.5812
▁කාලයට	-10.5812
කෙර	-10.5815
▁ආක්‍රමණය	-10.5816
▁දාර්ශනික	-10.5821
▁වැරැදි	-10.5826
▁නැංවීම	-10.5826
▁යොද	-10.5827
▁ඉදිකර	-10.5829
▁යකා	-10.5831
▁කරුණාව	-10.5831
වෙමි	-10.5831
ාවලිය	-10.5832
ෙං	-10.5834
▁කැත	-10.5834
▁හිතුන	-10.5837
▁ඉල්ලුම	-10.5837
නස්	-10.5838
▁තත්ත්වයේ	-10.5839
විල්	-10.5841
▁හදවත්	-10.5841
දර්ශ	-10.5842
▁ලබාදෙන්න	-10.5842
▁උගේ	-10.5843
▁රෑට	-10.5844
▁කරනුයේ	-10.5847
▁දකිනවා	-10.5849
▁කිරිමට	-10.585
▁ඇන්ටි	-10.5852
▁ඕව	-10.5854
▁පෙරදිග	-10.5854
▁කරවා	-10.5855
▁ඔයාල	-10.5855
▁වෛර	-10.5858
▁කෑල්ලක්	-10.5859
▁තිහ	-10.5861
▁කිසිවෙක්	-10.5861
▁ගන	-10.5861
▁මුසු	-10.5861
ස්ටි	-10.5862
▁තරගාවලියේ	-10.5865
▁අන්දමට	-10.5865
▁පොලිස්පති	-10.5877
▁ගුරුවරු	-10.588
▁ඉක්මණින්	-10.5881
▁ලයි	-10.5881
▁පැති	-10.5884
▁කැඳවා	-10.5885
ම්බා	-10.5886
▁තැබිය	-10.5886
▁ප‍්‍රජාතන්ත‍්‍ර	-10.5891
ෙද්දී	-10.59
▁පනහ	-10.5901
▁පීඩාවට	-10.5902
▁ලැජ්ජාව	-10.5915
▁සමගි	-10.5915
▁හැඳි	-10.5916
▁සංඛ්‍යාත	-10.5916
▁ආශ්‍රය	-10.5917
▁කුමාරි	-10.5919
▁ඇගයීම	-10.5922
කොල	-10.5923
▁කීර්ති	-10.5925
▁දේපල	-10.5936
ද්ධ	-10.5939
▁දීමෙන්	-10.5942
▁මැරෙන්න	-10.5942
▁ගෙනත්	-10.5945
▁සිංහලයන්	-10.5945
▁ගැහුවා	-10.5946
▁අග්‍ර	-10.5946
▁උනන්දුව	-10.5949
▁පොහොට්ටුව	-10.5956
▁ග්‍රන්ථය	-10.5957
▁යහපාලනය	-10.5957
දීමට	-10.5958
▁කරද්දි	-10.5959
▁අනුග්‍රහය	-10.5961
▁එබ	-10.5966
▁පිරිසකට	-10.5969
▁කිව්වම	-10.5972
කුරු	-10.5973
▁දූපත්	-10.598
▁විකිණීම	-10.5981
▁කිට්ටු	-10.5981
▁කොණ්ඩ	-10.5982
▁අවශ්‍යය	-10.5982
▁අපෙන්	-10.5989
▁කැරැල්ල	-10.599
▁චාරිකාව	-10.5992
▁නිෂ්පාදනයේ	-10.5996
▁කිසිසේත්	-10.5997
▁මාත්‍රාව	-10.5999
▁පැවතීම	-10.6001
▁නාලිකාව	-10.6003
▁ප්‍රකාශනය	-10.6006
හැර	-10.6006
▁නැගිට	-10.6009
▁ස්‌	-10.6012
▁මුත්	-10.6014
▁තියුණු	-10.6015
▁ගෙන්න	-10.6016
▁ස්වාමීන්වහන්සේ	-10.602
▁පව	-10.6023
▁අසාමාන්‍ය	-10.6028
▁වශයෙනි	-10.6032
▁සැකය	-10.6032
ුවෙ	-10.6032
කුමාර	-10.6036
▁සෞඛ්‍යය	-10.6037
‍ර	-10.6039
▁500	-10.6045
▁පොලිසියේ	-10.6046
▁ඉගැන්වීම	-10.6046
▁දෙමල	-10.6048
▁සේන	-10.6049
▁වයස්	-10.6051
▁යුවළ	-10.6052
▁තබ	-10.6054
▁පවත්වන්න	-10.6056
▁ලිපියට	-10.6058
ෑම්	-10.6059
අර	-10.6059
විල්ල	-10.6061
▁විකුණුම්	-10.6064
▁පිහි	-10.6064
භය	-10.6065
ර්ෂ	-10.6066
▁සෙනෙහස	-10.6067
▁කෙලෙස්	-10.6068
▁පිස	-10.6069
▁අමාත්‍යාංශයේ	-10.607
▁ලෙසද	-10.607
▁කෙළේ	-10.6071
▁වාහනේ	-10.6074
▁ඩෝ	-10.6074
▁පංතිය	-10.6077
▁ඒකක	-10.6077
▁දුර්ලභ	-10.6077
▁මක්නිසාද	-10.6077
▁පණ්ඩිත	-10.6078
▁‌	-10.6078
▁බිස්නස්	-10.6082
▁සිතන්න	-10.6082
▁තුඩු	-10.6083
▁ඇතුළුව	-10.6084
▁දන්නවද	-10.6087
▁මනුස්සයෙක්	-10.6087
▁සුළං	-10.6087
▁වැල්	-10.609
▁ගෙනියන්න	-10.6093
▁නාශක	-10.6094
▁වේලාවක්	-10.6097
▁ස්නායු	-10.6098
▁පලි	-10.6098
▁තේරීම	-10.6099
▁ජෛව	-10.6103
▁එංගලන්තයේ	-10.6107
▁ධාරිතාව	-10.6108
▁මොළ	-10.6108
▁ඒවායින්	-10.6109
▁චූටි	-10.6112
▁චේ	-10.6117
ඩෙ	-10.6117
▁මන්ත්‍රි	-10.6118
▁බලකාය	-10.6118
▁වදින	-10.6118
▁ප්‍රභාකරන්	-10.6119
▁හැදුවා	-10.6119
▁කම්පනය	-10.612
▁පුළුවන්ද	-10.6121
▁ගනුදෙනුව	-10.6122
තුළ	-10.6123
▁ඛො	-10.6127
▁අශ්ව	-10.6129
▁උපාංගය	-10.6131
කර්ම	-10.6132
ඥාන	-10.6137
▁ගෝලය	-10.6138
▁අඩුවක්	-10.6139
▁සැරස	-10.6139
▁වාර්ෂික	-10.6139
▁දුන්නෙ	-10.614
නයට	-10.614
▁ව්‍යාපාරයේ	-10.614
▁ගැඹුර	-10.6141
▁නිලධාරි	-10.6143
▁කෙනකු	-10.6144
දානය	-10.6145
▁සාමාජිකයින්	-10.6156
▁රාජා	-10.6158
▁ආසාව	-10.6159
ගන්නවා	-10.616
▁නොම	-10.616
▁ගනියි	-10.616
ම්භ	-10.6162
▁සතියකට	-10.6163
්ඩ	-10.6163
▁2008	-10.6168
▁දැකපු	-10.6168
▁වෙනකම්	-10.6169
▁දිරි	-10.6169
▁තරුණයන්	-10.617
▁සිතමි	-10.6171
▁භය	-10.6172
▁ලද්ද	-10.6173
▁අනුකූල	-10.6174
▁ග්‍රාම	-10.6175
▁වැරදියි	-10.6179
▁ටෝ	-10.6181
▁ගුරුවරයා	-10.6183
▁පුන	-10.6183
▁දීමනා	-10.6184
▁විල්	-10.6186
24	-10.6188
07	-10.6188
▁රණසිංහ	-10.619
▁ඉති	-10.6193
▁මෙහේ	-10.6196
▁සාර	-10.6197
▁අසත්‍ය	-10.6197
▁ඇතුළට	-10.62
▁හඳුන්වන්නේ	-10.6201
▁රාජධානිය	-10.6201
▁සාධකය	-10.6204
බඩ	-10.6204
▁බසින්	-10.6205
▁දැක්වේ	-10.6205
වුල්	-10.6212
▁ඉන්පසුව	-10.6213
▁ගොඩනගා	-10.6214
▁කරගනිමින්	-10.6216
▁ඩෙංගු	-10.6216
ානන්ද	-10.6217
▁පිළිගත	-10.622
▁උනොත්	-10.622
▁කත	-10.622
▁පුරවා	-10.6221
මාලි	-10.6222
▁පොකුණ	-10.6228
▁තිදෙනා	-10.6229
ාගාර	-10.623
▁රඟපෑ	-10.6234
▁වනදා	-10.6234
▁පරීක්ෂාව	-10.6235
▁සැලැස්ම	-10.6236
▁වෙතට	-10.6236
පල්	-10.6237
▁පත්කිරීම	-10.6238
▁පැත්තකට	-10.624
▁2000	-10.6241
▁ඩ්‍ර	-10.6244
▁විග්‍රහ	-10.6246
▁මෙනෙහි	-10.6247
▁සොයාගැනීම	-10.6252
▁දේශපාලනඥයන්	-10.6254
▁අංශු	-10.6256
▁කිහිපයකින්	-10.6259
▁ඥානය	-10.626
▁පිලිබදව	-10.626
▁දෙවියන්ගේ	-10.6262
▁ආවරණ	-10.6262
▁මුලික	-10.6262
▁කටයුත්තක්	-10.6263
▁සමාගමට	-10.6265
▁ක්‍රියාවක්	-10.6265
▁සින්	-10.6267
▁ආසාදිත	-10.6269
▁අගයක්	-10.6272
එය	-10.6272
▁නැගෙන	-10.6272
▁සිරිත	-10.6276
ස්ට්‍ර	-10.6278
වෙල්	-10.6279
▁අන්‍ය	-10.628
▁ඌට	-10.6282
▁මෙහෙවර	-10.6284
▁ගොඩනැ	-10.6286
▁පැමිණීමට	-10.6287
වාහ	-10.629
▁හෙමින්	-10.6293
ලෝක	-10.6294
▁ටිකත්	-10.6294
▁තර්ජන	-10.6295
▁නුවණින්	-10.6295
▁කොල්ලෝ	-10.6297
▁රේඩියෝ	-10.6298
▁තනිව	-10.63
▁සමාගමක්	-10.63
▁පමණකි	-10.63
▁සිටියත්	-10.6302
ක්‍රි	-10.6304
▁පස්ස	-10.6308
විධ	-10.6313
▁ගත්තත්	-10.6314
▁අසීමිත	-10.6314
ෙකුගේ	-10.6315
▁නිවෙස	-10.6319
▁එයාව	-10.6325
▁තොප	-10.6326
▁විකල්පය	-10.6327
▁තලය	-10.6328
▁දෙප	-10.6329
▁විශ	-10.6329
▁වාදය	-10.633
▁බරක්	-10.633
▁අධිවේගී	-10.633
▁ආධිපත්‍යය	-10.633
▁පාවා	-10.633
▁විවේචන	-10.6331
▁වලංගු	-10.6332
03	-10.6333
▁රහතන්	-10.6335
▁රඟපාන්න	-10.6335
▁සඟ	-10.6335
▁ඉඳි	-10.6336
▁මාර්ගයෙන්	-10.6337
▁හැබෑ	-10.6337
▁නැඟී	-10.6337
▁දැනීම	-10.6338
▁හොදම	-10.6339
භාග	-10.6341
▁(2)	-10.6341
▁උගුර	-10.6343
▁මහජනයා	-10.6343
▁ගාණක්	-10.6346
▁කරගන්නට	-10.6346
▁කිසිසේත්ම	-10.635
▁නිලධාරීන්ට	-10.6354
▁කඳවුරු	-10.6358
වැල්	-10.6359
▁කොන	-10.6364
සේකර	-10.6365
▁ඔෆිස්	-10.6372
▁ගැනයි	-10.6373
‍‍	-10.6376
▁තල්	-10.6377
දෙනෙකු	-10.6378
▁කාලෙක	-10.6379
▁වීරවංශ	-10.6388
▁පිළිතුරක්	-10.6394
▁රත්නපුර	-10.6394
සාව	-10.6395
▁රාශිය	-10.6397
▁සිනමාවේ	-10.6402
02	-10.6407
විලා	-10.6408
ගමුව	-10.6417
09	-10.6417
ලෙන්	-10.6418
▁ධූරය	-10.642
▁2005	-10.6422
▁හැඳින්	-10.6428
▁සිතිවිලි	-10.6429
▁යුෂ	-10.6429
රෝධ	-10.643
වෙච්ච	-10.6431
▁හදිසියේ	-10.6436
▁නන්ද	-10.6439
▁මාර්	-10.644
▁ඉල	-10.6443
▁සැලසුම	-10.6445
▁මනුස්සයා	-10.6447
▁චින්තන	-10.6451
▁තට්ටුව	-10.6452
▁පැනලා	-10.6454
▁මාලිගාව	-10.6455
▁නිසාද	-10.6455
ලයේ	-10.6458
▁ප්රකාශ	-10.6462
▁කල්ප	-10.6465
▁කොල්ලා	-10.6475
▁සිනහව	-10.6476
▁අවයව	-10.6477
▁නට	-10.6479
▁යෝජනාවක්	-10.6481
▁පහරදීම	-10.6481
▁ඊලඟ	-10.6488
▁දූපත	-10.6488
සෙන්	-10.6489
▁ප්‍රධානියා	-10.649
▁හැදෙන	-10.6491
▁ඇඟිල්ල	-10.6491
▁කල්ලිය	-10.6492
▁පෙදෙස	-10.6494
▁ලොක්කා	-10.6498
▁හිටියත්	-10.6498
▁වර්ගයක්	-10.6498
ැද්ද	-10.6499
▁හඳුනාගත	-10.65
▁කුමරිය	-10.6501
▁මවා	-10.6502
▁කැබලි	-10.6503
▁පරතරය	-10.6504
▁සීල	-10.6505
▁පුතේ	-10.6514
▁ඩ්‍රැකී	-10.6514
▁වකවානුව	-10.6518
▁කිර	-10.6519
ෂිත	-10.6519
▁ආකර්ෂණීය	-10.6519
▁ඵලය	-10.6523
▁අඟල්	-10.653
▁ඇත්තෙ	-10.653
▁ඔවුන්ව	-10.6531
▁විද්‍යාවේ	-10.6534
▁ස්මාර්ට්	-10.6535
▁ක්‍රියාවන්	-10.6537
▁සතා	-10.6542
▁හමුවන	-10.6543
▁අවස්ථාවකදී	-10.6552
▁රක්ෂණ	-10.6553
▁වැඩපිළිවෙළ	-10.6553
▁රහත්	-10.6554
ඳා	-10.6557
▁යුරෝපය	-10.6557
▁නිකාය	-10.6558
▁දේහය	-10.6562
විද්‍යා	-10.6564
▁ලැබුනේ	-10.6566
දෙයි	-10.6574
ට්ටුව	-10.6575
▁දන්වා	-10.6575
ිතා	-10.6577
▁ප්‍රකාශක	-10.6583
▁කාළ	-10.6584
▁රචනය	-10.6586
▁ජනරාල්	-10.6587
▁ආරක්‍ෂක	-10.6589
▁සභාවට	-10.6591
▁ලිඛිත	-10.6594
▁හොයලා	-10.6597
▁දෙනව	-10.6603
▁සේවයක්	-10.6606
▁අවාසි	-10.6606
▁ෆැ	-10.6607
ංගල	-10.6607
▁රෝහණ	-10.661
▁යනාදී	-10.6613
▁කෘෂිකර්ම	-10.6614
▁ශූර	-10.6617
▁බොත්තම	-10.6617
▁උත්සාහයක්	-10.6619
▁කුඹුරු	-10.6619
▁ප්‍රශ්නයට	-10.6621
▁මචන්	-10.6622
▁අයිතීන්	-10.6623
▁ලක්වූ	-10.6624
▁නැත්ත	-10.6625
▁කලාකරුවන්	-10.6625
▁ශාලා	-10.6626
▁මුදලින්	-10.6627
▁තුනක	-10.6627
▁තීරු	-10.6628
▁හිත්	-10.663
▁කැල	-10.6631
▁අන්ද	-10.6632
▁කුතුහලය	-10.6632
▁ගංවතුර	-10.6632
▁ස්ත්‍රිය	-10.6632
▁මෝස්තර	-10.6632
▁සනීප	-10.6633
▁ආසාවෙන්	-10.6634
▁හිතෙන්නෙ	-10.6635
පිත	-10.6635
ංචි	-10.6636
▁ගවේෂණය	-10.6641
▁කෙටුම්පත	-10.6642
▁විහිද	-10.6643
▁ස්ථ	-10.6643
▁ආයෙමත්	-10.6645
▁මාර්ගෝපදේශ	-10.6648
▁ලංකාවෙන්	-10.6649
▁මානසිකත්වය	-10.6651
▁පෙරහර	-10.6653
▁යෞවන	-10.6653
▁කියමි	-10.6654
▁අවධානයට	-10.6655
▁උවමනා	-10.6656
▁විභ	-10.6657
▁අප්පච්චි	-10.6659
▁යනාදිය	-10.666
▁සැටි	-10.6661
▁වෙලේ	-10.6661
▁ඇල්ලීම	-10.6666
▁කොපි	-10.6666
▁උවමනාව	-10.6666
▁දික්	-10.6668
▁කලේය	-10.6669
කරගන්න	-10.6669
▁ඉම	-10.6669
▁පාරිභෝගිකයින්	-10.6671
▁රාවණා	-10.6674
ළිය	-10.6676
සස්	-10.6682
▁කනවා	-10.6683
▁එන්නට	-10.6683
ෙව්වා	-10.6685
▁ද්‍රවිඩ	-10.6686
▁පණිවිඩය	-10.6686
▁දොරටුව	-10.6687
▁ඌව	-10.6688
▁නොලැබෙන	-10.6691
ජේ	-10.6692
▁කකා	-10.6693
න්ගෙ	-10.6696
▁සාදන	-10.6696
▁සම්පුර්ණ	-10.6696
▁පමණක්‌	-10.67
▁දේශපාලකයන්	-10.67
▁සලසා	-10.6701
▁වරින්	-10.6702
කමින්	-10.6702
▁ආදේශ	-10.6703
▁ගනන්	-10.6703
▁කාර්යයක්	-10.6707
▁එක්දින	-10.6707
▁එව්ව	-10.6707
▁36	-10.671
▁මනුස්සය	-10.6712
▁දුටුවේ	-10.6712
▁ඇතැමුන්	-10.6713
▁දෙවරක්	-10.6715
▁දෙපා	-10.6717
▁වාමාංශික	-10.6718
▁කුමන්ත්‍රණය	-10.6723
▁අපෙ	-10.6724
▁කොමසාරිස්	-10.6726
▁හිතුණා	-10.6728
▁මවගේ	-10.6729
විලි	-10.6731
▁තෝරාගත්	-10.6731
▁පාපය	-10.6732
▁සිසිල්	-10.6736
▁ආදර්ශ	-10.6736
▁තරුව	-10.6739
▁සමනල	-10.6739
▁ඇතුලත	-10.674
▁විනිවිද	-10.674
▁ඇතුළෙ	-10.6741
▁සමාලෝචන	-10.6742
▁කැලේ	-10.6744
▁නිස	-10.6746
▁විමල	-10.6746
▁නපුරු	-10.6747
▁දුවන්න	-10.6748
▁අන්තවාදී	-10.6749
රුවේ	-10.675
▁පොළව	-10.6751
කට්	-10.6753
තැන්	-10.6753
▁ඇවිදින	-10.6755
රුවන්	-10.6756
ඹි	-10.6756
▁ලියනවා	-10.6757
▁සේනානායක	-10.6757
ාචාර	-10.6759
▁මිරික	-10.6759
වාදයේ	-10.6761
▁වෙළ	-10.6761
ිකව	-10.6761
▁සුදානම්	-10.6762
▁පුරුද්ද	-10.6764
▁වැන	-10.6764
▁මට්ටමින්	-10.6768
▁දැරූ	-10.677
60	-10.677
▁ගෝඨා	-10.6773
▁යෝග්‍ය	-10.6774
▁බිත්තිය	-10.6775
23	-10.6776
▁විසඳා	-10.6776
▁ජර්මනිය	-10.6778
▁දාහ	-10.6779
▁වදන	-10.6779
▁සබැඳි	-10.6779
▁පෙරහැර	-10.678
▁නත්තල්	-10.6781
▁පියාගේ	-10.6781
ිස්ස	-10.6784
▁නමුදු	-10.6785
ශ්‍ය	-10.6789
▁බ්ර	-10.679
▁මැනවින්	-10.6793
▁කි‍්‍රයා	-10.6794
▁නිදසුනක්	-10.6797
▁කුජ	-10.6798
▁විකි	-10.6802
▁ළග	-10.6803
▁විසුරුවා	-10.6805
▁ගැසට්	-10.6806
▁හමුවීමට	-10.6807
▁එක්කෙනෙක්	-10.6808
▁වගෙයි	-10.6811
▁ඛනිජ	-10.6811
04	-10.6812
අපේ	-10.6814
▁මතවාද	-10.6814
▁හරවා	-10.6818
▁ශිෂ්‍යත්ව	-10.6818
▁නොදෙන	-10.6821
▁ශත	-10.6822
ුං	-10.6823
▁කාර්යක්ෂම	-10.6824
▁ශු	-10.6825
කුණු	-10.6831
තිස්ස	-10.6839
▁ඔෆ්	-10.6842
ලයක්	-10.6844
▁කැඩී	-10.6847
▁කියැ	-10.6847
▁සලකන්න	-10.6853
රස	-10.6854
▁තියේ	-10.6856
▁වාහනයක්	-10.6857
▁දැනෙන්න	-10.6859
▁වරප්‍රසාද	-10.686
▁පාලනයක්	-10.6862
▁පුත	-10.6863
▁ආසාදිතයින්	-10.6864
▁භවය	-10.6865
▁ගණිත	-10.6869
▁නදී	-10.6872
ුරා	-10.6872
▁මෙසේය	-10.6874
▁බොදු	-10.6875
▁ගතියක්	-10.6878
▁පොලී	-10.6879
▁රුපියල	-10.6881
▁චැ	-10.6881
▁භාගය	-10.6882
▁එයාලට	-10.6882
▁ග්‍රහණය	-10.6883
▁වුවමනා	-10.6897
▁තෘප්තිමත්	-10.6904
▁බලමින්	-10.6905
▁විහාරස්ථානය	-10.6905
▁ඇඩ	-10.6905
▁එව්වා	-10.6906
ටික	-10.691
▁කියමු	-10.6911
මඟ	-10.6911
වනම්	-10.6912
▁රාජ්‍යයක්	-10.6916
කයින්	-10.6917
▁හරින්න	-10.6917
ගෙඩි	-10.6923
▁සාප්පු	-10.6931
▁දීප්තිමත්	-10.6933
▁නාල	-10.6936
▁නිලධාරින්	-10.6936
▁ජර්මානු	-10.6937
▁අරමුදල්	-10.6938
▁කම්පා	-10.6939
▁අඩවියට	-10.694
▁මෘදුකාංගය	-10.6942
▁කමට	-10.6945
▁කරනකොට	-10.6946
▁නොසිටි	-10.6949
▁බලාපොරොත්තුවෙන්	-10.6951
ෙන්නෙ	-10.6951
▁ඥාන	-10.6952
▁කැපීම	-10.6953
▁ඊජිප්තු	-10.6954
▁රන්ජන්	-10.6957
▁චම්පික	-10.696
▁මිදි	-10.6962
▁යන්නත්	-10.6966
▁බැටරි	-10.6966
▁සන්සුන්	-10.6966
▁පොරොන්දුව	-10.6967
▁මල්ලී	-10.6968
▁ඇන්ද	-10.6969
▁අස්ථි	-10.6969
▁ගායක	-10.697
▁පාලි	-10.697
▁ජාවාරම	-10.6973
▁සන්ධි	-10.6973
▁ස්ථාවරය	-10.6977
▁සංකේත	-10.6978
▁දූත	-10.698
▁ආවොත්	-10.6983
යකුගේ	-10.6984
▁අනිවා	-10.6984
▁අතකින්	-10.6984
▁කලාවට	-10.6989
▁නීතියේ	-10.6989
▁පරිශීලක	-10.6993
▁හැසිරීම්	-10.6993
▁ව්	-10.6994
▁දඟ	-10.6994
▁යවා	-10.6995
▁මේකෙන්	-10.6997
▁අවලංගු	-10.6999
රාග	-10.7001
▁සහතිකය	-10.7002
‍ලේ	-10.7003
▁මනු	-10.7003
▁ඇප්	-10.7004
▁පිවිස	-10.7004
▁බුලත්	-10.7006
▁දියවැඩියාව	-10.7008
ෆර්	-10.7008
▁ඇමරිකා	-10.7009
▁දිස්ත්‍රික්කය	-10.7009
▁අකුසල	-10.7012
▁වාස	-10.7014
▁සද	-10.7015
▁ජුලි	-10.7015
වර්ධන	-10.7016
▁ධනපති	-10.7017
▁ඇරිය	-10.7018
ගන්නට	-10.7018
▁උනාම	-10.7019
29	-10.7022
▁ඇහුව	-10.7023
▁මාන	-10.7024
▁ඉඳගෙන	-10.7025
▁කාටද	-10.7025
▁විලාසිතා	-10.7027
▁කැටි	-10.7029
▁මොහොතක්	-10.703
▁තො	-10.7031
▁සැරේ	-10.7031
▁අවස්ථාවට	-10.7035
▁මුහුදේ	-10.7038
දුව	-10.7038
▁පරිපාලනය	-10.704
▁මාරුව	-10.7041
▁මිහි	-10.7043
ඬු	-10.7043
වැල	-10.7046
▁කාලයකට	-10.7049
▁නැත්තෙ	-10.7049
▁නීතියට	-10.7052
වුනු	-10.7053
මික	-10.7054
ලිස්	-10.7055
වැඩ	-10.7055
▁රටම	-10.7056
▁පණිවිඩ	-10.7056
කදි	-10.7058
▁වෛද්‍යවරු	-10.7061
▁ආකෘති	-10.7063
▁සමාජයක	-10.7064
▁මාසික	-10.7066
▁ඉක්බිති	-10.7066
▁ප්‍රාථමික	-10.7066
▁ප්‍රේක්ෂක	-10.7068
▁සතුරු	-10.707
▁පලමු	-10.7072
▁ගායනය	-10.7073
06	-10.7082
▁වැසී	-10.7084
ධී	-10.7085
▁ක්‍රීඩකයින්	-10.7085
▁ශී‍්‍ර	-10.7089
▁ජනාධිපතිවරයාට	-10.709
ක‍්‍රම	-10.7091
▁සංචාරකයන්	-10.7092
▁ඉටුකර	-10.7092
අප	-10.7093
▁රාජපක්ෂලා	-10.7094
▁නොකල	-10.7096
▁හැදුන	-10.7097
▁වගන්තිය	-10.7098
▁වැඩේට	-10.7099
▁පැරා	-10.7099
▁ඕනම	-10.7099
▁ගාල	-10.7101
▁කෙලින්	-10.7101
▁සිරස	-10.7102
▁ප්‍රසිද්ධියේ	-10.7103
ිනුයි	-10.7105
▁ඉල්ලන	-10.7105
▁ආරම්භයේ	-10.7106
▁සෑදීම	-10.7107
▁විසූ	-10.7111
▁ප්‍රචලිත	-10.7111
▁මැදින්	-10.7111
▁මුදුන	-10.7116
▁කියති	-10.7121
▁ග්‍රහයා	-10.7121
▁ස්වකීය	-10.7122
▁දිනේෂ්	-10.7123
පටි	-10.7124
හෙන	-10.7127
▁පරිසරයට	-10.7127
▁සමඟින්	-10.7129
▁ගමනේ	-10.713
▁ඇහි	-10.7133
▁අරුම	-10.7135
▁කොරියාව	-10.7139
▁ප්‍රජා	-10.7139
▁දැක්වීමට	-10.714
▁සුවපත්	-10.7145
▁හිරේ	-10.715
▁ගෞතම	-10.7151
▁පතුල	-10.7151
▁ගම්මාන	-10.7154
▁හම	-10.7154
▁දේශනය	-10.7157
▁හොරකම්	-10.7158
ංච	-10.7159
▁පරීක්ෂණයක්	-10.7159
▁ගුරුවරිය	-10.7165
▁දුරින්	-10.7166
▁හුදු	-10.7167
▁අධ	-10.7167
▁බෙදී	-10.7168
▁ඉස්ස	-10.7172
▁අයෙකුට	-10.7173
▁විස්තරයක්	-10.7179
▁ඥාතීන්	-10.7179
▁කතිකාව	-10.7179
▁ක්ෂේත්‍රයට	-10.7179
▁සඳු	-10.7181
▁තරණය	-10.7182
කරුවෝ	-10.7182
ප්පා	-10.7186
▁වෙනදා	-10.7188
▁රසිකොලොජිස්ට්	-10.719
▁ලක්‌	-10.7191
▁කළයුතු	-10.7195
▁ප්‍රමිතිය	-10.7195
▁විකුණා	-10.7195
කාන්ත	-10.72
▁ආවේණික	-10.7203
▁අනුන්ගේ	-10.7205
▁ගහගෙන	-10.7206
ෙම්	-10.7206
▁ඩැ	-10.7206
මාර	-10.7206
ලම්	-10.7208
සිත	-10.7208
▁අවාසනාවන්ත	-10.7208
▁පතා	-10.7209
▁ජගත්	-10.7213
▁මිටි	-10.7219
▁ග්‍රෑම්	-10.7221
▁ආවත්	-10.7224
ැස	-10.7225
▁කාගේ	-10.7233
▁33	-10.7233
▁වර්තමානය	-10.7234
▁කියෙව්වා	-10.7236
▁රැජින	-10.7236
▁ආදරයෙන්	-10.7237
▁සිදුවූයේ	-10.7237
දම්	-10.7238
▁ජනාධිපතිවරයාගේ	-10.7241
▁මිනිසාට	-10.7242
▁පාඨක	-10.7242
▁වීම්	-10.7243
▁ඩිස්	-10.7245
▁අල්ප	-10.7246
ම්පි	-10.7246
▁වෙළද	-10.7247
▁බ්‍රා	-10.7247
▁සංයුතිය	-10.7247
ෂී	-10.7249
▁ඒකාධිපති	-10.7251
▁අයහපත්	-10.7253
▁ගැලවීම	-10.7255
ීර	-10.7257
▁අක්ෂර	-10.7259
මානය	-10.7259
▁පෝෂණ	-10.7268
▁වැඩියෙන්ම	-10.7269
පොත	-10.7269
▁ලග්නය	-10.7271
▁විවාද	-10.7272
▁අත්‍යාවශ්‍ය	-10.7276
▁ගම්මානය	-10.7276
▁දියර	-10.7282
▁බලෙන්	-10.7283
▁ප්ලේ	-10.7283
▁තනිවම	-10.7287
▁දැකීමට	-10.7288
ණික	-10.7291
▁සතුරන්	-10.7293
▁මහත	-10.7294
▁කමිටු	-10.7295
▁ඇත්ද	-10.7296
▁දයා	-10.7297
▁ඔබ්බට	-10.7298
▁නවාතැන්	-10.7299
▁ටෙලිනාට්‍ය	-10.7302
ගති	-10.7305
කරනවා	-10.7306
▁කරන්නම්	-10.7307
▁පනස්	-10.7308
▁දවසකට	-10.7311
▁ගුප්ත	-10.7312
▁වැරැද්දක්	-10.7313
▁සිතූ	-10.7318
▁මට්ටමට	-10.7318
▁විශ්වය	-10.7319
න්ද්‍ර	-10.7321
▁කම්මැලි	-10.7324
විද	-10.7326
▁පවුලක	-10.7327
▁බස්නාහිර	-10.7328
▁සිවු	-10.7328
▁ඔබටත්	-10.7329
▁තත්	-10.733
▁ලිංගිකත්වය	-10.733
▁විගස	-10.7331
▁හරස්	-10.7334
▁විස්	-10.7334
ලෙස	-10.7336
▁පැළඳ	-10.7337
▁උපාසක	-10.7339
ිත්ත	-10.7341
▁ශ්‍රාවක	-10.7343
▁පොඩ්ඩ	-10.7343
තෘ	-10.7345
ාවන්	-10.735
45	-10.7352
▁ගානට	-10.7357
▁කාමරයේ	-10.7359
▁අතරම	-10.7361
▁ජනප්‍රියත්වය	-10.7364
▁අප්පා	-10.7367
▁නොදැනුවත්	-10.7368
▁රංජිත්	-10.7368
වන්ගේ	-10.737
▁ප්‍රවර්ධනය	-10.7372
▁වයසේ	-10.7373
▁ඉකොනොමැට්ටා	-10.7374
▁සතුටට	-10.7376
▁ඉවතට	-10.738
▁සංයෝග	-10.7383
▁ක්‍රියාකාරීත්වය	-10.7383
▁මුලදී	-10.7384
▁ප්‍රකාශන	-10.7384
▁තැබීමට	-10.7389
▁නිවා	-10.7389
ස්තර	-10.7394
▁තේරුමක්	-10.7397
මිණි	-10.7398
▁ඔස	-10.74
▁ගෙයක්	-10.7401
▁හරිත	-10.7402
▁සීය	-10.7403
▁ජපානයේ	-10.7403
ත්තර	-10.7403
▁සහනයක්	-10.7407
▁අල්ලාගෙන	-10.7409
▁සමලිංගික	-10.7409
▁නෙත්	-10.741
▁හැදෙන්න	-10.7411
▁ෆෙ	-10.7411
▁පිටව	-10.7412
▁ධනවත්	-10.7416
▁බැලුවොත්	-10.7418
▁ජීවත්වීම	-10.7422
▁කෙසේදැයි	-10.7424
පිළි	-10.7425
▁උණුසුම	-10.7426
▁මෙනි	-10.7427
▁පටල	-10.7428
▁නොලැබ	-10.7432
▁සමස්ථ	-10.7437
▁පියයුරු	-10.7438
27	-10.7439
▁ගණනක	-10.7439
▁නැකත	-10.7442
▁සිහිය	-10.7445
▁දැක්වෙන්නේ	-10.7446
▁දශකය	-10.7451
▁යුනි	-10.7454
▁ආපදා	-10.7456
▁ඩය	-10.7459
▁සපයයි	-10.7461
▁නිපද	-10.7472
▁රූගත	-10.7474
▁කාබන්	-10.7476
▁නග	-10.7478
▁වක්‍ර	-10.7479
ින්න	-10.7481
▁ඔක්සිජන්	-10.7485
▁නීතියක්	-10.7485
▁ගජ	-10.7485
▁දරන්න	-10.7486
▁එක්ස්	-10.7499
හිර	-10.7499
▁රැවට	-10.7504
ත්‍රය	-10.7507
▁බැල්ම	-10.7509
▁වින්	-10.7509
▁ගාලා	-10.751
▁පෙනුණ	-10.7513
▁අපිටත්	-10.7513
▁වචනයෙන්	-10.7513
ඩියා	-10.7515
ශ්‍රී	-10.7517
▁දෙවැන්න	-10.7518
▁තැන්පතු	-10.752
▁ගෝත්‍රික	-10.752
▁හොති	-10.7522
▁දීමනාව	-10.7523
▁වික්ටර්	-10.7526
ක්ෂා	-10.7531
▁තනා	-10.7534
▁ලග්න	-10.7537
▁පමා	-10.7539
▁නොවන්න	-10.754
▁සඳුදා	-10.7541
▁අප්‍රිකානු	-10.7543
▁ආවට	-10.7547
▁පුරුෂයා	-10.7548
▁දෙදෙනාගේ	-10.7548
▁ඉවත	-10.755
▁ක්ෂණික	-10.7551
▁සදාකාලික	-10.7552
▁මුහුණේ	-10.7552
්යා	-10.7554
▁සැඟවී	-10.7555
▁එමනිසා	-10.7556
▁මතවාදය	-10.7558
▁අතරෙ	-10.7558
▁පවුලට	-10.7559
දො	-10.7564
▁ඇත්තේය	-10.7565
ෂ්‍ය	-10.7565
▁ඕනැ	-10.7566
▁වෙච්චි	-10.7567
▁මන්ත්‍රීවරයා	-10.7568
▁තේරෙන	-10.7572
▁ලිහිල්	-10.7573
▁එකිනෙක	-10.7573
සූරිය	-10.7574
▁අධ්‍යක්ෂක	-10.7579
ගැනීමේ	-10.7581
▁සැඟව	-10.7587
▁වැදගත්ය	-10.7587
▁උගන්වන	-10.7592
▁භූමියේ	-10.7592
▁යෙ	-10.7593
▁කිවහොත්	-10.7593
දොර	-10.7593
▁හොයන	-10.7595
▁කන්‍යා	-10.7596
වැට	-10.7597
▁මාර්ගගත	-10.7598
▁පඬි	-10.7598
▁සමෘද්ධි	-10.7602
▁ග්‍රීක	-10.7603
▁අගනුවර	-10.7603
▁උපකල්පනය	-10.7607
▁පුද්ගලයාට	-10.7607
වැව	-10.7608
▁චරිතයට	-10.7611
ේජ්	-10.7612
▁වානේ	-10.7612
▁ගමනට	-10.7614
▁ගඳ	-10.762
▁ආරක්‍ෂා	-10.7621
▁මරන්න	-10.7622
▁මධ්‍යයේ	-10.7625
▁ප්‍රත්‍ය	-10.7625
▁පක්ෂයක්	-10.7627
කාරයෙක්	-10.7628
▁රඟපෑම	-10.7628
කතා	-10.763
▁පිරිත්	-10.7632
අද	-10.7633
බිම්	-10.7634
ගිරි	-10.7637
▁අඟහරු	-10.7638
රුවා	-10.7641
▁කේත	-10.7643
▁මාලාවක්	-10.7643
▁කෞතුකාගාරය	-10.7643
▁නාසය	-10.7644
▁ජන්ම	-10.765
▁වීදි	-10.7652
▁පින්තූරය	-10.7658
▁යුතුකම	-10.7661
▁හර්	-10.7662
▁කොටා	-10.7662
ාන්විත	-10.7663
▁ලක්ෂණය	-10.7673
▁කුටිය	-10.7676
ුන්ට	-10.7678
▁ඉංගිරිසි	-10.768
▁හාර	-10.768
▁යක්ෂ	-10.7682
▁තේරෙන්නේ	-10.7686
▁හෙයිනි	-10.7686
▁සූදු	-10.7687
ූප	-10.7691
▁දැමු	-10.7691
▁ඉතිරිව	-10.7691
▁සිළුමිණ	-10.7692
▁ලේකම්වරයා	-10.7693
ෝනි	-10.7693
රුප	-10.7695
▁දෙතුන්	-10.7696
▁පරික්ෂා	-10.7697
ිටි	-10.7703
▁ආයුෂ්මත්	-10.7704
▁ලන්ඩන්	-10.7704
▁කෝච්චිය	-10.7709
▁ශිල්ප	-10.7709
▁දුවන	-10.7712
▁පැමිණේ	-10.7717
▁යලි	-10.7718
▁හිතකර	-10.7718
▁වධ	-10.7718
▁කිරණ	-10.7719
▁විකුණන්න	-10.7723
ෝස්	-10.7725
▁නොදැ	-10.7727
▁පිළිවෙත	-10.7727
▁සෑ	-10.773
▁ගං	-10.7732
▁වයිරසය	-10.7732
▁අයටත්	-10.7734
▁බලපත්‍ර	-10.7734
▁ටීවී	-10.7735
▁ගොවියා	-10.7739
▁ලක්‍ෂණ	-10.7739
▁උද්ඝෝෂණ	-10.7743
▁කැරලි	-10.7743
▁පිරිසුදු	-10.7746
▁අශෝක	-10.7751
▁හැඳින්වීම	-10.7751
▁රහස	-10.7754
්‍	-10.7755
ට්‍ර	-10.7755
▁සේනාව	-10.7764
▁සෞන්දර්ය	-10.7764
ත්‍රී	-10.7765
▁එතුමාගේ	-10.7769
▁බයික්	-10.7771
▁කාලෙට	-10.7771
▁නිෂ්පාදක	-10.7775
▁දැනගන්නට	-10.7775
▁ගිරි	-10.7776
▁හිරි	-10.7776
නිසා	-10.778
බර්ග්	-10.778
▁පද්ධතියේ	-10.7781
▁නිරාවරණය	-10.7782
▁ප‍්‍රතිඵල	-10.7783
▁කපන්න	-10.7783
ඔහු	-10.7786
▁මුත්‍රා	-10.7787
▁මෙවලම	-10.7791
▁ගැනීමක්	-10.7799
▁සාමූහික	-10.78
▁රැකවරණය	-10.78
▁මෝහ	-10.7804
▁සමූහ	-10.7806
▁අංශක	-10.7807
▁පෙට්ටි	-10.7809
▁මිශ්‍රණය	-10.7809
▁අධ්‍යාත්මික	-10.7812
▁පදවිය	-10.7815
▁නුසුදුසු	-10.7818
▁පුළුවනි	-10.7821
▁නෞකාව	-10.7821
▁පළල	-10.7821
▁ප්‍රාණ	-10.7823
▁යාළු	-10.7826
▁කලාතුරකින්	-10.783
▁පුෂ්ප	-10.783
පස්	-10.7831
▁මෛත්‍රි	-10.7835
කයේ	-10.7836
▁හින්දි	-10.7837
▁වරුන්	-10.7838
ගන්නේ	-10.784
▁ක්‍රිස්තුස්	-10.784
▁බිඳී	-10.7841
▁ජනමත	-10.7843
▁මගීන්	-10.7846
▁අසාධාරණ	-10.7846
වරයාගේ	-10.7848
▁හුදකලා	-10.7848
▁මකර	-10.7849
▁ප්‍රීතිය	-10.7853
▁ගෙවිය	-10.7857
▁සිනමාවට	-10.7858
▁කේන්ද්‍රය	-10.7859
▁ප්‍රශ්නෙ	-10.7862
▁ආසනය	-10.7862
▁ලිව්ව	-10.7862
▁මට්ටම්	-10.7863
▁සිටිනු	-10.7866
▁ඇඳගෙන	-10.7867
▁රිංග	-10.7869
▁රාජ්‍යයේ	-10.7869
▁අයව	-10.7869
▁පාසලට	-10.7871
▁පෙළේ	-10.7872
ට්‍රි	-10.7873
▁අනුවාදය	-10.7874
▁භි	-10.7874
▁ජැ	-10.7874
▁පලවෙනි	-10.7878
▁තොල්	-10.7878
▁තියල	-10.7878
▁පැර	-10.7883
▁සංවර	-10.7883
▁කුස්සිය	-10.7885
▁අන්තර්ජාලයේ	-10.7885
▁ආනයන	-10.7886
▁ඒවගේම	-10.7887
▁ලාංකිකයන්	-10.7887
21	-10.7888
ාභි	-10.7888
▁හංග	-10.7889
කරුවන්ගේ	-10.7893
ෆී	-10.7894
▁ඇරලා	-10.7895
65	-10.7895
▁ගැළ	-10.7896
අනේ	-10.7897
▁විපත	-10.7902
▁නෙළුම්	-10.7903
▁පැවතිය	-10.7905
▁වෙළඳාම	-10.7906
▁කාරය	-10.7907
-1	-10.7907
▁අන්තවාදය	-10.7908
▁මිහිරි	-10.7908
න්දා	-10.7909
▁ගොවිතැන	-10.7909
▁ඉදිරිපස	-10.7911
▁දේවාල	-10.7912
▁කුර	-10.7916
08	-10.7918
▁සැළ	-10.792
කුණ	-10.792
▁හුදෙකලා	-10.7921
▁එන්ජිම	-10.7921
▁හිතල	-10.7928
▁මායිම්	-10.7929
▁හරින	-10.793
▁ශාසනය	-10.793
▁සමාධි	-10.7931
▁මිතුරිය	-10.7932
▁ඇරෙන්න	-10.7934
▁සිටිමු	-10.7938
සුන	-10.7939
▁විජේවීර	-10.794
▁කොහොමහරි	-10.794
න්ඩර්	-10.7944
නුවර	-10.7947
ස්ථා	-10.7949
▁වීදුරුව	-10.7949
▁ළදරු	-10.795
▁ඉයන්	-10.795
▁සිංගප්පූරුව	-10.7954
▁ඇතත්	-10.7954
▁සිදුවනු	-10.7964
▁මියගොස්	-10.7966
▁ඩා	-10.7967
▁ඔයාව	-10.7968
▁සෙයින්	-10.7969
▁පත්වෙලා	-10.797
▁තිසර	-10.7972
▁නිහඬව	-10.7973
▁ශ්‍රමය	-10.7974
31	-10.7976
▁සක්‍රීය	-10.7977
▁කළෙමු	-10.7977
▁ඉවාන්	-10.7978
▁සමාලෝචනය	-10.798
ාරාම	-10.7981
▁උදේට	-10.7982
▁දක්වාම	-10.7984
්හි	-10.7986
▁උනු	-10.7987
▁ප්‍රතිපල	-10.7988
▁රැස	-10.7991
0,000	-10.7994
▁නොහැකිව	-10.7994
▁තථාගතයන්	-10.7996
▁චිත‍්‍රපට	-10.7998
යූ	-10.7998
▁දක්‍ෂ	-10.7999
▁ප්‍රභේදය	-10.8002
▁හඳුනාගැනීම	-10.8003
▁වෙල්	-10.8003
▁තාර	-10.8004
▁කැලෑ	-10.8007
▁බුදුරදුන්	-10.8007
▁රණ	-10.8007
නූ	-10.8008
▁ආදායමක්	-10.8012
▁ජනයාට	-10.8014
▁සින්දුව	-10.8015
▁කරගත්තා	-10.8019
▁ග්‍රාමීය	-10.8023
▁මොහොතකට	-10.8023
▁කය	-10.8026
▁ස්පාඤ්ඤ	-10.8027
▁වීදිය	-10.8027
▁කලත්	-10.8027
▁පාර්ශ්ව	-10.8029
▁දත	-10.8031
▁සිටියාය	-10.8037
▁කෙරෙනවා	-10.8037
▁කරගත්ත	-10.8038
▁සැපයුම	-10.804
▁පාර්ශව	-10.8043
ත්තේ	-10.8043
▁වේදනාවක්	-10.8044
▁සිටින්නට	-10.8049
▁කැළ	-10.8049
▁අංගයක්	-10.8051
▁අඳුන	-10.8053
▁සැරයක්	-10.8054
▁හරියන	-10.8055
▁උල්ලංඝනය	-10.8057
▁වාතාවරණය	-10.8057
▁වැටි	-10.8061
▁සීමාවන්	-10.8061
▁ජොබ්	-10.8062
▁අන්තර	-10.8066
▁තුර	-10.807
▁ඇසු	-10.8072
මුතු	-10.8073
▁ගෙඩියක්	-10.8073
▁රහසක්	-10.8076
▁උත්තම	-10.8079
▁පුදුමාකාර	-10.808
▁පැමිණෙන්නේ	-10.8081
▁ප්‍රවණතාව	-10.8084
▁කුලය	-10.8088
▁ලෞකික	-10.8088
▁හෑ	-10.8088
▁වැඩසටහනක්	-10.8089
▁රජයෙන්	-10.8091
▁මහවැලි	-10.8094
ප්‍රිය	-10.8096
‍ෙ	-10.8096
▁සෙල්	-10.8097
මාණ	-10.8103
ිනී	-10.8104
චී	-10.8104
්නා	-10.8108
▁සතියක්	-10.8109
ච්ඡා	-10.8109
වරය	-10.8112
▁බදුල්ල	-10.8113
▁පෙනුමක්	-10.8113
ලස්	-10.8117
▁මතුව	-10.8119
▁යැම	-10.8119
▁සිද්ධියක්	-10.8119
▁පරිහරණය	-10.812
ස්තු	-10.8122
▁හංස	-10.8126
▁සාකච්ඡාවක්	-10.8126
▁මීළඟ	-10.8126
▁පැතිකඩ	-10.8126
▁කරවන්න	-10.8126
වූවා	-10.8128
▁සඟවා	-10.8128
▁මර්	-10.8129
▁ව්‍යසනය	-10.813
▁කාපු	-10.8131
▁අංකල්	-10.8133
▁රැවුල	-10.8136
▁සෙල්ලම	-10.8138
▁මීගමුව	-10.814
▁රැස්වීම්	-10.814
▁ලියුම	-10.8141
▁පාඨ	-10.8141
▁නියමිතව	-10.8143
▁මණ්ඩලයට	-10.8143
▁කෝප	-10.8145
▁එවැන්නක්	-10.8149
▁හිරිහැර	-10.8151
▁හමුවට	-10.8155
▁ඉවසීම	-10.8156
▁විකුණ	-10.8157
▁තාක්‍ෂණය	-10.8162
▁වෙනස්‌	-10.8163
▁එලෙසම	-10.8166
▁සයිට්	-10.8168
▁අඩුවීම	-10.8168
▁ලව්	-10.8168
▁ඉදින්	-10.8169
▁හමුවී	-10.8171
▁තරමටම	-10.8174
▁එවන	-10.8178
▁බොර	-10.8178
▁පිරිසට	-10.8179
▁හැල	-10.8181
▁කොටසේ	-10.8181
ම්ප්	-10.8184
▁හානිකර	-10.8184
▁දරුවො	-10.8186
▁පස්සෙන්	-10.8187
▁එෆ්	-10.8188
▁යන්තම්	-10.8188
▁ගුටි	-10.8189
▁ජූ	-10.819
▁සැලකේ	-10.8191
▁රිසි	-10.8193
රහ	-10.8199
▁නිවෙස්	-10.8199
▁ආයතනවල	-10.82
▁කප්පාදු	-10.8201
දුම්	-10.8201
මෙම	-10.8204
▁ශාස්ත්‍ර	-10.8207
▁හඬින්	-10.8207
▁කයි	-10.8208
▁යෝනි	-10.8209
▁චාරිත්‍ර	-10.8209
ඞ්ග	-10.8209
▁ප්‍රසිද්ධිය	-10.8212
▁සමාධිය	-10.8212
ිස	-10.8215
▁ගනන	-10.8215
▁එවා	-10.8222
▁අබේ	-10.8223
▁වින්ඩෝස්	-10.8226
▁සිකුරු	-10.8228
ලට්	-10.8229
▁විවිධත්වය	-10.8229
වෙත	-10.8233
▁පේරාදෙණිය	-10.8236
▁ටු	-10.8237
▁මැස්ස	-10.8237
ෂු	-10.8243
▁බීලා	-10.8246
▁මෑන්	-10.8247
ගාමි	-10.8249
▁අනූ	-10.8251
▁ලියවිල්ල	-10.8252
එහෙම	-10.8254
▁කියවල	-10.8257
▁රණතුංග	-10.8258
▁රටින්	-10.8259
▁ලියැ	-10.826
විණි	-10.826
▁ජෙනරාල්	-10.8264
▁පදනමක්	-10.8268
▁කාර්යබහුල	-10.827
▁යාන්ත්‍රණය	-10.827
ජෝ	-10.8274
▁ස්පා	-10.8275
▁නෙත	-10.8275
▁ලැබේවා	-10.8279
▁බයයි	-10.8281
▁කාලීනව	-10.8283
▁පාඨය	-10.8285
▁කලිසම	-10.8285
▁අරමුණක්	-10.8285
▁ශාන්ති	-10.8287
▁කරන්නෙමු	-10.8289
▁ප්‍රතිසංස්කරණ	-10.8289
▁පැමිණියා	-10.8293
කාව	-10.8293
▁ප්‍රශංසා	-10.8295
බඳ	-10.8296
▁එන්නම්	-10.8299
28	-10.83
▁වූවන්	-10.8301
▁වූයේය	-10.8302
▁මාදිලිය	-10.8302
▁පුණ්‍ය	-10.8302
▁ද්වි	-10.8306
▁හැදින්	-10.8308
▁2007	-10.8309
▁අවසරය	-10.8309
▁පසක්	-10.8314
ණ්ණ	-10.8315
▁පාත්	-10.8315
▁කටහඬ	-10.8316
▁පැකට්	-10.8321
කාර්	-10.8324
▁ප්‍රතිශතය	-10.8325
දහස්	-10.833
▁පුදුමයට	-10.8332
▁යෙදෙන්න	-10.8332
▁අර්ථයෙන්	-10.8333
▁පිළිබිඹු	-10.8334
▁වෙර	-10.8334
▁දරණ	-10.8335
▁කොරියානු	-10.8336
සෑම්	-10.8337
▁දැක්	-10.834
▁විෂම	-10.8341
▁ආණ්‌ඩුව	-10.8341
▁සාද	-10.8345
▁බැහැලා	-10.8345
▁යුදෙව්	-10.8347
▁සාමකාමී	-10.8347
▁වැර	-10.8349
▁පිවිසීම	-10.835
▁සිදුකිරීම	-10.8351
▁මාලු	-10.8351
▁බොහෝමයක්	-10.8353
▁තිබුනත්	-10.8354
▁අවස්තාව	-10.8354
▁ජේසුස්	-10.8354
▁ව්‍යවස්ථාවක්	-10.8359
▁සභාපතිවරයා	-10.8366
▁කුඩ	-10.8368
කැයි	-10.837
▁ක්රම	-10.8371
▁ඔතන	-10.8371
චනය	-10.8371
▁හැසිරෙන	-10.8371
▁සිගරට්	-10.8372
කරන්නේ	-10.8373
▁දිනෙන්	-10.8377
▁රචක	-10.8378
▁අැ	-10.8384
ගොස්	-10.8386
▁මහන්සිය	-10.8388
▁ශේෂ	-10.8389
▁බයිබලය	-10.839
▁තුන්වැනි	-10.8393
▁කොඩි	-10.8393
▁විටෙකත්	-10.8396
▁දැන්වීම	-10.8397
ශෝ	-10.8397
▁ඛේදවාචකය	-10.8399
▁ජරා	-10.8402
▁හඹා	-10.8404
▁උපමා	-10.8408
▁අටක්	-10.8408
▁පුරුද්දක්	-10.841
බූ	-10.841
▁ශුභ	-10.841
ාදිය	-10.841
ච්චා	-10.8412
▁පරිණාමය	-10.8414
▁හෙලි	-10.8415
▁ජිවිත	-10.8417
▁බැණ	-10.842
▁පාරෙ	-10.8421
▁බලපෑ	-10.8421
▁නිකම්ම	-10.8422
▁හෙන්රි	-10.8425
▁කොම	-10.8426
ලක්ෂ	-10.8426
▁ප්‍රසාද	-10.8427
ොහො	-10.8427
ෝල	-10.843
▁එතැනට	-10.8433
විර	-10.8433
▁ෂි	-10.8437
▁රැලි	-10.8439
ෆ්ට්	-10.8439
▁ප්‍රභූ	-10.844
▁ධාවන	-10.8441
▁සිප	-10.8443
▁ඇම්	-10.8444
ත්මක	-10.8444
▁කොළඹට	-10.8445
26	-10.8447
▁බලන්නට	-10.8448
▁ජීවය	-10.8448
▁සැකසුම්	-10.8449
▁ආයතනයට	-10.845
▁තෘෂ්ණාව	-10.8451
▁මොකුත්	-10.8452
▁ප්‍රාන්ත	-10.8453
▁අම්මයි	-10.8454
▁තමන්ගේම	-10.8456
වාදයට	-10.8457
▁කේස්	-10.8458
▁හිට්ලර්	-10.8462
▁සංඝයා	-10.8465
▁වීරයා	-10.8465
▁පැන්න	-10.8465
▁පැවසිය	-10.8466
▁නිමිත්ත	-10.8466
▁නිසාවෙන්	-10.8466
▁වීසා	-10.847
▁සාධකයක්	-10.847
කාලය	-10.847
▁කළුතර	-10.8471
▁හතක්	-10.8471
▁ශිල්පියා	-10.8472
කෘත	-10.8472
▁ස්තූති	-10.8473
▁තාල	-10.8473
බදු	-10.8474
▁ගත්තම	-10.8474
▁යුවතිය	-10.8475
▁නොගිය	-10.8477
▁පුද්ගලයාගේ	-10.8477
▁නායකයෙක්	-10.8478
කියා	-10.8478
▁මාතෘකා	-10.8478
▁විසිර	-10.8479
වසර	-10.8479
▁වාක්‍ය	-10.848
▁අපද්‍රව්‍ය	-10.8481
▁බහින	-10.8483
▁75	-10.8483
▁දර්ශකය	-10.8485
ණ්‌ඩ	-10.8486
▁වෛරස්	-10.8486
▁සමයේදී	-10.8487
▁තන්	-10.8491
▁වෙලාවකට	-10.8491
▁වැටහෙන	-10.8492
▁හඳුන්වනු	-10.8493
ත්වයේ	-10.8495
▁යුරෝ	-10.8495
▁දෙවියන්ට	-10.8496
▁පහසුකම	-10.8497
▁බහින්න	-10.85
▁සිදුවෙනවා	-10.85
▁ක‍්‍රීඩා	-10.8501
▁ඇන්ඩ්‍රොයිඩ්	-10.8501
ඳුන්	-10.8504
▁ආණ්ඩුවෙන්	-10.8508
▁ගිලි	-10.8509
▁පවු	-10.8509
▁මතකයේ	-10.8511
▁ස්වර්ණ	-10.8513
▁පෙළෙන	-10.8513
▁ගැහ	-10.8514
▁ඉන්දියන්	-10.8514
▁සිටිමි	-10.8514
▁අහන්නේ	-10.8519
▁කොයිතරම්	-10.8522
▁බල්ලා	-10.8522
▁කියමන	-10.8523
▁ජයසූරිය	-10.8523
▁මරණින්	-10.8523
▁අදාළව	-10.8524
ට්‍රෝ	-10.8525
▁ජයග්‍රහණ	-10.8527
▁ස්ටාර්	-10.8528
▁කරන්ට	-10.8528
▁ප්‍රදේශයට	-10.8531
▁සමාජවාදය	-10.8533
▁වරු	-10.8534
▁ප්‍රෝ	-10.8535
▁පාඨමාලාව	-10.8536
▁හෝමෝන	-10.8536
▁තෙල	-10.8536
▁ම්	-10.854
▁රහසිගත	-10.8546
▁ශෝක	-10.855
▁මේදය	-10.8552
▁පටිගත	-10.8558
▁තැනැත්ත	-10.8566
තුල	-10.8568
▁අමාත්‍යාංශ	-10.8569
▁නවත්ත	-10.8569
▁සමානව	-10.857
තෙල්	-10.857
▁අන්දමින්	-10.8573
මාල්	-10.8574
▁උගුල	-10.8575
ණ්ඩි	-10.8575
▁බ්ලොග	-10.8579
න්නාවූ	-10.8581
▁සියල්ලන්	-10.8584
▁කියවීමට	-10.8588
▁කොමිසමේ	-10.859
▁මුනි	-10.8596
▁කුහක	-10.8599
▁කළමනාකරණ	-10.8599
▁යෝ	-10.8601
▁කුසලානය	-10.8602
පසු	-10.8605
▁ආසාදිතයන්	-10.8605
▁යුවල	-10.8606
35	-10.8606
▁අදින්න	-10.8607
▁කලොත්	-10.8608
▁දුර්	-10.8611
අව	-10.8613
▁ඒවට	-10.8613
▁පරම්පරා	-10.8614
▁වනාන්තරය	-10.8615
▁මොළයේ	-10.8616
▁පන්සලේ	-10.8616
▁සුනඛ	-10.8617
▁විද්වතුන්	-10.8618
ලෙන	-10.862
▁පාලනයට	-10.8625
▁හාත්පස	-10.8625
▁පීඨය	-10.8626
▁ඉල්ලන්න	-10.8628
▁පැමිණියේය	-10.863
▁ලිංග	-10.863
▁වැඩකරන	-10.8631
▁නිදාගන්න	-10.8636
ණ්	-10.8636
ේෂ	-10.8637
ෝෂ	-10.8638
▁නොතකා	-10.8638
▁හේරත්	-10.8644
ුන්ගේ	-10.8648
▁අමෙරිකාව	-10.8649
▁තත්ත්වයකට	-10.865
ණීය	-10.8651
▁නෝන	-10.8652
▁නොගැ	-10.8653
▁නැන්ද	-10.8654
▁කියාගෙන	-10.8654
▁දනී	-10.8655
▁දික්කසාද	-10.8658
▁බලපත්‍රය	-10.8658
▁ක‍්‍රම	-10.866
▁කොන්ඩ	-10.8662
▁දෝෂය	-10.8663
▁මේකත්	-10.8666
▁කටුක	-10.8666
▁අසුන	-10.8675
▁බඳුන්	-10.8675
▁අවධිය	-10.8676
▁වෙන්ව	-10.8677
▁කූඩුව	-10.868
▁ඊමේල්	-10.8684
▁එවන්න	-10.8684
▁ඔස්	-10.8685
▁පේන්නේ	-10.8686
▁වෝ	-10.8687
▁ප්‍රේක්ෂකයන්	-10.8689
▁මිථ්‍යා	-10.869
▁දැනුන	-10.8692
▁ඩබ්ලිව්	-10.8692
▁ඉපදීම	-10.8692
▁සමබර	-10.8693
▁යුද්ධයෙන්	-10.8695
▁පරිවර්තන	-10.8696
▁දන	-10.8702
දෙණිය	-10.8702
▁දෙනාටම	-10.8704
▁මාරයා	-10.8706
භාර	-10.8707
▁තුරන්	-10.8707
▁පිළිවෙළ	-10.8709
▁අන්තිමේ	-10.8709
▁කෙල්ලො	-10.871
▁ලඟට	-10.871
▁34	-10.8711
▁දෙති	-10.8713
ාගම	-10.8713
▁-19	-10.8713
▁පමන	-10.8713
▁අපනයනය	-10.8715
▁අසුන්	-10.8717
▁ටයිප්	-10.8718
▁1000	-10.872
ප‍්‍ර	-10.8721
▁පුටු	-10.8724
▁වැඩෙන	-10.8724
▁එකිනෙකාට	-10.8726
▁අභය	-10.8728
▁සාක්ෂාත්	-10.873
▁ප්රමාණය	-10.8731
▁ක්‍රියාදාමය	-10.8732
▁පෙන්වයි	-10.8733
▁සරස	-10.8737
▁පනින	-10.8738
▁කිලෝමීටර	-10.8739
▁පුලුවන්ද	-10.8739
ස්ති	-10.8739
▁ප්‍රතිචාරය	-10.8742
▁වැදුන	-10.8742
▁පැස	-10.8746
▁පෞද්ගලිකව	-10.8746
▁ඇසීම	-10.8747
ජිත්	-10.8747
▁ශෛලිය	-10.8747
▁සතුරා	-10.8747
▁පොළොන්නරුව	-10.8749
▁ධර්මයන්	-10.875
▁උඹලා	-10.8751
▁අසන්න	-10.8752
▁බෙන්	-10.8752
▁උග්‍ර	-10.8753
▁දෙකයි	-10.8756
ියෙන්	-10.8762
මහා	-10.8762
▁ප්‍රධානම	-10.8763
▁සෙන්නා	-10.8764
▁300	-10.8764
▁කඩු	-10.8765
▁අරූ	-10.8766
▁අරක්කු	-10.8769
▁පාතාල	-10.8771
▁වාර්තාවේ	-10.8774
▁සිරුරු	-10.8779
▁ක්‍ෂ	-10.8781
▁37	-10.8782
▁අපූර්ව	-10.8785
▁මෙගා	-10.8785
▁ඔප	-10.8786
▁හිතුවෙ	-10.8787
ාර්ථය	-10.8789
▁අර්ජුන	-10.8791
▁ෆො	-10.8792
▁බැරිය	-10.8794
▁ගුණරත්න	-10.8795
ම්බි	-10.8799
▁1/	-10.88
▁උන්නා	-10.8802
▁මොඩ	-10.8802
▁ලිප	-10.8802
▁අභිමානය	-10.8805
▁ආයෙම	-10.8806
▁යුද්ධයේ	-10.8808
▁ඔවු	-10.8808
ලන්ත	-10.8814
▁පන්න	-10.8815
ීත	-10.8818
▁දේශපාලක	-10.882
▁කිසිඳු	-10.8823
▁දෙදෙනකු	-10.8823
▁රත්තරන්	-10.8824
▁වෛද්ය	-10.883
▁මිනිස්සුන්ගේ	-10.8834
▁ඉන්නවද	-10.8834
▁කීහ	-10.8836
ජෙ	-10.8839
▁ගණිතය	-10.8839
▁තිබුනු	-10.884
▁පොලීසියට	-10.8846
▁ගන්නත්	-10.8848
▁සහෝ	-10.8853
▁අධිරාජ්‍යය	-10.8854
▁විමසුව	-10.8854
▁නැටුම්	-10.8855
▁දනිමි	-10.8862
▁එකතුවෙලා	-10.8864
දෙක	-10.8865
▁දෘෂ්ටිය	-10.8867
▁කව්ද	-10.8869
▁ලිවීමට	-10.887
▁ලාංකේය	-10.887
යියා	-10.8871
▁සහකරු	-10.8873
රං	-10.8875
▁ඇම	-10.8876
▁අවාසනාවකට	-10.8876
▁පසුබිම්	-10.8877
▁ගැහැණිය	-10.8877
▁විපර්යාස	-10.8877
▁නොකී	-10.888
▁ශ්‍රේෂ්ඨාධිකරණය	-10.8881
▁අමුත්ත	-10.8884
▁තැනම	-10.8884
ස්ටන්	-10.8886
▁කියවෙන	-10.889
▁නීත්‍යානුකූල	-10.8891
▁වැඩකටයුතු	-10.8891
▁හිමිකර	-10.8894
▁පන්දුව	-10.8895
▁දේවතා	-10.8898
ිල්ලක්	-10.8902
▁බුක්	-10.8908
▁පිටත්ව	-10.891
▁ජර්මන්	-10.8911
▁පෝර	-10.8912
▁හදුන්වා	-10.8912
▁පැත්තක	-10.8914
▁දැකගන්න	-10.8917
කිරීමේ	-10.8921
නියාව	-10.8921
▁කර්මාන්තයේ	-10.8921
▁නිමාව	-10.8923
▁උත්තරයක්	-10.8924
▁3,	-10.8925
▁නොකරන්නේ	-10.8925
▁බැලු	-10.8926
▁මුඛය	-10.8929
▁චක්‍රය	-10.8931
▁නින්දට	-10.8931
▁කියන්නෙත්	-10.8931
▁ෂා	-10.8932
99	-10.8934
▁සමනය	-10.8934
▁හමුවීම	-10.8936
▁ඩයි	-10.8936
▁වේදිකාවේ	-10.8937
▁ගෙල	-10.8937
▁ජනේල	-10.8937
▁ඡුන්ද	-10.8938
▁ප්‍රමාණයට	-10.8939
▁මන්ත‍්‍රී	-10.894
පින්	-10.894
▁යොදවා	-10.8942
▁බොරුව	-10.8942
▁චැනල්	-10.8945
▁සැතපුම්	-10.8946
ූර්	-10.8951
ෲ	-10.8952
▁ඇඟට	-10.8953
ාසය	-10.8957
▁බලපු	-10.8958
▁ලාභය	-10.896
▁විශේෂත්වය	-10.896
▁වේග	-10.896
බන්ධ	-10.8961
▁කෙමෙන්	-10.8963
▁නිත්‍ය	-10.8963
▁ව්‍යාප්තිය	-10.897
▁ගණනාවකට	-10.897
▁පිවිසෙන්න	-10.8971
▁අර්බුද	-10.8972
▁මතින්	-10.8972
▁අපහසුතාවය	-10.8973
දායී	-10.8973
▁ග්ර	-10.8973
▁වෛ	-10.8978
▁සැපයුම්	-10.898
▁ෆු	-10.8982
▁වත්තේ	-10.8982
▁මූලධර්ම	-10.8983
ත්‍රා	-10.8985
▁අමුද්රව්ය	-10.8986
▁කොතැන	-10.8986
වූහ	-10.8986
පෙළ	-10.8986
කාශ	-10.8989
සියාව	-10.899
▁තැත්	-10.8991
▁දහවල්	-10.8992
▁අල්ලස්	-10.8992
▁මැරුණ	-10.8992
ෙනුයි	-10.8992
▁ජිනීවා	-10.8992
▁හිඟය	-10.8993
▁අනන්‍යතාව	-10.8996
ියාව	-10.8998
▁සුරංග	-10.9
▁දක්‌වා	-10.9001
▁ගණනින්	-10.9004
▁රම	-10.9005
වරණ	-10.9007
ුරේ	-10.9008
▁මෙමගින්	-10.9008
▁සංකීර්ණය	-10.901
▁පුරාවට	-10.901
හල්	-10.9012
▁සමරවීර	-10.9013
▁ඉසව්ව	-10.9016
▁හමුදාපති	-10.9017
ිකයන්	-10.9023
▁ලෙසිනි	-10.9027
▁කරුණාරත්න	-10.9027
කියු	-10.903
▁මුදුන්	-10.9032
▁කප	-10.9033
▁මාසයක්	-10.9033
බෝධ	-10.9036
▁ඇමතුම්	-10.9036
▁මිලක්	-10.9037
මේක	-10.9038
▁හර්ෂ	-10.9042
▁හිමියන්ගේ	-10.9042
▁වර්ගීකරණය	-10.9043
▁සම්ප	-10.9045
න්ත්‍ර	-10.9045
▁පෙන්වීමට	-10.9046
▁පරමාණු	-10.9047
▁අච්චු	-10.9048
▁බිහිසුණු	-10.9048
▁මධ්‍යස්ථ	-10.9049
▁තිබුණද	-10.9056
▁හැන්ද	-10.9058
▁රංගනයෙන්	-10.9061
▁රථයක්	-10.9062
▁කතුවරයා	-10.9064
▁නෑදෑ	-10.9064
ජර්	-10.9066
▁සාමාන්ය	-10.9066
▁ආදරයක්	-10.9067
▁ලැබුනා	-10.9068
▁රේඛා	-10.9068
▁ගුණාත්මකභාවය	-10.907
රියාව	-10.9073
▁භාව	-10.9073
▁නිරුවත්	-10.9078
ඳුර	-10.9079
▁ස්වාමියා	-10.908
ප්ර	-10.908
▁ප්‍රභවය	-10.9082
▁ප්‍රමාණ	-10.9083
▁සංග්‍රහ	-10.9083
ඟි	-10.9084
ගත්තු	-10.9085
▁නොගත්	-10.9088
▁‍පො	-10.9092
▁දොඩ	-10.9094
▁නිරෝධ	-10.9095
▁ගැනීමටත්	-10.9098
▁සිතියම	-10.9102
▁වසරක	-10.9102
▁කෙනාට	-10.9102
▁කීවාය	-10.9103
පන්න	-10.9103
▁පාරිභෝගිකයා	-10.9105
නියම්	-10.9105
▁විද්‍යාලයට	-10.9107
▁හමුවූ	-10.9109
▁හිංසා	-10.9109
▁සංශෝධන	-10.9112
උඹ	-10.9113
▁ලලිත්	-10.9113
▁අවකාශ	-10.9116
▁පවිත්‍ර	-10.9116
ිසි	-10.9118
▁එල්ලා	-10.912
්නාවූ	-10.912
▁ඇහැර	-10.912
▁නළ	-10.9121
ට්ටා	-10.9122
▁අමනාප	-10.9123
▁සෙවණ	-10.9123
▁ගෙට	-10.9126
▁හාමුදුරුවන්	-10.9128
▁දිස්ත්‍රික්ක	-10.9128
▁ගැනීමත්	-10.9129
ලාභී	-10.9129
▁නමස්කාර	-10.913
▁වටී	-10.9131
▁කෙළි	-10.9132
▁ක්‍රියාවට	-10.9132
▁දායාද	-10.9137
▁රජුට	-10.9139
▁රෝගයක්	-10.9142
▁කාරුණික	-10.9143
▁පෝය	-10.9145
▁දර්ශනයක්	-10.9145
▁මාස්ටර්	-10.9148
▁දේවිය	-10.915
▁දුෂ්කරතා	-10.915
මුල්ල	-10.9151
▁අදින	-10.9155
▁අවැසි	-10.9157
▁තෝරාගැනීම	-10.9158
▁පනවා	-10.9159
▁පනත්	-10.916
▁සිතුවිල්ල	-10.9162
▁මහින්දට	-10.9163
▁හදිස්සි	-10.9164
▁මුං	-10.9164
▁සිටියෙමි	-10.9166
වීර	-10.9168
▁බල්ලන්	-10.9169
▁ව්‍යවසායක	-10.917
▁නූ	-10.9171
▁පඤ්ච	-10.9171
▁පළතුරු	-10.9172
හූ	-10.9174
▁ගණනකට	-10.9175
කොන්	-10.9179
▁විදුලිබල	-10.918
▁එසේත්	-10.9182
▁ගබඩාව	-10.9183
▁ඉදල	-10.9195
▁ඒත්තු	-10.9195
▁ජයන්ත	-10.9196
▁පැටල	-10.9197
▁ඇඳිරි	-10.9197
▁මාක්ස්	-10.9197
▁පත්කළ	-10.92
▁කරවීම	-10.92
▁ජනිත	-10.9202
▁වැඩපිළිවෙළක්	-10.9204
▁දන්ත	-10.9204
▁කාරයා	-10.9208
▁විනෝදය	-10.9211
▁හැරීමට	-10.9212
ාසනය	-10.9212
▁ප්‍රමාණයේ	-10.9213
▁මහල්	-10.9213
▁ගාවට	-10.9215
▁නොහැකියි	-10.9216
▁නැරඹීමට	-10.9217
▁ක්රමය	-10.9219
▁මහරජ	-10.9223
ූන්	-10.9226
▁පටහැනි	-10.9227
තුමනි	-10.9227
▁සිටිමින්	-10.9228
▁පැවැ	-10.9231
▁සිරුරට	-10.9231
▁පැමින	-10.9232
ක්ෂක	-10.9232
ාවෙන්	-10.9233
▁බැන්ද	-10.9233
▁විශිෂ්ඨ	-10.9234
▁වේලාවක	-10.9234
▁අහසේ	-10.9238
▁සංගම්	-10.924
▁නිලධාරීන්ගේ	-10.9243
▁සිදුරු	-10.9243
▁ඇත්තෝ	-10.9245
▁කොහෙ	-10.9245
33	-10.9245
▁අංශවල	-10.9245
▁සොරකම්	-10.925
▁බඳුන	-10.9254
▁තෘප්තිය	-10.9254
▁සංසන්දනය	-10.9254
▁සමිඳාණන්	-10.9254
ඔව්	-10.9255
89	-10.9256
▁එර	-10.9261
▁ලිව්වා	-10.9261
▁නවත්වන්න	-10.9262
▁අහපු	-10.9263
වොත්	-10.9267
▁ට්‍රයි	-10.9275
දාර	-10.9275
ණයක්	-10.9276
▁නිසාවෙනි	-10.9277
▁ශ්‍රේණිගත	-10.9277
▁ලැබෙන්නෙ	-10.928
▁ත්‍රී	-10.9282
▁දෘශ්‍ය	-10.9283
▁ඉස්සෙල්ලා	-10.9284
▁මහත්තයෝ	-10.9284
▁සුරතල්	-10.9285
▁කලකිරීම	-10.9286
▁දෑත්	-10.9288
▁මෙත	-10.9289
▁ඇතුව	-10.929
▁ඇවැත්නි	-10.9291
▁දෙහි	-10.9292
▁මයිකල්	-10.9292
▁රුසියාවේ	-10.9295
▁දන්නෑ	-10.9295
▁ලබාදිය	-10.9296
▁වැටෙනවා	-10.9296
▁දිනයේදී	-10.93
90	-10.9301
▁්	-10.9302
▁බන්ධන	-10.9306
▁විත්ති	-10.9307
ාදී	-10.9309
▁ඤාණ	-10.9312
70	-10.9313
▁චක්‍ර	-10.9314
කාරිත්වය	-10.9314
▁වෙන්ඩ	-10.9314
▁ප්රතිකාර	-10.9315
▁වසන	-10.9318
▁කස	-10.9326
▁වාසියක්	-10.9327
▁සියල්ලටම	-10.9327
▁එහෙනං	-10.9328
▁කලාවේ	-10.9329
▁ඍ	-10.933
▁මුදලට	-10.9331
ගෑ	-10.9332
▁ක්ෂුද්‍ර	-10.9332
▁වාෂ්ප	-10.9332
▁ප‍්‍රදේශයේ	-10.9332
▁වෙහෙර	-10.9333
▁කුලියට	-10.9335
▁හැදෑරීම	-10.9335
▁ශිල්පී	-10.9336
▁කාර්යභාරය	-10.9336
▁වෙදකම	-10.9345
▁දුඹුරු	-10.9346
▁ක්‍රමවේදයක්	-10.9346
▁සම්බුද්ධ	-10.9346
▁වත්කම්	-10.9347
▁අස්සෙ	-10.9347
▁රොබෝ	-10.935
▁විචාරය	-10.935
නිස්	-10.9351
▁අනිවාර්යයෙන්	-10.9353
▁ඇසුරුම්	-10.9356
▁නීතිපති	-10.9357
▁තලා	-10.9361
▁පැටවුන්	-10.9362
▁අනන්‍ය	-10.9365
▁වයින්	-10.9367
▁මෙන්ඩිස්	-10.9368
▁නිළියන්	-10.9368
▁ටියුබ්	-10.9368
▁කුමාර්	-10.9368
▁තඹ	-10.9369
▁හටගත්	-10.937
▁උදව්වක්	-10.9371
▁කරගන්නේ	-10.9372
▁සයිබර්	-10.9372
එක්	-10.9375
▁අධ්‍යනය	-10.9376
ාණන්	-10.9376
▁උද්ඝෝෂණය	-10.9377
▁මදක්	-10.9378
▁රුචි	-10.9378
▁අහවල්	-10.9383
▁රතන	-10.9387
▁ගුණයක්	-10.9388
▁කැබැල්ල	-10.9388
▁අල්ලපු	-10.939
▁පරීක්‍ෂණ	-10.939
▁සංයුක්ත	-10.939
▁කාමරයට	-10.9391
▁බලාපොරොත්තුවක්	-10.9392
▁මලක්	-10.9393
▁පුපුරා	-10.9394
▁යාළුවෝ	-10.9395
▁පද්ම	-10.9396
▁මිලි	-10.9398
ස්ටා	-10.94
▁වර්ෂාව	-10.9401
ංජන	-10.9401
▁නබි	-10.9402
▁ඉමහත්	-10.9402
▁මචෝ	-10.9403
▁පහන	-10.9407
▁කෙසේවෙතත්	-10.941
▁හෘදය	-10.941
▁පියතුමා	-10.9411
▁හැඳින්විය	-10.9413
▁ශිල්පය	-10.9414
▁නිෂ්	-10.9416
▁පහතින්	-10.9416
▁අකමැත්ත	-10.9417
▁සේනාරත්න	-10.9418
▁ස්‌ව	-10.9421
චන්ද්‍ර	-10.9422
ධන	-10.9425
▁ප්‍රමාණයෙන්	-10.9425
▁කරගන්නවා	-10.9426
▁සබන්	-10.9429
▁ලබමින්	-10.9429
▁ලක්ෂණයක්	-10.9431
මුඛ	-10.9431
▁බිල	-10.9433
▁සිතනවා	-10.9438
▁තාවකාලිකව	-10.9439
▁අප්‍රිකාව	-10.944
▁හිතන්	-10.9441
යාණන්	-10.9444
▁මිලිටරි	-10.9445
▁ලේසියෙන්	-10.9446
▁තර්ජනයක්	-10.9448
▁තීරය	-10.9449
▁ක්රීඩාව	-10.945
▁මෙහෙයවන	-10.9453
▁එක්කෙනා	-10.9454
▁හසුරුව	-10.9454
ග්‍රහ	-10.9454
ක්ෂි	-10.9455
▁වංශය	-10.9455
▁කෝවිල	-10.9456
▁කොහේද	-10.9457
▁ගායන	-10.9459
▁සංවාදයක්	-10.946
▁වින්දනය	-10.9463
▁දෙගුණ	-10.9465
▁පතුරු	-10.9467
▁උරා	-10.9467
▁කදු	-10.9468
▁ගෝචර	-10.9468
▁අමතා	-10.947
▁ඇවිදින්න	-10.9471
▁හැදි	-10.9475
▁යාපනයේ	-10.9476
▁විනා	-10.9476
▁නියමිතය	-10.9478
▁බෝඩ්	-10.9478
ජ්ඣ	-10.9481
▁කීපය	-10.9484
▁අධ්‍යක්‍ෂ	-10.9485
▁පිළිගැනීමට	-10.9485
▁ඇසුරෙන්	-10.9485
▁වාරය	-10.9485
▁සියදිවි	-10.9488
▁සිරකරුවන්	-10.9488
▁කාලයත්	-10.9489
▁වලටත්	-10.9489
▁අම්බ	-10.9492
▁ජයසිංහ	-10.9492
▁නිරන්තර	-10.9494
වේදීන්	-10.9494
▁එලිය	-10.9498
▁ආසාදන	-10.9498
▁දිවයිනේ	-10.95
▁ඇසුවේ	-10.9502
ද්දා	-10.9502
▁අලියා	-10.9508
▁ලන්	-10.9508
චු	-10.9512
▁යස	-10.9513
▁2004	-10.9514
▁පිළිගෙන	-10.9514
▁සිටිනා	-10.9516
▁නිවසක	-10.9519
▁හඳුන්	-10.9524
▁පසුවන	-10.953
▁වර්ධන	-10.9531
▁අභ	-10.9536
▁යුද්ධයක්	-10.9536
▁ශ්‍රමණ	-10.9541
▁කඩුල්ල	-10.9545
▁අද්විතීය	-10.9545
▁රස්තියාදු	-10.9545
▁තම්බ	-10.9548
▁ගොල්ල	-10.9548
▁විස්තරය	-10.9548
▁ආයි	-10.9549
ානා	-10.9552
▁අරමුණින්	-10.9554
▁සැත්කම	-10.9555
▁ගම්මිරිස්	-10.956
▁සෞදි	-10.9561
ාමි	-10.9561
▁තීන්දුවක්	-10.9561
ොල	-10.9562
මියා	-10.9565
▁රථයේ	-10.9569
▁එළැඹ	-10.9571
▁සාගරය	-10.9573
▁මිදුල	-10.9575
▁දෙදෙනාට	-10.9576
▁තෝරන්න	-10.9576
▁පුස්	-10.9577
හිදී	-10.9579
▁පණිවුඩ	-10.9579
▁ලොකුවට	-10.958
▁අරුණ	-10.9581
▁ඒකා	-10.9584
ත්තං	-10.9585
▁2006	-10.9585
කාමී	-10.9587
▁අවාසනාව	-10.9588
▁55	-10.9588
▁උපාදාන	-10.9589
▁භික්‍ෂුව	-10.9591
▁නිර්මල	-10.9594
▁කල්ලි	-10.9596
▁කාරයෝ	-10.9598
▁වින්ද	-10.9598
▁එස	-10.96
55	-10.96
සිද්ධ	-10.9601
ාංශ	-10.9601
මොකද	-10.9604
▁පැවසු	-10.9605
▁මඳක්	-10.9605
▁පවුර	-10.9606
නල්	-10.9607
▁වලි	-10.9616
▁ඉෂ්ට	-10.9616
▁ඇඟේ	-10.9616
▁ගීතයේ	-10.9616
▁භාණ්ඩය	-10.9621
▁කීපයකට	-10.9626
▁අනිවාර්යෙන්ම	-10.9627
▁බියෙන්	-10.9629
▁ආඥා	-10.9629
▁අභ්‍යාස	-10.9632
▁සළ	-10.9633
▁උසාවි	-10.9634
ඉන්	-10.9635
▁බැරුව	-10.9635
▁විකාශනය	-10.9637
▁කතාකරන්න	-10.9637
▁සස	-10.9637
වෙමු	-10.9638
ිමි	-10.9638
▁භික්‍ෂූන්	-10.9639
▁සූර්යයා	-10.964
▁රියදුරු	-10.9641
▁විදියේ	-10.9644
▁තේරීම්	-10.9646
▁ගිම්හාන	-10.9647
▁දෙයක්‌	-10.9648
▁සිවුරු	-10.9648
▁පරිප්පු	-10.9651
▁හොය	-10.9652
▁ටැංකි	-10.9653
▁ජර්මනියේ	-10.9654
▁දුෂ්ට	-10.9656
වාසී	-10.9658
▁ගියපු	-10.9661
පෝට්	-10.9661
▁පල්ලි	-10.9663
▁(2	-10.9664
▁කාණ්ඩ	-10.9665
▁ජීවිතේට	-10.9666
▁48	-10.9669
▁තාත්තට	-10.967
▁නවසීලන්තය	-10.9674
▁ලේඛනය	-10.9676
▁යොදන	-10.9678
▁පථය	-10.9679
▁අරින්න	-10.9681
▁කෘත	-10.9683
දාහ	-10.9685
කළා	-10.9688
▁ආරක්ෂණ	-10.969
▁ගංගාව	-10.9691
▁ජනතාවගෙන්	-10.9691
▁විඳීමට	-10.9692
▁ඇන්ඩ්	-10.9695
▁අනාථ	-10.97
▁මරණයෙන්	-10.9701
▁ව්යා	-10.9703
▁කම්හල	-10.9705
▁පූජ්‍ය	-10.9706
▁සහෝදරිය	-10.9714
▁කාලෙකින්	-10.9714
▁ධම්මික	-10.9714
▁බඳින්න	-10.9714
ුවේය	-10.9716
▁භාර්යාව	-10.9721
ඳි	-10.9724
▁වර්ගයා	-10.9725
▁පවුලක්	-10.9726
▁පාරම්පරික	-10.9727
▁යැවීමට	-10.9727
▁දුරස්ථ	-10.973
▁බැරිද	-10.9735
▁කවුරුහරි	-10.9737
▁පෘතුගීසි	-10.9742
▁පෙරළා	-10.9744
▁දසුන්	-10.9745
▁ජාතක	-10.9746
▁තේරෙනවා	-10.9746
▁අනුගත	-10.9747
▁ප්‍රසංගය	-10.9748
▁ඉරානය	-10.9748
▁මූලාශ්‍ර	-10.9748
▁තහඩු	-10.9749
▁කොට්ඨාසය	-10.9752
▁අනතුරක්	-10.9753
▁පණිවිඩයක්	-10.9753
▁මැලේ	-10.9754
වෘත්ත	-10.9755
▁පොලිස්‌	-10.9755
▁නිකමට	-10.9756
▁මිදී	-10.9756
▁තමුසෙ	-10.9756
ර්ග	-10.9763
▁ආරක්‍ෂාව	-10.9763
▁වැසිකිළි	-10.9764
▁ෆේස්	-10.9765
▁කෘ	-10.9766
▁ඛාන්	-10.9766
▁කිහිපයක්ම	-10.9766
▁ද්රව්ය	-10.9771
▁යාලුවෙක්	-10.9773
▁ආයිත්	-10.9774
▁බූරු	-10.9775
▁කන්නේ	-10.9775
▁පැනල	-10.9776
කෘති	-10.9777
▁උත්තේජනය	-10.9778
▁පාදය	-10.9779
▁ඇහුවේ	-10.9779
▁පුහුණුකරු	-10.9782
▁පවසති	-10.9783
▁ආයතනයක	-10.9784
▁යාච්ඤා	-10.9786
▁තීන්ත	-10.9788
▁භාගයේ	-10.979
▁කෑවා	-10.9791
▁සොබාදහම	-10.9793
▁සිරගත	-10.9795
ඛා	-10.9796
බස්	-10.9797
▁අයදුම්	-10.9798
▁අනුකරණය	-10.98
▁විධියට	-10.98
▁දුමින්ද	-10.9801
▁නැං	-10.9801
▁ඉතාලි	-10.9803
▁නැන්දා	-10.9804
▁ආයුෂ	-10.9805
▁අපහසුව	-10.9806
▁කෙන	-10.9809
▁උගන්වන්න	-10.9812
▁පටය	-10.9814
▁රාජධානියේ	-10.9814
▁බැල්මට	-10.9816
▁පිහිටුවන	-10.9817
▁සම්‍යක්	-10.9817
▁බලපා	-10.982
වැඩි	-10.9821
▁සමාජීය	-10.9824
තුමිය	-10.9825
▁පහලට	-10.9826
▁සමි	-10.9829
▁මන්ත්‍රීවරු	-10.9831
▁අවුරුද්දෙ	-10.9832
▁අසූ	-10.9832
▁කිරුළ	-10.9834
▁ප්‍රබන්ධ	-10.9834
▁38	-10.9836
▁පහසුය	-10.9836
▁ප්‍රභා	-10.9837
▁නයිට්	-10.9838
▁කාලයකි	-10.9838
▁සමස්තයක්	-10.984
▁පුද්ගලයන්ට	-10.9841
▁පහරක්	-10.9842
▁සිල්ලර	-10.9845
▁බෝනික්ක	-10.9845
▁සමන්ත	-10.9854
▁ධුර	-10.9854
ගමු	-10.9864
▁උල්	-10.9866
▁කෙල්ලෝ	-10.9867
▁සයිටම්	-10.9867
▁ප්‍රගතිය	-10.9868
ලන්න	-10.9875
▁අඩුව	-10.9876
▁මෙදා	-10.9878
▁විහාරයේ	-10.9879
▁පීඩාව	-10.988
▁ටිකෙන්	-10.9881
▁ප්‍රහාරයක්	-10.9884
▁මෝල්	-10.9884
▁විදුහල	-10.9886
▁කාන්තාවන්ගේ	-10.989
▁දිසාව	-10.9892
▁ඉගෙනගන්න	-10.9892
▁පතන	-10.9893
▁පැවතුණ	-10.9894
▁ප්‍රචාරක	-10.9896
▁ලැබු	-10.9898
▁වැඩිමහල්	-10.9899
▁දැනගත්	-10.99
▁නීල	-10.9901
▁ධාතුව	-10.9907
▁කසළ	-10.9908
36	-10.9912
▁හිමියෝ	-10.9916
▁සැරසී	-10.9917
▁සිරාගෙ	-10.9917
▁ප‍්‍රදේශය	-10.992
ඬේ	-10.992
▁නැරඹීම	-10.9922
▁පහේ	-10.9923
▁පසුවය	-10.9924
▁ඇසෙන	-10.9924
▁සාමාන්යයෙන්	-10.9928
▁පරාජයට	-10.993
ොම්	-10.9932
▁හෙළා	-10.9935
▁වන්නා	-10.994
▁පෘථිවියේ	-10.9942
▁පුස්තකාලය	-10.9948
▁ත්‍ර	-10.9948
යුක්ත	-10.9949
▁නොයන	-10.9953
▁ඩු	-10.9954
▁තරගයට	-10.9956
▁ආවම	-10.9958
පණ	-10.9963
රස්	-10.9964
▁ගැඹුරින්	-10.9964
▁කෝවිඩ්	-10.9964
▁මහින්දගේ	-10.9965
▁ජීවි	-10.997
▁පැල්	-10.9971
▁ත්‍යාග	-10.9971
▁අංශයට	-10.9971
▁ගායිකාව	-10.9972
▁යාළුවෙක්	-10.9975
▁ප්‍රභේද	-10.9975
▁සංදර්ශන	-10.9975
ොට්	-10.9978
▁තඩි	-10.9979
▁මුදු	-10.9985
▁පිලිබඳව	-10.9986
▁උපේක්ෂා	-10.9987
▁දණ්ඩ	-10.9989
▁පුහු	-10.9989
▁යුක්තව	-10.9991
යුත්ත	-10.9993
▁වාරයක්	-10.9993
▁ප්‍රතික්‍රියා	-10.9996
▁ගෙයි	-10.9996
▁රකින්න	-10.9996
▁ඉහ	-10.9998
එච්	-10.9999
▁නගින	-10.9999
▁සැන	-11.0002
▁ස්වා	-11.0003
▁ක්‍රීම්	-11.0003
ෙද්දි	-11.0004
▁සංස්කාර	-11.0006
▁මෑතක	-11.0008
▁විෂබීජ	-11.0009
▁පසුකාලීනව	-11.0009
▁හල	-11.0009
▁මිලකට	-11.001
▁රාවණ	-11.0012
▁කොඩිය	-11.0013
▁කුඹුර	-11.0014
බැඳ	-11.0014
වැනිදා	-11.0019
▁වැදී	-11.0019
▁විකිරණ	-11.002
▁ආලේපන	-11.002
▁ආසා	-11.0021
▁භාග්‍ය	-11.0023
▁විලාසිතාව	-11.0024
▁ක්‍රිස්	-11.0027
▁ලියන්නට	-11.0031
▁පොලිය	-11.0035
▁පුතාට	-11.0036
▁ගනිති	-11.0036
▁හැඳ	-11.0039
▁සිතන්නට	-11.004
▁පෙරේදා	-11.0041
▁ගෙනාව	-11.0041
සිං	-11.0042
▁සමාන්තර	-11.0043
▁ජීවමාන	-11.0045
සුරු	-11.0046
▁ජනයාගේ	-11.0046
▁රඟපාන	-11.0046
▁පත්වේ	-11.0046
▁අගනා	-11.0047
▁පැහැදිලියි	-11.0049
▁අවධියේ	-11.0049
▁දමිළ	-11.0055
▁මන්ත්‍ර	-11.0056
ශී	-11.0057
▁ඊයෙ	-11.0058
▁දෙයින්	-11.0059
▁වනතුරු	-11.006
▁කඩිනමින්	-11.0062
▁විහිලු	-11.0062
▁150	-11.0063
▁සම්මේලනය	-11.007
▁පිස්ස	-11.0073
▁ඉගැන්වීම්	-11.0074
▁වටිනාකම්	-11.0075
▁ශාසන	-11.0077
▁අර්ථවත්	-11.008
▁හදන්නෙ	-11.0081
▁බැඳි	-11.0082
▁සංකේතය	-11.0084
රල්	-11.0085
▁කල්පනාව	-11.0086
▁සොයමින්	-11.0087
▁ඇඳීම	-11.0092
▁වන්නි	-11.0092
යෑම	-11.0093
▁ඇමරිකන්	-11.01
▁මංගල්‍යය	-11.0103
ලන්ඩ්	-11.0108
▁රෝගීන්ට	-11.0111
▁බත	-11.0112
▁මතකද	-11.0113
▁ව්‍යවස්ථාවේ	-11.0114
▁ඉන්දියාවෙන්	-11.0115
▁කමිටුවේ	-11.0115
▁පැරැණි	-11.0115
▁මාසෙ	-11.0117
▁පුද්ගලයෙකුට	-11.0117
▁ප්‍රදානය	-11.0118
▁නරඹ	-11.0118
▁බඹ	-11.0121
තනය	-11.0123
ප්ල	-11.0125
ද්ර	-11.0125
▁පොරක්	-11.0129
▁සමාජගත	-11.0129
▁අහම්බෙන්	-11.0131
ිම්	-11.0134
▁ලබාගන්නා	-11.0135
▁මුහුන	-11.0136
▁පැතිරීම	-11.0147
▁ටීචර්	-11.0147
▁ගර්	-11.0149
භාෂ	-11.015
▁පාඩමක්	-11.0153
▁පති	-11.0153
▁ඝාතක	-11.0154
▁සෙල	-11.0157
▁දිවෙන	-11.0158
ෙදී	-11.0159
▁සැනසීම	-11.0162
▁දෙයකට	-11.0163
▁සුරා	-11.0164
▁ගාලු	-11.0164
▁බිව්ව	-11.0169
▁සහකාර	-11.0169
▁හැදුවේ	-11.017
▁කුමන්ත්‍රණ	-11.017
▁සාක්කුව	-11.0171
▁ඉතිහාසයක්	-11.0171
▁මැතිවරණයට	-11.0173
▁ප්‍රශ්නවලට	-11.0174
▁අව්	-11.0175
▁මර්දන	-11.0176
▁මතකයට	-11.0176
▁ආධ්‍යාත්මික	-11.0177
වුවහොත්	-11.0178
▁ප්‍රතිපාදන	-11.0178
ධම්ම	-11.018
▁බොක්ක	-11.0181
▁විවාහක	-11.0181
▁ශ්‍රද්ධාව	-11.0181
එෆ්	-11.0184
▁නියමිතයි	-11.0185
▁බවත්ය	-11.0188
හරණය	-11.0188
▁දුන්හ	-11.0189
ලීමට	-11.019
▁පාසැල	-11.0191
▁ආශ්චර්ය	-11.0192
▁පරීක්‍ෂා	-11.0192
▁ඇඟවීම	-11.0193
▁අල්ලගෙන	-11.0197
▁රණවිරුවන්	-11.0198
▁අමිල	-11.0205
▁එතනට	-11.0205
▁වරයා	-11.0206
▁කෘෂිකාර්මික	-11.0207
▁අල්ලන	-11.0212
හමාර	-11.0214
▁පැතිරී	-11.0215
▁මගහැර	-11.0218
▁ප්‍රෙ	-11.0218
▁ලක	-11.0219
▁කෙරෙයි	-11.0219
▁බැලීම්	-11.022
▁ඩොලරය	-11.0223
▁එකාට	-11.0224
▁වැදි	-11.0224
▁පර්යේෂකයන්	-11.0225
▁වයසක	-11.0226
▁මවක්	-11.023
කන්න	-11.0231
▁පාසල්වල	-11.0233
▁නළුවා	-11.0234
▁හොල්මන්	-11.0235
▁බෙල්	-11.0235
▁ඕං	-11.0235
▁එනු	-11.0238
▁මත්ස්‍ය	-11.0238
▁පින්තුර	-11.0238
▁වැලඳ	-11.0239
▁දහමේ	-11.0243
▁සුන්	-11.0244
▁භීතිය	-11.0246
▁බලයේ	-11.0246
▁පිළිකාව	-11.0247
▁නැග්ග	-11.0249
▁වෙළඳපොල	-11.0249
▁පෙනෙනවා	-11.0252
▁වන්දනාව	-11.0252
▁ලෝකෙට	-11.0252
▁මාරාන්තික	-11.0253
▁හිංසනය	-11.0254
▁පරිස්සම්	-11.0254
▁රටා	-11.0254
ාත්ම	-11.0254
▁කැන	-11.0254
▁නියැ	-11.0259
කෑ	-11.0261
▁සැකකරු	-11.0261
▁දුකට	-11.0263
▁කැටයම්	-11.0263
▁හැරෙන	-11.0263
▁රාහු	-11.0265
▁කතාබහට	-11.0266
▁දැඩිව	-11.0266
▁නොගන්නා	-11.0268
පනය	-11.027
▁හිමිකරු	-11.0272
දනය	-11.0273
▁අනුරාධපුරය	-11.0274
▁ඇතිවේ	-11.0274
▁ගේට්ටුව	-11.0277
ෆෙ	-11.0283
යෝග	-11.0286
▁ඔරොත්තු	-11.0292
කරගත්	-11.0292
▁අනියම්	-11.0294
▁ඔබලා	-11.0294
හ්ම	-11.0294
▁තිබිලා	-11.0295
75	-11.0295
▁බලහත්කාරයෙන්	-11.0297
▁තේරුණා	-11.0298
▁ගොර	-11.03
▁කොටගෙන	-11.0302
▁ගිණි	-11.0304
▁ඉව	-11.0305
▁වැඩකට	-11.0306
▁බැට	-11.0306
▁දඩයම්	-11.0307
▁ක්‍ෂේත්‍රය	-11.0308
වර්ත	-11.031
▁ඉරා	-11.031
▁හෙම	-11.0311
ංග්	-11.0311
▁කිං	-11.0311
න්නේය	-11.0311
▁අහගෙන	-11.0315
▁පැවරීම	-11.0318
▁නිවාඩුව	-11.0319
▁සත්වයා	-11.0319
32	-11.0321
▁තිත්ත	-11.0323
පූර්ණ	-11.0324
37	-11.0325
▁ඇමතිවරුන්	-11.0325
▁වේලක්	-11.0329
▁න්‍යෂ්ටික	-11.0331
▁සද්දෙ	-11.0332
▁තෝරාගෙන	-11.0332
▁ගෙනා	-11.0334
▁ප්‍රධානතම	-11.0335
▁නාලිකා	-11.0335
▁කොණ්ඩය	-11.0337
▁දිර	-11.0341
▁කෝණය	-11.0341
▁හැමදාමත්	-11.0343
▁සෙවුම්	-11.0343
හානි	-11.0344
▁හිදී	-11.0347
▁කවුන්සිලය	-11.0347
▁විභාගයට	-11.0347
▁පුවත්පතේ	-11.0349
▁බදාදා	-11.035
▁දිනමිණ	-11.0351
▁පිළිමය	-11.0351
▁සෑය	-11.0352
68	-11.0353
▁සබ	-11.0354
සුර	-11.0354
-20	-11.0355
▁ලෝභ	-11.0355
▁දිනාගත්	-11.0355
▁පිච්ච	-11.0357
▁රෙජි	-11.0359
▁ගොනුව	-11.0359
▁යං	-11.0361
▁ඈතින්	-11.0361
▁ගිලී	-11.0363
▁ත්‍රස්තවාදීන්	-11.0363
▁විවරණය	-11.0364
▁සනත්	-11.0365
▁රකින	-11.0366
▁පයි	-11.0368
▁ආබාධිත	-11.0372
ස්ත්‍ර	-11.0373
▁පොම්ප	-11.0375
▁ගමගේ	-11.0376
ෙව්ව	-11.0377
▁නොවි	-11.0378
ාහුය	-11.0379
▁ආණ්ඩුකාර	-11.0379
පූර්	-11.038
ග්ර	-11.0381
▁අටුවා	-11.0381
▁ආර්ථිකයට	-11.0386
▁ආශීර්වාද	-11.0386
▁දුබල	-11.0386
▁ක්‍රීඩාවේ	-11.0386
▁වැස	-11.0386
▁වැඩීම	-11.0389
▁තෝරාගන්න	-11.0391
▁පන්තියට	-11.0394
▁මාතෘකාවක්	-11.0395
▁නැවතී	-11.0396
▁යුගලය	-11.0398
▁කාර්යාලයට	-11.04
▁විලියම්	-11.0402
▁බන්දුල	-11.0402
▁මැච්	-11.0405
▁ස්වල්ප	-11.0408
▁බඩගින්න	-11.0409
▁ඉතාලියේ	-11.0413
▁රැය	-11.0415
▁සිනමාපටය	-11.0415
▁දෑස	-11.0416
▁බලනකොට	-11.0416
▁දුර්වලතා	-11.0417
▁පැවස	-11.0417
▁2/	-11.0418
▁ඈතට	-11.0418
▁හරය	-11.0419
▁දිගුකාලීන	-11.0419
▁පහකට	-11.0422
▁පාඨකයා	-11.0423
▁ෆෙඩරල්	-11.0425
▁කාන්දු	-11.0426
▁පමනක්	-11.0427
▁වස්ත්‍ර	-11.0428
▁වුනාම	-11.0429
▁හැදිලා	-11.0431
▁නායකයෝ	-11.0432
▁ඉස්ලාමීය	-11.0433
▁මංකොල්ල	-11.0433
▁විත්	-11.0434
▁පෑන්	-11.0435
▁දෙරණ	-11.0435
▁ධ්‍යාන	-11.0436
▁මකා	-11.0437
▁හිතුණ	-11.0438
▁පණිවුඩය	-11.0439
▁හුන්	-11.044
▁අවිනිශ්චිත	-11.0441
▁සිටුවීම	-11.0441
▁දැක්කෙ	-11.0442
පෙර	-11.0442
▁සසුන	-11.0442
ලතා	-11.0445
▁අනුකම්පාව	-11.0445
▁එන්ජින්	-11.0449
▁කෙරුණේ	-11.045
▁රොෂාන්	-11.0451
▁සංහිඳියාව	-11.0454
▁කුමර	-11.046
▁සලසන	-11.0462
යනට	-11.0467
▁තෙවැනි	-11.0468
▁නිර්මාණාත්මක	-11.047
▁ටින්	-11.0471
▁වෙනවද	-11.0471
▁පාසා	-11.0474
හොඳ	-11.0477
▁අකුසල්	-11.0477
▁ගෙණ	-11.0478
73	-11.0478
▁සොහොන්	-11.0478
න්ඩා	-11.0481
▁පර්වතය	-11.0483
▁නොවෙන්න	-11.0485
69	-11.0486
▁ලේඛකයා	-11.0486
▁පේන්නෙ	-11.0486
▁වෙන්නෙත්	-11.0488
ක්‍ෂා	-11.0489
▁චර්යාව	-11.049
▁නිවසක්	-11.049
▁නවත්තන්න	-11.0491
▁අසම	-11.0493
▁අඛණ්ඩ	-11.0495
▁අයෙකි	-11.05
▁නාය	-11.0501
▁තථාගත	-11.0502
▁කඩාගෙන	-11.0503
▁ලප	-11.0504
▁සැකකරුවන්	-11.0505
▁සාදය	-11.0506
▁සොයාගත්	-11.0506
▁ලදායී	-11.0507
▁බෝට්ටුව	-11.0515
▁ගොස්‌	-11.0516
▁හේම	-11.0518
▁එහේ	-11.0522
ඨා	-11.0525
▁නර්තන	-11.0526
▁හිඳි	-11.0527
▁අපේක්ෂාව	-11.0529
▁අනන්‍යතාවය	-11.0534
▁උලෙළ	-11.0536
▁ඇසට	-11.0536
▁මෙයාල	-11.0539
▁මාසේ	-11.054
▁එසේනම්	-11.054
න්නෙමු	-11.054
ප්පුව	-11.054
▁සෙක්ස්	-11.0542
▁ගෙවල්වල	-11.0545
▁එළඹෙන	-11.0552
▁ජැක්	-11.0552
▁විමසුම	-11.0554
▁පැවසුවා	-11.0555
▁දමමින්	-11.0556
▁යාමෙන්	-11.0557
▁ප්‍රියතම	-11.0557
▁කැඳවීම	-11.0559
▁හිතවතුන්	-11.0559
▁ආකාරයකට	-11.0562
▁පිළිගන්නා	-11.0564
▁වලදි	-11.0566
▁සමුද්‍ර	-11.0568
▁මාලිංග	-11.0569
▁කුමාරතුංග	-11.0569
▁කොමි	-11.057
▁බිසව	-11.0574
▁මතකයන්	-11.0575
▁ඇතුන්	-11.0576
අම්ම	-11.0576
▁සුරත	-11.058
▁සෙමින්	-11.058
▁පියාණන්	-11.058
▁සුදුසුය	-11.0581
▁කෙරුවා	-11.0581
▁අපේක්ෂිත	-11.0583
▁තැඹිලි	-11.0591
▁වේලාවට	-11.0591
▁උචිත	-11.0594
▁රළු	-11.0596
▁ඇමතුමක්	-11.0596
▁අම්ල	-11.0596
▁සංචාරකයින්	-11.0597
ංශ	-11.0597
▁ගුලි	-11.0598
▁භාණ්ඩාගාර	-11.0598
▁මනුස්ස	-11.0601
ගින්	-11.0603
▁ෆයිල්	-11.0603
▁අනුපාත	-11.0605
▁සූර	-11.0608
ුවෝ	-11.061
▁ඉන්දු	-11.0612
▁ලෙන්	-11.0613
▁අනාගතයේදී	-11.0613
ාති	-11.0617
▁සූරිය	-11.0617
▁පරලොව	-11.0618
▁ආහාරයක්	-11.0618
▁කටින්	-11.0622
▁අධීක්ෂණය	-11.0622
▁අඳ	-11.0623
▁සබ්බ	-11.0631
උප	-11.0631
පල්ලා	-11.0633
බුදු	-11.0636
▁65	-11.0637
▁විග්‍රහය	-11.0637
▁සංරක්ෂණය	-11.0638
▁ඩේවිඩ්	-11.0639
▁නිර්මාතෘ	-11.0639
▁ගාන්ධි	-11.064
ියාවේ	-11.0642
▁දිරිමත්	-11.065
▁කැමැතියි	-11.0652
▁ආකල්පය	-11.0659
▁අම්මේ	-11.0659
▁ලියුම්	-11.066
▁මෙහා	-11.0662
▁බිද	-11.0662
▁ට්විටර්	-11.0663
▁වස්තූන්	-11.0663
▁චීස්	-11.0667
ශ‍්‍ර	-11.0669
▁මුවා	-11.0672
රෙන	-11.0672
ෂියා	-11.0673
▁රැළි	-11.0675
▁බියර්	-11.0675
▁මූලස්ථානය	-11.0681
▁එකල්හි	-11.0681
67	-11.0682
▁ලෙනින්	-11.0682
▁400	-11.0682
සමහර	-11.0689
▁පල්	-11.069
▁තට්ට	-11.0691
▁පෙන්නන	-11.0692
▁ජිවිතේ	-11.0693
▁අතුර	-11.0693
▁ශ්‍රීලනිපය	-11.0694
▁අසං	-11.0695
▁ධාන්‍ය	-11.0696
▁ලියු	-11.0697
▁පනින්න	-11.0703
ැට්	-11.0704
▁දේකට	-11.0704
▁ආදර්ශය	-11.0706
▁මරාගෙන	-11.0708
▁කතාවෙන්	-11.0708
▁කාශ්‍යප	-11.0712
▁අඟුරු	-11.0713
▁සය	-11.0713
▁පිතිකරු	-11.0714
▁කපලා	-11.0717
▁රස්සාවක්	-11.0717
▁ප්‍රයෝජනයට	-11.0718
▁සියයක්	-11.072
▁වාරික	-11.0723
ටිස්	-11.0725
▁නොබලා	-11.0729
▁ප්‍රධානත්වයෙන්	-11.0729
▁හයියෙන්	-11.0729
▁ලැබුව	-11.0731
▁උළු	-11.0734
▁පිටුවේ	-11.0736
කථා	-11.0736
▁ඉවහල්	-11.0736
▁ශාලාවේ	-11.0737
▁කර්මාන්තශාලා	-11.0737
▁දෙකටම	-11.0738
64	-11.0739
▁කරන්ඩ	-11.074
▁මැතිවරණයේදී	-11.074
▁ප්රවේශ	-11.0744
මෙය	-11.0745
▁එකක්වත්	-11.0746
▁ළඟින්	-11.0747
▁සමහරුන්	-11.075
▁කෙරුව	-11.0752
▁ජේම්ස්	-11.0753
▁සමගිය	-11.0758
▁තිබි	-11.0758
▁ක්ෂණිකව	-11.0759
▁යාළුවො	-11.0761
▁ගුවන්විදුලි	-11.0761
▁ඒකීය	-11.0761
න්‍ධ	-11.0762
▁උපයන	-11.0762
▁අල්ලලා	-11.0763
▁දමන්නට	-11.0764
▁දහමට	-11.0765
▁රණවක	-11.0765
▁සුගත	-11.0766
▁සාපේක්ෂ	-11.0766
▁යති	-11.0767
▁සිසුන්ට	-11.0768
▁ඇතිවෙන	-11.0769
▁තණ්හාව	-11.0769
▁පිළිවෙත්	-11.0771
▁රෝගයට	-11.0771
▁පවුල්වල	-11.0773
▁විශ්වයේ	-11.0774
▁ඇඳුමක්	-11.0774
ගත්තේය	-11.0776
▁පරස්පර	-11.0777
▁ව්‍යාපෘතියක්	-11.0779
▁ජලයෙන්	-11.078
වේවි	-11.078
▁සුද්දා	-11.0781
න්‍ය	-11.0784
▁සෙවන	-11.0787
▁ජාවාරම්	-11.0789
▁ඉහලින්	-11.079
ගණ	-11.0795
▁42	-11.0795
▁ඇල්බ	-11.0797
▁ඉගෙනුම	-11.0797
▁අම්මාගේ	-11.0799
▁රාජපක්ෂගේ	-11.0799
▁කාව	-11.0802
ඇයි	-11.0803
▁උදාර	-11.0806
▁මෙලෝ	-11.0806
▁ග‍්‍රහ	-11.0808
▁සංරචක	-11.0809
▁මධ්ය	-11.081
39	-11.0811
ද්ධි	-11.0811
▁නියෝගය	-11.0812
▁අයගෙ	-11.0812
▁99	-11.0814
▁දොළහ	-11.0815
▁සිම්	-11.0816
▁ගාථා	-11.0817
▁ප්‍රීති	-11.0818
▁සෞඛ්ය	-11.0818
▁දනිමු	-11.0818
▁දෙකකි	-11.0821
ලගෙ	-11.0822
හැබැයි	-11.0822
ර්ජ	-11.0823
▁සංස්කෘත	-11.0824
▁පොතු	-11.0824
▁කියවනවා	-11.0824
▁අත්කර	-11.0827
▁නිරෝධායන	-11.0828
▁ඉද්දි	-11.0828
▁බොස්	-11.0828
▁සදාචාර	-11.083
▁පෙනි	-11.0831
▁43	-11.0832
▁පද්ධතියට	-11.0832
▁තුනකින්	-11.0834
▁නොගන්න	-11.0834
▁පීඩිත	-11.0834
▁ප්‍රායෝගිකව	-11.0837
▁ඇසුරින්	-11.0838
▁උගතුන්	-11.084
▁අම්පාර	-11.0842
▁මවුපියන්	-11.0842
▁දිවුරුම්	-11.0843
▁පැතුම	-11.0843
▁උදුරා	-11.0846
▁භික්‍ෂු	-11.0848
▁උරහිස	-11.0849
▁ඇඹර	-11.0853
ොස	-11.0853
කිරීම්	-11.0856
▁71	-11.0858
▁ලැප්ටොප්	-11.0859
▁අද්භූත	-11.0859
▁ඇදහිල්ල	-11.0859
▁යටිතල	-11.086
▁පාලකයා	-11.0861
▁ප‍්‍රහාරය	-11.0866
▁හඳුන්වන්න	-11.0866
▁දාන්නේ	-11.0868
▁හැරි	-11.0869
▁බින්	-11.0869
▁සමීපව	-11.0869
▁ව්‍යාපාරිකයන්	-11.0871
▁පෙරල	-11.0872
▁රාහුල	-11.0875
▁ඉතාලිය	-11.0875
▁විමසන	-11.0875
▁පාරටම	-11.0875
34	-11.0876
▁සරළ	-11.0876
▁කේන්දර	-11.0877
▁නගන	-11.088
▁4,	-11.0882
▁පිළිගන්නවා	-11.0883
▁එබැවිනි	-11.0883
▁සෑහීමක	-11.0883
▁සලකන්නේ	-11.0889
▁බෑගය	-11.089
▁බැටරිය	-11.089
ලීන්	-11.089
▁ලක්ෂ්මන්	-11.0891
සීන්	-11.0894
▁උන්නේ	-11.0894
සෙල්	-11.0898
▁ඔස්ට්‍රේලියාව	-11.09
වුරු	-11.0903
▁හඳුනාගන්න	-11.0903
▁හැගීම	-11.0903
▁කොරන්න	-11.0909
▁වෙළඳපල	-11.0911
වර්ග	-11.0914
▁බලන්නකෝ	-11.0915
▁කෝෂ	-11.0916
▁දුටුගැමුණු	-11.0916
▁වට්ටෝරුව	-11.092
▁1970	-11.092
49	-11.092
▁වෙනකන්	-11.0923
ඝාත	-11.0924
▁වයඹ	-11.0925
▁කසුන්	-11.0926
▁පයිය	-11.0927
▁අහඹු	-11.0927
▁පරිසරයක්	-11.0929
▁මහලු	-11.093
▁විදින	-11.093
▁කථානායක	-11.0931
▁විශේෂයක්	-11.0931
ලෙක්	-11.0932
▁ශිෂ්ටාචාරය	-11.0933
▁සෙනග	-11.0934
▁අහක	-11.0935
පිළිතුරු	-11.0938
▁හදිසියේම	-11.094
▁වෙනකල්	-11.0942
▁පිපිරීම	-11.0943
▁නටබුන්	-11.0949
▁ව්යාපාර	-11.095
▁ටැංකිය	-11.095
▁පවසමින්	-11.0952
▁යේසුස්වහන්සේ	-11.0956
▁සාක්‍ෂි	-11.0958
▁පෘථිවි	-11.0958
▁ධෛර්යය	-11.0958
▁බොරුවට	-11.0963
▁අගමැතිතුමා	-11.0965
▁බෝල්	-11.0967
▁ගංජා	-11.0967
▁අසාධාරණය	-11.0968
▁අපහසුතාව	-11.0969
ස්ටෝ	-11.0971
▁තුවක්කු	-11.0971
▁ඩයස්	-11.0973
▁කිසිවකුට	-11.0973
▁ප්‍රදේශයක	-11.0975
▁කරනවද	-11.0975
▁බටර්	-11.0978
▁භක්ති	-11.0978
▁නිපදවා	-11.0978
▁බාස්	-11.0978
රැව	-11.0979
▁කරන්නෙත්	-11.0982
▁අමෙරිකානු	-11.0982
▁ගන්ධ	-11.0984
▁සම්බන්ධතාව	-11.0985
▁අවතාර	-11.0986
ජිත	-11.0987
▁1980	-11.0988
ගල්ල	-11.0989
▁ලෙන	-11.0991
▁අරාබිය	-11.0991
▁බෝට්ටු	-11.0993
▁කොල්ලන්	-11.0993
▁මදු	-11.0994
▁අධිකාරි	-11.0994
▁කෑගහ	-11.0995
▁යොදාගන්න	-11.0996
▁එතුමාට	-11.0996
▁අසුර	-11.0999
▁තිරයේ	-11.1001
▁පරිසරයේ	-11.1001
▁දේශන	-11.1002
▁සමකාලීන	-11.1005
▁ප්‍රතිචාරයක්	-11.1006
▁චතු	-11.1007
▁හඬක්	-11.1008
▁තිස්සෙ	-11.1013
▁සංක්‍රමණය	-11.1016
▁පූජනීය	-11.1016
▁සම්භාව්‍ය	-11.1016
▁ස්ථානගත	-11.1016
▁සංස්කෘතියක්	-11.1017
▁භේද	-11.1017
▁බැලුවම	-11.102
▁රසිකයන්	-11.1021
▁අමුතුම	-11.1022
▁භෝජන	-11.1024
▁විනාස	-11.1025
▁විටින්	-11.1025
▁ස්වල්පයක්	-11.1026
▁සැමරීම	-11.1026
ාණෝ	-11.1026
▁පියාසර	-11.1027
▁ගොත	-11.1027
58	-11.1027
▁හයිය	-11.1028
▁සමාජයෙන්	-11.1029
▁ගමු	-11.103
▁උච්ච	-11.103
▁එද්දි	-11.1032
▁වැටුණා	-11.1032
▁සෙනසුරු	-11.1032
▁අයිෆෝන්	-11.1032
▁කවරේද	-11.1033
▁තිබුණේය	-11.1035
▁නොවුණ	-11.1038
ද්‍රා	-11.1041
▁ෂුවර්	-11.1041
ගන්ඩ	-11.1041
▁ගිලන්	-11.1041
▁එතුමන්	-11.1042
▁තීරුව	-11.1043
▁වර්ණනා	-11.1043
▁උපත්	-11.1044
▁නොගැනීම	-11.1049
▁ගොඩනඟා	-11.1049
▁ලෙහෙසි	-11.1049
ූහ	-11.1055
▁ප‍්‍රශ්නයක්	-11.1057
▁මදුරු	-11.1058
▁ගැසූ	-11.106
▁මන්නාරම	-11.1066
වෙනව	-11.1071
▁නගින්න	-11.1071
▁පුතුන්	-11.1073
▁නුවරඑළිය	-11.1074
▁අඟහරුවාදා	-11.1074
▁බෝනස්	-11.1077
▁බල්ල	-11.1077
▁වාරි	-11.1078
▁ස්වාමින්	-11.108
▁පැවතුන	-11.1081
ඩ්ඩ	-11.1081
▁සදාචාරය	-11.1081
▁දිනන්න	-11.1081
▁ගතහොත්	-11.1081
▁පවසන්න	-11.1083
▁කේන්ති	-11.1085
▁ඇමතිතුමා	-11.1087
▁තිත	-11.109
▁තේරී	-11.1091
▁ඔච්චර	-11.1091
▁පාෂාණ	-11.1091
▁පඩිය	-11.1092
▁විදිහේ	-11.1092
▁ඇදුම්	-11.1096
දෙනකු	-11.1099
▁වාර්ගික	-11.1099
▁නැමති	-11.11
▁නොහැ	-11.1103
▁දෙවියන්වහන්සේගේ	-11.1105
▁තුන්වෙනි	-11.1105
▁ඕස්ට්‍රේලියාව	-11.1105
▁පුදුමයක්	-11.1106
▁විහ	-11.1107
▁පෙනෙයි	-11.1108
▁තැටිය	-11.1109
‍ටුව	-11.1111
▁හාමුදුරුවො	-11.1112
▁කෙරුණා	-11.1113
▁පක්‍ෂයේ	-11.1114
▁දෙවනුව	-11.1114
▁අම්මෝ	-11.1114
▁ප්‍රංශය	-11.1115
▁විශ්වාසවන්ත	-11.1116
▁බයිසිකල්	-11.1116
▁යෙදුන	-11.1116
▁ව්‍යාපාරයට	-11.1117
▁ත්‍යාගය	-11.1117
▁කොදෙව්	-11.1118
▁අධිකරණයේ	-11.1118
▁ශීලය	-11.1125
▁නිළ	-11.1126
▁ස්වර්ගය	-11.1127
▁මැඩම්	-11.1127
▁හස්ත	-11.1128
▁ගාස්තුව	-11.113
▁සොයුර	-11.1132
▁ප්‍රතිපත්තියක්	-11.1133
චෙ	-11.1137
▁තරගයක්	-11.1139
▁නොපැ	-11.1139
▁සුවපහසු	-11.1142
▁ක‍්‍රිකට්	-11.1142
▁ගර්භණී	-11.1142
▁කීර්තිය	-11.1143
▁දිල්	-11.1144
53	-11.1144
▁සිරියාව	-11.1145
▁පරපුරේ	-11.1152
▁ඇහෙන්න	-11.1156
▁පිටියේ	-11.1156
▁ප්‍රශස්ත	-11.1159
▁දඩුවම්	-11.116
▁කුරුඳු	-11.1161
▁නැඟිට	-11.1162
▁ක්‍රීඩකයා	-11.1165
▁මාධව	-11.1165
▁කිවුවා	-11.1169
▁පළාත්වල	-11.1169
61	-11.1169
▁මුල්‍ය	-11.1171
බ්බා	-11.1171
▁පත්වෙනවා	-11.1172
▁ක්‍රමයේ	-11.1173
▁උගන්ව	-11.1175
▁හේතුවෙනි	-11.1178
▁සම්ප්‍ර	-11.1178
▁අතපසු	-11.1179
▁රාජසිංහ	-11.118
▁පිත්ත	-11.1181
▁චීනයට	-11.1187
▁නිරෝධායනය	-11.119
▁කියැවෙන	-11.1194
▁ලජ්ජා	-11.1195
▁ඝාතනයට	-11.1195
▁මොනතරම්	-11.1196
▁ෂැ	-11.1197
ධාතු	-11.1198
▁හතු	-11.1198
බත්	-11.1199
සුදු	-11.12
යෙක්‌	-11.1202
සහගත	-11.1205
▁ඉවුර	-11.1207
▁ලසන්ත	-11.121
▁තොරතුරක්	-11.1212
▁කණගාටුව	-11.1214
▁ඉල්ලනවා	-11.1214
▁කාර්යක්ෂමතාව	-11.1214
▁සාකච්ඡුා	-11.1218
ඞ	-11.1218
▁බමුණ	-11.1218
▁සයුරි	-11.1219
▁මිනීමරු	-11.1222
▁නින්දා	-11.1226
▁දක්නා	-11.1228
▁හොයල	-11.1231
වාසීන්	-11.1234
▁කොහෙන්	-11.1235
▁සම්භවය	-11.1235
▁තාත්තයි	-11.1236
▁රාත්‍රි	-11.1237
▁බලපානවා	-11.1238
▁අධ්‍යාපනයට	-11.1241
සියානු	-11.1242
▁සිලි	-11.1242
▁ඇතිවීමට	-11.1248
වත්තේ	-11.1248
මුදු	-11.1251
▁තමුන්ගේ	-11.1252
▁ගණුදෙනු	-11.1252
සෙයි	-11.1253
▁කඩුව	-11.1253
▁කමින්	-11.1254
▁තුන්දෙනා	-11.1256
▁රජයක්	-11.1262
▁තිරිසන්	-11.1262
▁අධිකාරී	-11.1263
▁චිකන්	-11.1263
62	-11.1264
▁නංවා	-11.1266
▁අමතන්න	-11.1266
▁විදු	-11.1267
▁මැනව	-11.1268
▁ගම්මන්පිල	-11.1269
▁එපැයි	-11.1269
▁වරම්	-11.127
▁මුද්‍රා	-11.1271
▁අලෙවිකරණ	-11.1272
▁හෝරාව	-11.1275
▁විදියක්	-11.1276
දහස	-11.1276
▁කේතය	-11.1278
▁රොටි	-11.128
▁නිදන්	-11.1281
▁දේශයේ	-11.1282
▁ඉපදුන	-11.1283
▁විඤ්ඤාණය	-11.1283
▁ඉතාමත්ම	-11.1284
▁පැමිණිල්ල	-11.1284
▁විණි	-11.1285
▁බ්‍රසීල	-11.1287
▁බ්ලැක්	-11.1287
ලියන්	-11.1292
▁ද්‍රව	-11.1292
▁ලෝකයක්	-11.1294
▁නගරයක්	-11.1294
▁කවද	-11.1295
▁යාච්	-11.1296
තිලක	-11.1298
▁නතු	-11.1299
▁දන්නවාද	-11.13
▁දසුන	-11.1301
▁විකිපීඩියා	-11.1303
▁මගෙත්	-11.1304
▁සාප	-11.1304
▁නටන	-11.1306
ියක	-11.1309
▁දිනයකි	-11.1309
▁නිති	-11.1309
▁47	-11.1313
▁හාස්‍ය	-11.1313
▁ප්‍රතිමාව	-11.1315
▁කීපයක	-11.1315
▁බියක්	-11.1315
▁දෙනෙකුගේ	-11.1318
▁වැදීම	-11.1318
▁මුහුදට	-11.1319
▁දිළිඳු	-11.132
▁නීතියෙන්	-11.1321
▁සේයා	-11.1323
▁නුවන්	-11.1331
▁අණු	-11.1331
▁සම්මුතිය	-11.1331
▁අදහසයි	-11.1333
▁පදාර්ථ	-11.1334
▁සියලූම	-11.1336
▁ප්‍රාන්තයේ	-11.1336
▁කතානායක	-11.1336
▁එල්ටීටීඊ	-11.1338
▁ඇහුන	-11.1342
▁චීවර	-11.1345
▁ගන්	-11.1346
▁යාත්‍රා	-11.1347
▁කිට්ටුව	-11.1349
▁උං	-11.1349
▁ලුහු	-11.1354
▁ඇදුම	-11.1354
▁යතුර	-11.1354
▁ජෝර්ජ්	-11.1355
▁කාලසීමාව	-11.1355
▁මිනිසෙක්	-11.1355
▁විගණන	-11.1358
▁අරි	-11.1359
▁ස්කන්ධය	-11.1359
▁මෙතැනින්	-11.136
▁අවුරුද්දකට	-11.1363
▁ඉක්මනින්ම	-11.1363
▁අපිරිසිදු	-11.1363
▁සාකච්චා	-11.1363
▁කොලු	-11.1365
▁ස්ට්‍ර	-11.1366
▁පුවතක්	-11.1367
▁කලයුතු	-11.1368
38	-11.1368
▁මතකයක්	-11.137
ගන්ට	-11.137
වර්ණ	-11.137
▁සත්‍යයක්	-11.137
▁සන්ධාන	-11.1371
▁මවට	-11.1372
▁සිතුවේ	-11.1372
▁ප‍්‍රතිපත්ති	-11.1376
-2	-11.1379
ෝන	-11.138
▁ස්‌ථානය	-11.138
▁(3)	-11.1381
▁පිහිය	-11.1381
ග්න	-11.1386
▁කෙලි	-11.1387
▁වූවක්	-11.1388
▁නූල්	-11.1388
▁රාජ්ය	-11.1389
▁ඇල්ම	-11.1391
ඝෝෂ	-11.1392
▁සටනට	-11.1393
▁පිලිගන්න	-11.1393
▁ෆී	-11.14
ත්‍ථ	-11.1402
▁අයියෙ	-11.1402
▁දේවස්ථානය	-11.1402
▁බලාගාරය	-11.1403
▁මුත්ත	-11.1403
▁ක්‍රිස්තු	-11.1406
▁ද්වේෂ	-11.1407
▁නිර්දේශය	-11.1408
ඤ	-11.1411
▁මිදෙන්න	-11.1414
▁චොකලට්	-11.1415
▁තදබදය	-11.1415
▁සුඛෝපභෝගී	-11.1415
▁සහනාධාර	-11.1416
▁හඳුනන	-11.1417
▁සෘජුවම	-11.1419
▁පෙණ	-11.142
▁දොළ	-11.142
රතන	-11.1422
▁කවියා	-11.1422
▁පාසලක	-11.1422
▁ආගමක්	-11.1423
▁ඉන්ද්‍ර	-11.1423
▁සාධනය	-11.1427
▁ක්‍රමවේද	-11.1428
57	-11.1429
ගරු	-11.1431
▁පත්වීමට	-11.1432
▁කොහෙන්ද	-11.1432
▁ලෝකයා	-11.1432
▁උපශාන්ත	-11.1434
▁නිරීක්ෂණ	-11.1435
ලෑ	-11.1436
▁ජනනය	-11.1436
▁බුවා	-11.1437
ායතනය	-11.1439
▁පාරිභෝගිකයන්	-11.1441
▁පාප්	-11.1444
▁මුලා	-11.1447
▁ගයන	-11.1448
▁සිවුර	-11.1448
▁රජරට	-11.1448
▁දැනගත්ත	-11.1449
▁සීමාවක්	-11.145
▁තක්කාලි	-11.145
▁සම්මන්ත්‍රණ	-11.145
▁ව්‍යාකූල	-11.145
▁හතරේ	-11.1452
▁දක්වනවා	-11.1454
▁මදිවට	-11.1456
▁වාර්ෂිකව	-11.1457
▁නියාමනය	-11.1457
▁සෙබළුන්	-11.146
▁ප්‍රසංග	-11.146
▁දිලි	-11.1463
▁කරාවි	-11.1468
සුණු	-11.1468
▁හුවමාරුව	-11.1468
▁ප්‍රේත	-11.1468
▁ගුහාව	-11.1468
▁පැටියා	-11.1469
▁රවුම	-11.1477
▁පරමාර්ථය	-11.1481
▁නැත්තන්	-11.1484
▁මෙහෙයවීම	-11.1485
▁ඇලී	-11.1485
▁යාලුව	-11.1486
ාවි	-11.1488
▁ගතිමි	-11.1489
▁ගෙනෙන	-11.149
▁ඊලග	-11.1494
ශන්	-11.1497
▁සරම	-11.1497
▁තං	-11.1497
▁ගග	-11.1498
සිදු	-11.15
▁ලෝකයෙහි	-11.1501
▁උකු	-11.1501
▁නිර්භීත	-11.1503
▁අවධානම	-11.1503
▁පැයක්	-11.1505
▁සැලකුව	-11.1505
▁ගාථාව	-11.1506
ාලය	-11.151
▁ඕවර	-11.151
▁නිහතමානී	-11.1511
▁නැවැත්වීම	-11.1511
200	-11.1513
▁වර්ෂයේදී	-11.1516
▁විකිණීමට	-11.152
▁ශාස්තෘ	-11.152
52	-11.1526
▁අසලට	-11.1528
ාසන	-11.153
▁බුද්ධිමය	-11.153
▁උපාලි	-11.1531
ඉතින්	-11.1537
▁වීරසිංහ	-11.1541
▁ආරෝපණය	-11.1541
▁ස්වයංක්‍රීය	-11.1543
▁තුනී	-11.1545
▁ටියුෂන්	-11.1547
▁අක්කේ	-11.1547
▁ගින්දර	-11.1548
▁විකුන	-11.1548
▁හතරකට	-11.1553
▁අනිකුත්	-11.1554
▁පහක	-11.1555
▁බ්ලොගය	-11.1556
▁ක්ලාස්	-11.1557
42	-11.1557
▁අතරමං	-11.1559
▁මාතෘ	-11.1561
▁සමහරුන්ට	-11.1563
▁පැරද	-11.1563
▁මැරි	-11.1565
ාපනය	-11.1565
▁නොලැබේ	-11.1566
මිල	-11.1566
▁අධ්‍යක්ෂවරයා	-11.1566
▁සුල	-11.1569
59	-11.1572
සිංහල	-11.1573
▁වේදිකාවට	-11.1574
මාර්	-11.158
ෆ්‍ර	-11.158
▁රේගු	-11.1581
▁භික්ඛු	-11.1582
▁උපහාස	-11.1582
▁සාප්පුව	-11.1582
▁විප්ලව	-11.1584
▁හම්බු	-11.1585
▁බලද්දී	-11.1585
ෙහිදී	-11.1585
▁44	-11.1586
▁භේදය	-11.1586
▁තතු	-11.159
▁ආභරණ	-11.159
▁සේදීම	-11.1592
▁මව්වරුන්	-11.1593
▁සවාරි	-11.1593
ච්චිය	-11.1594
▁හ්ම්	-11.1596
▁පෙන්නලා	-11.1596
▁පල්ලියේ	-11.1599
▁ඉඳන්ම	-11.1601
ායතන	-11.1601
▁බෙහෙත	-11.1602
▁නොවුන	-11.1602
▁හිතුවක්කාර	-11.1603
▁දඬු	-11.1604
▁වික‍්‍රමසිංහ	-11.1608
▁ගෘහස්ථ	-11.1609
▁ආශිර්වාදය	-11.1609
▁බහා	-11.1609
▁දැනගැනීම	-11.161
▁ගවේෂණ	-11.161
▁පිළියම්	-11.1611
▁ජනාධිපතිවරණ	-11.1613
▁තක්සේරු	-11.1614
▁චේතනාව	-11.1614
පුරා	-11.1616
▁වෝල්	-11.1616
▁ශ්‍රවණ	-11.1618
▁දාගැබ	-11.1618
▁ප්‍රියන්ත	-11.162
▁කෙනකුට	-11.1623
පිටි	-11.1623
▁අම්මගෙ	-11.1623
ිළි	-11.1626
▁පැහැයෙන්	-11.1626
▁අඩවියක්	-11.1627
▁පෙත්ත	-11.1627
▁අවශ්‍යතාවයක්	-11.1628
▁ලක්ෂයක්	-11.1629
ගුව	-11.1634
▁සම්භා	-11.1634
තිකා	-11.1634
▁සමාදන්	-11.1635
▁කවියක්	-11.1635
▁ග්‍රහලෝක	-11.1635
▁ඇහෙන	-11.1638
▁යතුරුපැදි	-11.1644
▁තොපි	-11.1644
▁කණ්ඩ	-11.1646
▁ප්‍රධානීන්	-11.1648
▁ඇමෙරිකන්	-11.1652
▁පරිණත	-11.1653
▁කට්ටියට	-11.1657
▁පෑම	-11.1659
▁කාරිය	-11.166
▁බෙදාහැරීම	-11.1661
▁පැනවීම	-11.1668
▁ශිල්පිනියක්	-11.1669
▁ශල්‍ය	-11.167
▁කෙටිකතා	-11.167
▁විද්‍ය	-11.167
▁සරිලන	-11.1671
▁අවුරුද්දට	-11.1675
▁කොතෙක්	-11.1675
▁වත	-11.1677
▁නැවැත	-11.1677
▁ත්‍රිවිධ	-11.168
මොන	-11.168
▁තිබියදීත්	-11.1681
▁ස්ථානාධිපති	-11.1682
▁ශිල්පි	-11.1683
පාලන	-11.1685
▁පැවැසීය	-11.1688
▁කෙළින්	-11.1688
▁ඡන්දෙ	-11.1688
▁ඉස	-11.1691
77	-11.1691
▁1990	-11.1692
▁නොදක්	-11.1692
▁වසන්තය	-11.1695
▁පැහැදී	-11.1695
▁කෑමක්	-11.1698
▁පොළොවේ	-11.1703
▁රුප	-11.1708
▁පරී	-11.1708
▁වලව්ව	-11.1709
▁ශෝ	-11.1709
▁දූවිලි	-11.1716
▁පළමුවැනි	-11.1717
▁ජීවිතයෙන්	-11.1718
නාත්මක	-11.172
▁හිමියන්ට	-11.172
▁දැල	-11.1721
▁එපිට	-11.1721
▁39	-11.1722
▁දේවි	-11.1724
▁මව්පියන්	-11.1725
▁ගණන්වල	-11.1727
▁ජයරත්න	-11.1727
▁ආසියාව	-11.1729
▁අපෝ	-11.173
▁සත්ත	-11.1732
▁ව්‍යා	-11.1736
▁සන්ධානයේ	-11.1736
▁නොතිබුණ	-11.1738
▁මියුසික්	-11.1742
▁එකග	-11.1743
▁දුන්නොත්	-11.1744
▁අං	-11.1746
▁ගෙය	-11.1748
▁විවෘතව	-11.175
▁කුර්ආනය	-11.1751
▁ලමයි	-11.1751
ජ්‍ය	-11.1753
▁ඔසප්	-11.1755
▁ජයග‍්‍රහණය	-11.176
▁සාක්ෂිය	-11.176
▁සියල්ලෝම	-11.1761
▁පාකිස්තානය	-11.1761
▁නිදන	-11.1763
▁ඉස්කෝල	-11.1764
▁විපක්‍ෂය	-11.1765
▁රණ්ඩු	-11.1765
▁එකඟතාව	-11.1766
▁ගෙනාවේ	-11.1768
▁කීකරු	-11.177
▁කාරයෙක්	-11.1773
▁අක්මාව	-11.1778
▁අලාභ	-11.1779
▁ත්‍රස්තවාදී	-11.1781
▁ෆුල්	-11.1782
▁අයියෝ	-11.1784
▁රවුම්	-11.1786
▁පවතියි	-11.1787
▁ලාභදායී	-11.1788
▁රංගනයට	-11.1789
▁මූන	-11.179
හිමි	-11.179
▁ගඩොල්	-11.1792
මුල	-11.1793
▁තෙතමනය	-11.1796
▁කුරුල්ලන්	-11.1796
▁කජු	-11.1797
වන්නා	-11.18
▁පෙන්නුව	-11.1802
▁සිද්ධීන්	-11.1804
▁බැතිමතුන්	-11.1805
▁නොහිත	-11.1806
▁සලකුණ	-11.1806
▁එකතුවක්	-11.1806
ධනය	-11.1806
▁විස්වාස	-11.1807
ලෝකය	-11.181
▁දායකත්වයක්	-11.1812
▁කඳුකර	-11.1813
▁රාමු	-11.1813
66	-11.1814
▁ඩොක්ටර්	-11.1814
▁ස්ත්‍රීන්	-11.1814
▁මැතිවරණයක්	-11.1814
▁නැගලා	-11.1817
▁හැත්තෑ	-11.1823
63	-11.1824
▁ආවේය	-11.1824
▁තත්ත්වයක	-11.1825
▁මරන	-11.1826
සුළු	-11.1831
▁වයර්	-11.1831
පාදන	-11.1833
ගැනීම්	-11.1836
▁සෙවීමට	-11.1836
▁උවදුර	-11.1839
▁පිවිසෙන	-11.1841
▁සබැඳිය	-11.1842
▁ඡායාරූපයක්	-11.1843
▁රෝල්	-11.1844
▁තුවක්කුව	-11.1844
▁සාධාරණය	-11.1846
▁එනමුත්	-11.1847
▁දුටුවා	-11.1849
▁ජනප්රිය	-11.185
▁සිරිත්	-11.1852
▁පළකර	-11.1852
▁නවතින්න	-11.1855
▁ශිල්පියෙක්	-11.1858
▁ආධුනික	-11.1859
▁බඳින	-11.186
▁බෙලි	-11.1861
▁වරෙක	-11.1863
▁සිසිල	-11.1863
▁හිසරදය	-11.1868
▁රූපයක්	-11.1872
▁ඔරලෝසුව	-11.1874
▁තිබුනි	-11.1877
▁ධනේශ්වර	-11.1877
▁මාධ්‍යයට	-11.1877
▁යුද්ධයට	-11.188
▁ලැජ්ජා	-11.188
▁දැනුනා	-11.1882
▁2001	-11.1882
එම	-11.1882
▁යාළුවා	-11.1884
▁උන්දැ	-11.1885
දැකීම	-11.1885
ුහු	-11.1886
කරනු	-11.1887
▁ඇවිදීම	-11.1889
කරපු	-11.189
▁එයාර්	-11.189
▁පාඩුවක්	-11.1897
▁ජන්ද	-11.1898
▁ජනාධිපතිවරණයට	-11.1905
▁දැක්වු	-11.1906
▁අනුන්ට	-11.1906
▁තාත්තාගේ	-11.1908
▁ප්ලා	-11.1909
▁කනගාටුව	-11.1911
හිටි	-11.1911
▁ප්‍රදේශයක්	-11.1912
▁පිළියෙල	-11.1914
▁පරිද්දෙන්	-11.1914
▁බාගයක්	-11.1914
▁ඇසින්	-11.1915
▁තැනීම	-11.1918
ස්කන්ධය	-11.1919
▁සුලභ	-11.192
▁වට්ට	-11.1921
▁අමරදේව	-11.1923
▁තරං	-11.1925
▁සිදුකල	-11.1925
තුමාගේ	-11.1925
▁කටුනායක	-11.1926
▁දාස	-11.1927
▁ඉවසා	-11.1928
▁ප‍්‍රමාණයක්	-11.193
▁බදා	-11.1934
▁බෝඩිම	-11.1934
▁අව්ව	-11.1934
▁පිස්සුව	-11.1935
▁සිං	-11.1938
ධ්‍යා	-11.1938
▁අනුකූලව	-11.1939
▁එක්වීම	-11.194
▁සිහිනයක්	-11.194
සෑ	-11.1946
▁නොකොට	-11.1947
▁නිලධාරියෙක්	-11.1948
▁නස	-11.1948
▁සංඛ	-11.1949
▁උපදේශන	-11.195
▁සංචිත	-11.1951
▁වරම	-11.1954
ංජි	-11.1955
▁බුධ	-11.1957
▁කොවිඞ්	-11.1959
▁බිරිද	-11.196
▁ප්‍රචණ්ඩත්වය	-11.196
▁ශීල	-11.1962
▁එයාලගේ	-11.1964
▁අතිරික්ත	-11.1968
▁දොළොස්	-11.1969
▁මැජික්	-11.1969
▁පිටවීම	-11.1976
ක්‍ෂණ	-11.1977
▁සාදරයෙන්	-11.1978
48	-11.1981
▁තරයේ	-11.1982
▁පතිත	-11.1983
▁සැලැස්මක්	-11.1983
▁ගම්වල	-11.1983
ාකාරයෙන්	-11.1986
▁ශ්‍රම	-11.1989
▁ගහක්	-11.199
▁කම්බි	-11.1991
▁විවේකය	-11.1993
▁පත්‍රිකාව	-11.1993
▁ධර්‍ම	-11.1993
▁රජා	-11.1996
▁විමසන්න	-11.1997
▁2002	-11.1997
▁චතුරංග	-11.1997
▁අපරාධකරුවන්	-11.1999
▁උල	-11.2001
▁මැරීම	-11.2002
භූ	-11.2002
▁භට	-11.2003
▁වැල්ල	-11.2004
▁දෙවියෝ	-11.2005
▁තීව්‍ර	-11.2005
▁නඟා	-11.2005
▁ළිඳ	-11.2005
▁කැක්කුම	-11.2006
▁චාමර	-11.2007
▁යාළුව	-11.2008
▁මේජර්	-11.2008
▁චො	-11.2008
▁ශිල්පිනිය	-11.2009
▁විදි	-11.2009
▁දමනු	-11.201
කීර්ති	-11.201
▁නොසන්සුන්	-11.2014
▁නාට්‍යයක්	-11.2015
▁පිළිකුල්	-11.2015
▁වහලා	-11.2021
ාධාර	-11.2023
▁නිර්මාණශීලී	-11.2023
▁කාදිනල්	-11.2024
▁වස්තුවක්	-11.2025
▁තත්ව	-11.2027
▁චෙක්	-11.2028
රියානු	-11.203
▁නායකයකු	-11.203
▁ඉඳලම	-11.2031
▁නිශාන්ත	-11.2032
▁සිතුවම	-11.2032
ශ්ච	-11.2034
තෙර	-11.2034
▁විදිහක්	-11.2035
▁මොන්	-11.2035
▁උන්වහන්සේට	-11.2036
ගමනය	-11.2036
▁තනිකරම	-11.2037
▁ඉලෙක්ට්‍රොනික	-11.2042
▁සිස්ටම්	-11.2042
▁සෙමෙන්	-11.2042
▁යුගයක	-11.2047
▁ගසන	-11.205
▁අභාවය	-11.2051
▁අර්බුදයක්	-11.2058
▁දුකින්	-11.206
▁මොහොමඩ්	-11.206
▁සමගාමීව	-11.2061
▁ගෙනාවා	-11.2061
▁තත්ත්වයෙන්	-11.2061
▁යුක්ති	-11.2061
▁කෘෂිකර්මාන්තය	-11.2061
▁විද්‍යාඥයින්	-11.2063
ද්‍රි	-11.2063
▁කළමනාකරු	-11.2064
▁ජයග්‍රහණයක්	-11.2065
▁ඉල්ලූ	-11.2065
▁පත්වුණා	-11.2067
▁ෆයි	-11.2069
▁ස්වභාවයක්	-11.2069
▁ප්‍රචණ්ඩ	-11.2069
▁දේශගුණික	-11.2071
▁කුශල	-11.2072
▁අවශ්‍යතාවක්	-11.2074
▁මනුෂ්‍යයා	-11.2078
▁රජවරුන්	-11.2081
▁ගිල්	-11.2084
▁හම්	-11.2086
▁වායුගෝලය	-11.2088
▁ගබ්සා	-11.2088
▁සිදුවෙයි	-11.2089
▁මාතලේ	-11.2089
කෙරෙන	-11.209
▁පන්දුවට	-11.209
▁කෙලෙස	-11.2091
▁අධ්‍ය	-11.2092
▁විසිතුරු	-11.2094
▁විස්සයි	-11.2094
පල්ල	-11.2096
▁ජෝති	-11.2098
▁ඉබේම	-11.2098
ගත්තෙ	-11.2099
▁පිපාස	-11.2099
▁ණ	-11.2099
▁කුමක්‌	-11.2099
▁ඕස්ට්‍රේලියාවේ	-11.21
▁සාම්පල	-11.2108
▁නළුවෙක්	-11.2109
කූල	-11.2109
▁පටිය	-11.2114
▁චන්දන	-11.2114
▁හදවතේ	-11.2119
▁වළඳ	-11.2124
▁බි‍්‍රතාන්‍ය	-11.2125
▁යාබද	-11.2126
▁මිහිඳු	-11.2127
වෙද්දී	-11.2128
▁දානව	-11.2129
ෂෙ	-11.2131
ුනොත්	-11.2133
▁මුද්‍රණ	-11.2134
▁බැරෑරුම්	-11.2135
▁෴	-11.2136
▁පළමුවෙන්ම	-11.2136
▁සක්‍රිය	-11.2136
▁පදක්කම	-11.2137
▁ජීවී	-11.2137
▁අධිකාරියේ	-11.2139
එයා	-11.214
▁නිව්ස්	-11.2144
▁තැපෑල	-11.2144
▁දමයි	-11.2146
▁ශිෂ්ට	-11.2146
▁මොරටුව	-11.2146
▁සිදුවීමට	-11.2147
▁ථ	-11.2149
▁ඇමෙරිකා	-11.2152
▁බස්සා	-11.2153
▁අපරාධයක්	-11.2157
▁සංවිධානයක්	-11.2158
ට්‍රො	-11.2158
▁රජ්ජුරුවන්	-11.2159
▁ලන්දේසි	-11.2163
▁චෝදනාවක්	-11.2163
▁එක්කර	-11.2165
▁සම්බන්ධතාවයක්	-11.2166
▁භෝග	-11.2167
ායු	-11.2168
▁වැටෙන්නේ	-11.2168
▁ජලයේ	-11.217
▁මිතුරෙකු	-11.217
▁නියු	-11.2171
▁භාරත	-11.2171
▁බයිසිකලය	-11.2172
▁පුත්තලම	-11.2172
▁කදී	-11.2173
▁සංරක්ෂණ	-11.2173
▁මැතිවරණයෙන්	-11.2174
▁විමුක්තිය	-11.2174
▁ඉල්ලුම්	-11.2178
▁ගිවිසුමක්	-11.2179
මාර්ග	-11.2179
හළ	-11.2182
▁වරදවා	-11.2182
▁කාර්යභාරයක්	-11.2185
▁වඩන	-11.2186
▁රාගය	-11.2187
▁කලාපීය	-11.2187
▁අයියලා	-11.219
▁ක්රියාවලිය	-11.2191
▁ඉඳහිට	-11.2191
▁ඌරු	-11.2191
▁අපේක්‍ෂක	-11.2193
▁සහෝදරියන්	-11.2194
▁ලක්වීම	-11.2194
▁ආදරෙන්	-11.2194
▁ප්රදේශ	-11.2195
▁අරුත්	-11.2201
▁මහත්වරු	-11.2201
▁හැමවිටම	-11.2201
▁පැවැත්මට	-11.2203
▁ලෙව	-11.2204
▁උගන්න	-11.2206
▁පිළ	-11.2206
ල්ටන්	-11.2206
▁පරම්පරාවේ	-11.2207
▁අයියට	-11.2207
▁ජනාවාස	-11.221
▁මැරිලා	-11.221
▁සහතිකයක්	-11.2214
▁දොරවල්	-11.2214
▁සියලුදෙනා	-11.2216
▁උත්පත්ති	-11.2221
▁ගොන්න	-11.2221
▁දයාසිරි	-11.2221
තැන්න	-11.2221
▁ඔන්	-11.2224
▁ආසාවක්	-11.2228
▁නන්	-11.2229
▁සලසයි	-11.2229
▁සාධනීය	-11.223
▁ගැනිම	-11.223
▁පරිශීලකයන්	-11.223
▁දීප්ති	-11.2233
▁ආරක්ෂාවට	-11.2233
▁මසකට	-11.2233
▁අධ්‍යාපනයේ	-11.2233
▁බලන්නෙ	-11.2235
▁පුළු	-11.2241
▁විරු	-11.2243
▁විනාශයට	-11.2246
▁කස්ටිය	-11.2248
▁41	-11.225
▁ආරංචිය	-11.2251
▁හැසිරවීම	-11.2251
▁පෙන්වන්නේ	-11.2253
▁ක්‍රියාවලියක්	-11.2257
▁හීනයක්	-11.2258
▁1978	-11.2259
▁පන්සලට	-11.2259
▁ව්‍යවස්ථාදායක	-11.2259
▁කුරුටු	-11.2261
▁කූඩ	-11.2263
▁මෙල	-11.2263
▁යෝජිත	-11.2267
▁සෙබළ	-11.2267
ධුර	-11.2269
▁නිවසින්	-11.2269
▁නිරා	-11.227
▁ඇත්දැයි	-11.2271
▁සකල	-11.2275
▁දුරකට	-11.2275
දීප	-11.2283
▁අප්‍රිකාවේ	-11.2284
▁උපන්දිනය	-11.2284
▁ක්රියාත්මක	-11.2286
▁හවසට	-11.2287
ෙසු	-11.2288
▁සමානයි	-11.2288
▁ගලන	-11.229
▁දුකයි	-11.2291
▁නාසා	-11.2292
▁අමන	-11.2295
▁නිර්වචනය	-11.2295
▁උපුල්	-11.2295
▁කතාකරන	-11.2296
▁පිළියම	-11.2297
▁ගතයුතු	-11.2297
▁කොතන	-11.23
▁කඹ	-11.2301
▁ඉල්ලන්නේ	-11.2301
▁සටනක්	-11.2303
▁කවුළුව	-11.2303
▁සිඳ	-11.2306
▁ලේබල්	-11.2307
▁කෙලවර	-11.2308
▁යොදන්න	-11.231
▁ගැටීම	-11.2313
▁පුද්ගලයන්ගේ	-11.2313
▁පුවරු	-11.2315
▁අපොයි	-11.2315
▁විරෝධයක්	-11.2318
▁ඇමතිවරු	-11.232
▁කරගත්තේ	-11.2321
▁සෝවාන්	-11.2323
▁දෙයියනේ	-11.2324
▁උත්තරේ	-11.2324
▁නර්තනය	-11.2325
▁ගුණසේකර	-11.2326
▁තැටි	-11.2326
▁නගරාධිපති	-11.2326
▁කෘතියේ	-11.2328
▁ඉසුරු	-11.2328
▁මොනාද	-11.2329
▁ගියෙමි	-11.233
▁බෝතලය	-11.2334
▁තිලක	-11.2334
ඳී	-11.2335
▁පෙන්නුවා	-11.2335
▁හොදටම	-11.2336
▁සේවකයා	-11.2336
▁ප්‍රතිශතයක්	-11.2336
▁තුනේ	-11.2337
▁පහළින්	-11.2337
▁ලාල්	-11.2337
තාප	-11.2341
▁ඇස්තමේන්තු	-11.2342
▁යෙදිය	-11.2344
▁පාලිත	-11.2345
▁ත‍්‍රස්ත	-11.2346
▁අතුල	-11.2346
▁පංතියේ	-11.2347
▁නැතිවීම	-11.2347
▁සොර	-11.2348
▁මධ්‍යස්ථානයේ	-11.2348
▁යෙදවීම	-11.2349
▁තාපය	-11.235
▁පසින්	-11.235
භෝග	-11.2351
▁අවතීර්ණ	-11.2352
▁පරිපථ	-11.2352
▁කොහෙත්ම	-11.2352
▁විඳීම	-11.2352
▁කලාත්මක	-11.2353
▁හබ	-11.2354
දෙස	-11.2358
▁රාළ	-11.236
▁ගෞරවයක්	-11.2362
▁රැකීම	-11.2364
▁කම්පන	-11.2364
▁හිටියොත්	-11.2366
▁ප්‍රදර්ශන	-11.2367
ඤ්ජ	-11.2367
▁ගැසී	-11.2367
▁ශිෂේණය	-11.2371
▁මහරගම	-11.2371
▁සුප්	-11.2372
▁සහනය	-11.2375
▁මහේෂ්	-11.2376
වුස්	-11.2377
47	-11.2377
▁කප්	-11.2378
▁සාකච්ඡාවට	-11.2379
▁අවුස්ස	-11.238
▁හාමුදුරුවරු	-11.2382
▁මඩුව	-11.2382
▁1977	-11.2384
▁වෑයම	-11.2384
සමා	-11.2384
▁එද්දී	-11.2385
▁අහස්	-11.2386
▁දෙමු	-11.2386
▁භාගයක්	-11.2387
▁පසුබිමක	-11.2387
▁සොය	-11.2388
▁ඉංග්‍රීසියෙන්	-11.2389
▁කණ්‌ඩායම	-11.239
▁ඇලි	-11.239
▁නොලැබීම	-11.2391
▁කුළු	-11.2393
▁මනුෂ්‍යයන්	-11.2393
ධාර	-11.2395
▁බ්‍රිතාන්‍යය	-11.2398
සිල්	-11.24
▁පතනවා	-11.2401
▁කෙළින්ම	-11.2404
ජාතික	-11.2405
ානුකූල	-11.2406
ගිරිය	-11.2409
▁සලකනු	-11.2411
▁කැලණිය	-11.2413
▁උපරිමයෙන්	-11.2416
න්නෙමි	-11.2417
▁හිටගෙන	-11.2418
▁තිරසාර	-11.2421
▁අවසන	-11.2422
▁පෙන්වූ	-11.2424
▁ප්‍රවර්ධන	-11.2427
▁රටවලින්	-11.2428
▁1994	-11.2431
▁භවත්	-11.2431
▁කාලයෙහි	-11.2434
▁නොදත්	-11.2435
▁ශනි	-11.2436
▁උන්නැහේ	-11.2438
▁කඩන්න	-11.2439
▁අදහන	-11.2439
▁එතැනදී	-11.2439
▁පාක්ෂික	-11.2441
▁එච්චරයි	-11.2442
▁කබල	-11.2442
▁ලියන්නෙ	-11.2444
▁සේවනය	-11.2445
▁නර	-11.2445
▁ඊළග	-11.2447
▁වාක්‍යය	-11.2449
ියර්	-11.2449
▁ඇඳන්	-11.2451
▁කොටින්	-11.2452
▁එකපාර	-11.2453
▁විස්සක්	-11.2455
▁ගතවන	-11.2455
▁හැලප	-11.2456
▁සත්වයන්	-11.2456
▁නිවේදනයක්	-11.2456
▁‍රැ	-11.2461
▁නමි	-11.2462
▁අපමණ	-11.2462
▁විදහා	-11.2463
▁කණුව	-11.2465
▁පටක	-11.2466
ඥාව	-11.2466
▁ශිෂ්‍යයන්	-11.2466
▁46	-11.2467
▁බංග්ලාදේශය	-11.2467
▁ටියු	-11.247
▁අනුරූප	-11.2472
▁හ්ම්ම්	-11.2472
▁කතාවකි	-11.2473
▁දරයි	-11.2475
▁අපේක්‍ෂා	-11.2475
▁මාවතේ	-11.2477
▁පැකේජය	-11.2478
▁රඟපා	-11.2478
▁ආධාරයෙන්	-11.2479
▁සුලබ	-11.2481
▁කාර්‍ය	-11.2483
▁වදින්න	-11.2484
▁ප්‍රතිවිරුද්ධ	-11.2486
▁ගමනාන්තය	-11.249
▁මතුවන	-11.2491
▁සීලය	-11.2491
▁විසඳීමට	-11.2492
මුන්	-11.2492
▁නිදහසක්	-11.2493
▁බුද්ධිමතුන්	-11.2496
▁ප්‍රතිසංස්කරණය	-11.2496
▁බළකාය	-11.2497
▁කිරිබත්	-11.2498
▁ප්‍රාග්ධනය	-11.2499
▁සිත්ගන්නා	-11.25
▁පුහුණුවක්	-11.2501
▁දොඩම්	-11.2501
▁හදුන්වන	-11.2501
▁බැම්ම	-11.2504
▁(4)	-11.2505
▁විමසූ	-11.2507
▁නිලධාරියකු	-11.2507
▁ගසක්	-11.2509
▁තායිලන්තය	-11.251
▁3/	-11.251
▁කෘතිම	-11.251
▁56	-11.2513
▁නිර්මානය	-11.2513
නීති	-11.2514
▁ඇත්තාවූ	-11.2515
▁පන්දුවාර	-11.2516
▁දැක්මක්	-11.2517
▁එකසිය	-11.252
▁සමාවෙන්න	-11.2523
▁ස්ථවිරයන්	-11.2523
▁බෝධිය	-11.2524
▁මගී	-11.2528
▁මිනිසකු	-11.2534
▁හැරෙන්න	-11.2535
▁ජනරජය	-11.2535
▁හැරිලා	-11.2536
▁ඛණ්ඩ	-11.2539
▁විදින්න	-11.2545
▁පහළොව	-11.2546
▁පිපි	-11.2549
▁බැඳුණු	-11.2549
▁හැදෑර	-11.255
▁අනූව	-11.2554
▁සහෝදරයන්	-11.2558
▁ශිව	-11.256
▁කෙබඳු	-11.2563
▁හොරකම	-11.2564
▁වනවිටත්	-11.2565
මාල	-11.2565
▁නොපැමිණ	-11.2566
▁කම්ම	-11.2567
92	-11.2568
ුවෙන්	-11.257
▁ඇමරිකාවට	-11.257
▁පොල්ල	-11.2573
▁කැණීම්	-11.2574
▁ලක්විය	-11.2577
▁සංජීව	-11.258
▁අවන්හල	-11.2581
▁වෙළඳපොලේ	-11.2583
▁කෘත්‍රිම	-11.2583
▁අනුකම්පා	-11.2587
▁පාළු	-11.2589
▁රිද්මය	-11.2589
▁පැහැරගෙන	-11.2591
▁රැසක	-11.2592
ඔවුන්	-11.2594
▁දියුණුවට	-11.2595
▁ලැයිස්තුගත	-11.2596
▁වගයක්	-11.2597
▁සංචාර	-11.2599
▁සිමෙන්ති	-11.2602
▁තුවා	-11.2603
▁ගානෙ	-11.2604
ඳුරු	-11.2606
▁පැත්තක්	-11.2607
▁දිනූ	-11.2608
▁සේවාදායකය	-11.2608
▁පුන්	-11.2609
▁බයිට්	-11.261
ෆො	-11.261
▁කට්ටලය	-11.261
▁රොබට්	-11.2613
▁පිටිපස්සෙ	-11.2613
▁ගමක	-11.2616
▁අවනත	-11.2617
▁රැසකට	-11.2617
▁ඉල්ලුව	-11.2618
▁කැනඩාව	-11.2618
ගිනි	-11.2619
▁උපකරණය	-11.2621
▁දස්කම්	-11.2623
කලේ	-11.2625
▁ගවුම	-11.2625
▁පටන්ගෙන	-11.2626
▁අපල	-11.2629
▁සියවස්	-11.263
▁අවධානයෙන්	-11.2631
▁නොසැල	-11.2631
ණෙනි	-11.2631
▁සිදුවුණා	-11.2632
44	-11.2635
▁වෛරස	-11.2637
▁එකහමාර	-11.2638
▁සුද්දන්	-11.2638
▁49	-11.2642
▁හුණු	-11.2645
▁මහත්වරුන්	-11.2646
▁ප්‍රතිමා	-11.2647
▁පදිංචිව	-11.2647
▁රක්ෂිත	-11.2649
ලාල්	-11.265
▁සලස්ව	-11.265
▁ගැස්ස	-11.2651
▁නිතිපතා	-11.2651
▁මුහම්මද්	-11.2651
▁බ්‍රහස්පතින්දා	-11.2651
▁විශේෂත්වයක්	-11.2652
54	-11.2654
▁වාසිදායක	-11.2654
▁පිපෙන	-11.2655
▁අපහසුතා	-11.2656
▁බුකිය	-11.2659
▁යෑමේ	-11.266
▁ආමන්ත්‍රණය	-11.2661
ඡ්	-11.2663
▁දෙසින්	-11.2667
▁ප‍්‍රතිකාර	-11.2667
▁සිරිපා	-11.267
▁අලුත්වැඩියා	-11.2671
▁ස්මාරක	-11.2671
▁මැලේසියාව	-11.2671
▁උමතු	-11.2674
▁හමාරය	-11.2677
▁නිර්ණය	-11.2678
▁මනාලිය	-11.2679
▁අයදුම්පත	-11.2681
▁බලගතු	-11.2681
▁තිළිණ	-11.2682
රාජා	-11.2682
▁විහිළුවක්	-11.2685
▁කුණාටුව	-11.2685
▁විඥානය	-11.2686
▁පිලිබද	-11.2686
▁බැටළු	-11.2687
▁හදාගත්ත	-11.2689
▁අවශෝෂණය	-11.2691
▁ජීප්	-11.2691
▁පදක්කම්	-11.2692
▁අන්තිමේදී	-11.2695
▁කෘතියක්	-11.2695
රීන්	-11.2695
▁පිරිහීම	-11.2695
▁සුළි	-11.2698
▁මුණගැහ	-11.2699
▁තොටුපල	-11.2701
▁අනවසර	-11.2702
▁ලක්දිව	-11.2702
▁විනෝදාංශ	-11.2703
▁ඉදිකරන	-11.2703
▁පලාත	-11.2704
▁වාට්ටුව	-11.2707
▁සතුන්ට	-11.271
▁පීඩන	-11.271
▁ස්වරය	-11.2711
▁කරුණානායක	-11.2712
▁ප්‍රංශයේ	-11.2716
▁බ්‍රිතාන්‍යයේ	-11.2717
▁දෙපළ	-11.2718
▁පක්ෂවල	-11.2719
▁මහේස්ත්‍රාත්	-11.272
▁මිනිහට	-11.2721
▁සංසිද්ධිය	-11.2721
තලාව	-11.2721
▁පමුණුව	-11.2722
▁බලකොටුව	-11.2723
▁සත්කාරක	-11.2723
▁බඳ	-11.2727
ල්ලන්	-11.2728
▁හඳුනාගත්	-11.2728
▁බින්දු	-11.2728
▁ශල්‍යකර්ම	-11.2731
▁ගලාගෙන	-11.2731
වුයේ	-11.2734
▁කපිල	-11.2734
▁ගැන්ම	-11.2734
▁උළෙලේ	-11.2735
▁ශාඛාව	-11.2735
▁සැපයුම්කරු	-11.2736
▁ගූ	-11.2737
▁භක්තිය	-11.2738
▁ඇදලා	-11.2738
▁නායකයෙකු	-11.2739
▁බනින	-11.2741
▁උල්පත	-11.2745
▁පැවැත්වු	-11.2746
▁ලිස්ස	-11.2747
▁චිත‍්‍රපටය	-11.2747
▁සමරන	-11.2748
▁පවති	-11.2749
▁ප්‍රතිරෝධය	-11.275
▁ඇත්තෙමු	-11.2752
▁ජලාශය	-11.2754
▁සීට්	-11.2756
▁ආධාරක	-11.2759
▁රෙගුලාසි	-11.276
▁නිරය	-11.2761
▁බස්ස	-11.2761
හුණු	-11.2763
▁පත්වන්නේ	-11.2763
වේවා	-11.2766
▁ලඟා	-11.2768
▁සොබා	-11.2768
▁සම්බ	-11.2768
▁පුරු	-11.277
▁පරාසයක	-11.277
▁සිද්දිය	-11.2771
▁නිවසේදී	-11.2774
▁ගැටලූ	-11.2775
▁භික්ෂුන්	-11.2776
41	-11.2777
▁වලක්වා	-11.2779
▁තොප්පි	-11.278
▁අනුබල	-11.2781
▁මිත්‍යා	-11.2782
▁පීටර්	-11.2783
ශාලා	-11.2787
ගසා	-11.279
▁කිව්වලු	-11.279
මාලාව	-11.2791
▁කෙළේය	-11.2793
▁මාලි	-11.2796
▁ආර්ථිකයේ	-11.2798
▁ඉබ්බ	-11.2799
▁කොන්ත්‍රාත්	-11.2799
▁පෙම්වතුන්	-11.28
නිකා	-11.2802
ියො	-11.2807
▁යම්සේ	-11.2808
▁කූර	-11.2809
▁කලහ	-11.2811
වහන්සේගේ	-11.2811
▁පළමුවැන්න	-11.2812
▁තරහා	-11.2813
▁කවු	-11.2813
▁තැනකින්	-11.2815
▁ටෙක්	-11.2819
▁රැකගන්න	-11.2819
▁ඇඹුල්	-11.282
▁නොයා	-11.2821
▁කඳවුරේ	-11.2822
▁කිමිද	-11.2827
▁සෞභාග්‍ය	-11.283
▁පෝස්ටුව	-11.283
▁නොපෙනේ	-11.283
▁ගැර	-11.283
▁අප්‍රමාණ	-11.2832
▁නිළියක්	-11.2836
▁මනසින්	-11.2837
▁සිදුවෙමින්	-11.2837
▁මගිනි	-11.2838
▁කාරණාවක්	-11.2838
▁දැමීමේ	-11.2839
▁ඕනෑවට	-11.284
▁ශෝකය	-11.2841
▁විෂයයන්	-11.2841
▁පෞරුෂය	-11.2841
▁මැද්දෙ	-11.2842
පරා	-11.2844
▁ඉපදුණ	-11.2845
▁2003	-11.2849
ත්ථි	-11.2855
▁රියැදුර	-11.2856
▁ගන්ඩ	-11.2859
▁මැදපෙරදිග	-11.286
▁නොකඩවා	-11.286
▁මිතුර	-11.2864
▁විශ්මය	-11.2865
▁සැලසුමක්	-11.2865
▁ක්ලෝ	-11.2866
▁ආරච්චි	-11.2868
‍්	-11.2869
▁නැවතුම්	-11.287
▁ප‍්‍රබල	-11.287
ිකාවක්	-11.2871
▁මන්දගාමී	-11.2873
▁හැදී	-11.2874
▁යුගල	-11.2876
▁පෙනීම	-11.2878
▁හැරෙන්නට	-11.2879
▁දොරටු	-11.2882
ස්තානය	-11.2882
▁පවස	-11.2884
▁කපටි	-11.2886
ාන්තර	-11.2886
▁පවතින්න	-11.2887
▁පටන්ගන්න	-11.2888
▁හන්දා	-11.2889
▁නායකත්වයෙන්	-11.289
▁අසලින්	-11.2894
▁එකඟයි	-11.2895
▁මසුන්	-11.2896
▁නියා	-11.2896
▁ක්රියාකාරී	-11.2897
▁සන්දර්භය	-11.29
▁යුතුකම්	-11.29
▁විසු	-11.2901
▁රණවිරු	-11.2902
▁නිලධාරියෙකු	-11.2903
▁සිංග	-11.2904
▁කීවොත්	-11.2907
ග්‍රී	-11.2909
▁ජනප‍්‍රිය	-11.291
▁මිනුම්	-11.291
▁ධනවාදී	-11.291
▁හාමිනේ	-11.2911
▁පානදුර	-11.2913
▁පීඨ	-11.2914
වෙකි	-11.2914
▁සකසන	-11.2914
▁අබි	-11.2915
▁නැගිට්ට	-11.2919
▁ඇලුමිනියම්	-11.292
▁දෙපාරක්	-11.2921
▁නිෂ්පාදකයින්	-11.2922
▁චාරිකා	-11.2922
▁කියුව	-11.2922
▁වායුව	-11.2928
▁ගේන	-11.2929
▁ස්ථීර	-11.2931
ග්‍රාහ	-11.2931
▁ජපාන	-11.2932
▁දයාව	-11.2934
▁1989	-11.2935
▁හිතෙනව	-11.2936
▁පාඨමාලා	-11.2936
▁පාතාලය	-11.2939
▁බසය	-11.2939
▁නිශ්ශබ්ද	-11.294
▁මැෂින්	-11.294
▁උපාධියක්	-11.2942
▁පිරවීම	-11.2942
▁ෂර්ට්	-11.2943
▁පෑන	-11.2943
▁මහත්තයාගේ	-11.2944
▁හීන්	-11.2946
▁වැද්ද	-11.2947
▁විනි	-11.2949
▁පළා	-11.2949
ශක්ති	-11.2949
▁ගොඩබිම	-11.295
▁අව්‍යාජ	-11.295
▁පොටෝ	-11.2951
▁උත්සන්න	-11.2951
▁බයිබලයේ	-11.2951
▁සාක්කි	-11.2952
▁ප‍්‍රමුඛ	-11.2952
දැන	-11.2956
▁නොදනිමි	-11.2957
▁රහසේ	-11.2958
ක්‍රියා	-11.2959
▁යටතට	-11.2962
▁අලුත	-11.2964
▁පින්වත	-11.2965
▁ඇරැ	-11.2969
▁නුමුත්	-11.2971
සති	-11.2971
▁නිම්නය	-11.2972
▁විදේශික	-11.2973
▁පිදුම්	-11.2975
▁දිසා	-11.2976
▁සසඳන	-11.2976
▁නිරුවත	-11.2977
▁වගකීමෙන්	-11.2978
▁නංගී	-11.2978
▁සිද්ධාන්ත	-11.2978
▁වසන්	-11.2978
▁අභිරුචි	-11.2981
▁ආශාවන්	-11.2982
▁ආදියෙන්	-11.2982
▁විරෝධතාව	-11.2984
▁බක්	-11.2984
▁සුරංගනා	-11.2987
43	-11.2991
▁රාජ්‍යයන්	-11.2992
ෙක්හි	-11.2994
▁පර්යේෂක	-11.2998
▁නිසැක	-11.2998
▁ලැබිණ	-11.2998
▁නොදනි	-11.2998
▁නටන්න	-11.2998
▁බලද්දි	-11.3
▁කව්රු	-11.3001
▁සෑදීමට	-11.3002
▁සහරාන්	-11.3002
▁ස්වරූපයෙන්	-11.3004
▁හැකිවීම	-11.3005
▁පුහුණුවීම්	-11.3006
▁ප්‍රහාරයෙන්	-11.3007
▁නොතිබූ	-11.3011
▁නුගේගොඩ	-11.3011
▁ප්‍රවාද	-11.3012
▁මව්බිම	-11.3013
▁සාර්	-11.3013
▁පසුබිමක්	-11.3019
▁කෙල්ලන්	-11.302
▁ඊර්ෂ්‍යා	-11.3021
▁පස්සට	-11.3023
▁සාමාජිකත්වය	-11.3026
▁හෙයකින්	-11.3027
▁තන්තරේ	-11.3032
▁ප්‍රථමයෙන්	-11.3037
▁භාජන	-11.3037
▁ලැයිස්තුවේ	-11.3037
▁ආදර්ශයක්	-11.3038
▁ඉදිරියෙහි	-11.304
▁නරක්	-11.304
▁තැබු	-11.3041
▁අංශයෙන්	-11.3041
▁සිහියට	-11.3041
▁පැවසේ	-11.3042
▁වෘක්ෂ	-11.3042
▁විස්මිත	-11.3042
▁ඇමැතිවරුන්	-11.3043
▁ව්‍යවහාර	-11.3043
▁ලබන්නට	-11.3046
ශ්වාස	-11.3048
▁බද	-11.3048
▁බාබ	-11.3049
▁තිබෙන්නට	-11.3049
▁සතෙක්	-11.3049
▁රජවරු	-11.3049
ෙය්	-11.3051
▁පත්කරන	-11.3051
▁ප්‍රඥා	-11.3052
▁ඩීසල්	-11.3056
▁සම්ප්‍රදායික	-11.3056
▁කිඹුල	-11.3057
▁මෑණියන්	-11.3058
▁කැද	-11.3058
▁පැවසෙන	-11.3062
:1	-11.3064
▁සිතෙහි	-11.3065
▁චන්ද්‍රයා	-11.3065
▁ජ්‍ය	-11.3066
▁කථ	-11.3067
▁වැළැක්වීමට	-11.3068
▁ස්ථරය	-11.3071
▁හිතනව	-11.3072
▁එළු	-11.3074
වුවද	-11.3077
▁නහර	-11.3077
▁නොසිතූ	-11.3078
▁නිරූපණ	-11.3079
▁තමිල්නාඩු	-11.3083
▁කථික	-11.3084
▁අසළ	-11.3088
▁මෙන්ඩා	-11.3089
ැළි	-11.3089
▁(18	-11.3094
▁නිවුන්	-11.3095
ගත්තොත්	-11.3095
▁සංකල්පයක්	-11.3098
▁අතරමග	-11.31
▁ධුරයට	-11.3101
▁උපදවා	-11.3102
▁දෙමාපිය	-11.3102
▁නැගි	-11.3103
▁ක්‍රීඩාංගණය	-11.3103
▁ස්නානය	-11.3103
▁පැරකුම්	-11.3103
▁ප්‍රගුණ	-11.3105
▁පරිගණකයේ	-11.3106
▁මැතිනිය	-11.3107
▁හිතකාමී	-11.3107
▁වනජීවී	-11.3107
▁පිටපතක්	-11.3113
46	-11.3113
▁නාලක	-11.3113
▁අර්තාපල්	-11.3114
▁නෛතික	-11.3114
▁ජීර්ණ	-11.3115
▁ඔබාමා	-11.3116
කල්ප	-11.3118
▁තේරුණ	-11.3121
▁පස්වරු	-11.3123
500	-11.3124
▁දෙදෙන	-11.3125
ජ්ජා	-11.3128
▁සතුටුදායක	-11.3129
▁මහිමය	-11.3129
▁ලයින්	-11.3129
▁දුන්නු	-11.3132
▁වෛද්‍යවරයෙකු	-11.3133
▁නැවැත්තුව	-11.3134
▁වාර්ථා	-11.3135
▁දිනකම	-11.3135
ගියා	-11.3135
▁සොයුරිය	-11.3136
▁නිෂ්පාදකයාගේ	-11.3138
▁හොරුන්	-11.314
▁බිහිවීම	-11.314
ටිව්	-11.3144
▁කොලේ	-11.3146
▁රාශි	-11.3146
ක්‍රී	-11.3147
ොති	-11.3148
▁ලක්වන	-11.3148
▁දිව්ව	-11.315
ොව්	-11.315
▁පිළිගන්නේ	-11.3151
▁අපේක්ෂකයන්	-11.3152
▁හටගන්නා	-11.3154
▁කුරිරු	-11.3155
▁කෝට්ටේ	-11.3156
▁ලීටර්	-11.3156
භූමි	-11.3156
▁වැඩවලට	-11.3158
▁මාලාවේ	-11.3159
▁කරගැනීමේ	-11.3162
▁ප්රශ්න	-11.3163
▁නිදිගෙ	-11.3164
▁හිඟයක්	-11.3165
▁නරි	-11.3166
▁ලෑ	-11.3166
▁වෛද්‍යවරයකු	-11.3166
▁කෑගල්ල	-11.3166
▁පසුතැව	-11.3167
▁එළියේ	-11.3167
▁රූපවාහිනි	-11.3169
▁හුත්ත	-11.3177
▁ගහන්නේ	-11.3178
▁ලිස්ට්	-11.3184
▁මොලේ	-11.3184
ම්බර්	-11.3184
▁කියවපු	-11.3185
▁තාර්කික	-11.3186
▁උත්පාදනය	-11.3186
▁තියෙද්දි	-11.3186
▁ජනගහනයෙන්	-11.3187
▁ලේසියි	-11.3191
චිත	-11.3193
/12,	-11.3197
▁අද්දර	-11.3197
▁මඟුල්	-11.3198
▁යාලු	-11.3201
▁තත්ත්වයකි	-11.3204
▁දුන්නත්	-11.3204
මාණය	-11.3204
▁ඉබේ	-11.3206
▁ගිණුමක්	-11.3206
▁ඕස්ට්‍රේලියානු	-11.3207
▁ප්‍රශ්ණය	-11.3208
▁දැනගැනීමට	-11.3209
▁රචිත	-11.3209
▁කැළඹ	-11.321
▁වැඩපිළිවෙල	-11.3215
▁සුරැක	-11.3215
▁ඖෂධීය	-11.3216
▁බේරෙන්න	-11.3217
▁සංක්‍රමණික	-11.3217
▁පිළිගැනීමක්	-11.3219
▁ලියනගේ	-11.3226
▁චෛත්‍යය	-11.3226
▁හපන්	-11.3229
▁බැලීමේදී	-11.3229
▁කිරිපිටි	-11.323
▁ඇතැම්විට	-11.323
▁ඔසු	-11.3232
▁වැරදී	-11.3234
ක්ෂන්	-11.3235
▁වර්ණවත්	-11.3236
▁දිලීර	-11.3238
▁විශේෂඥයන්	-11.3238
▁ජවනිකා	-11.3238
න්තං	-11.324
▁250	-11.3244
▁දියුණුවක්	-11.3249
▁නියෝජිතයින්	-11.3249
▁අවකාශයේ	-11.3251
▁ඇතිවන්නේ	-11.3254
▁අපූරුවට	-11.3254
▁එවක	-11.3255
91	-11.3255
▁ජාතිකවාදී	-11.3256
▁අඩිය	-11.3257
▁ඉස්ලාමය	-11.3259
ධාරි	-11.3259
රියෝ	-11.326
▁ආත	-11.326
▁බිහිවූ	-11.3266
▁පාඨකයන්	-11.3269
▁පලාත්	-11.3271
▁දනිති	-11.3271
▁එජාපයේ	-11.3273
▁ලැබේවි	-11.3273
▁බලපාන්නේ	-11.3273
▁සොරා	-11.3274
▁1960	-11.3275
විසි	-11.3276
▁පිරිනමන	-11.3277
▁අන්තවාදීන්	-11.3278
▁වෘත්තිකයන්	-11.3278
▁පිලිතුරු	-11.3279
▁සංසරණය	-11.328
▁නවාතැන	-11.328
▁දයානන්ද	-11.328
▁භංග	-11.3281
▁අඩේ	-11.3283
▁විපත්	-11.3284
▁සාරි	-11.3284
▁මෝර	-11.3285
බ්ලි	-11.3286
▁තාරකාව	-11.3287
▁හිල්	-11.3288
▁පවුලූශා	-11.329
▁ප්ලෑන්	-11.3291
▁චිත‍්‍ර	-11.3291
▁තිරි	-11.3292
▁ඉරාකය	-11.3294
වුවත්	-11.3294
▁ප්‍රයෝජනයක්	-11.3297
▁කේතු	-11.3298
▁සංදේශ	-11.3298
ලයින්	-11.3298
▁හිතුනේ	-11.3299
▁අභියෝගයට	-11.3299
▁සුනාමි	-11.33
▁සැලසීම	-11.3302
▁ටෝක්	-11.3303
වින්ද	-11.3304
▁ශාස්ත්‍රීය	-11.3305
▁මනසේ	-11.3305
වෙනු	-11.3307
චාරය	-11.3308
▁කමල්	-11.3311
▁යුක්රේන	-11.3311
▁කොහි	-11.3317
▁අභිබවා	-11.3321
ලෝන්	-11.3324
▁ආශා	-11.3325
ප්ස්	-11.3326
▁අඹු	-11.3326
▁නඟ	-11.3328
ට්ටිය	-11.333
▁වෙන්දේසි	-11.3332
▁වෙනුවෙනි	-11.3332
▁කියද්දී	-11.3333
ාදීන්	-11.3337
▁යැවූ	-11.3337
▁මෝදි	-11.3338
▁අමත	-11.3342
▁සම්බුදු	-11.3343
▁රෝගයෙන්	-11.3343
79	-11.3345
▁සිරිපාල	-11.3345
▁උත්සවයක්	-11.335
▁බිමන්	-11.3351
▁පිටුපසින්	-11.3351
▁ප්‍රයත්නය	-11.3353
නන්ද	-11.3356
▁කරවයි	-11.3357
▁තැනූ	-11.3358
▁සිදුවෙන	-11.3361
▁තාත්තලා	-11.3361
▁අපොහොසත්	-11.3363
▁ප්‍රතිශක්තිකරණ	-11.3363
▁දකුණට	-11.3366
▁තනතුරට	-11.3367
▁මිත්‍රයා	-11.3368
සම්පන්න	-11.3369
▁දඩයම	-11.337
▁ගොළු	-11.3372
▁අනුශාසනා	-11.3374
▁සරණාගත	-11.3374
▁නීතීඥ	-11.3374
▁මිණි	-11.3376
▁පැමිණිල්ලක්	-11.3377
පිර	-11.3377
▁මියයන	-11.3378
▁පතුර	-11.3384
▁අනාගතයක්	-11.3384
▁සංසර්ගය	-11.3385
▁දඹුල්ල	-11.3385
▁නිශ්	-11.3387
▁සැඟවුණු	-11.3389
▁ස්වර	-11.3391
▁කුකුල්	-11.3395
▁දියමන්ති	-11.3395
ලේඛන	-11.3397
වූවන්	-11.3398
▁පිහිටුව	-11.3398
ගස	-11.3404
▁77	-11.3405
▁පේ‍්‍රම	-11.3406
▁තොටුපළ	-11.3406
51	-11.3409
▁හේතුවන	-11.3409
▁කණු	-11.3414
▁විශ්වසනීය	-11.3416
▁හතළිස්	-11.3416
▁උවමනාවක්	-11.3418
▁යලිත්	-11.3418
▁හැඬ	-11.3418
▁උපවාසය	-11.3419
▁ඇමතුම	-11.342
▁මූලිකත්වය	-11.342
▁කට්	-11.3421
▁ධර්‍මය	-11.3421
▁කාලගුණය	-11.3421
▁දෙවිවරුන්	-11.3422
▁චාල්ස්	-11.3422
▁ජාතිකත්වය	-11.3423
▁බලං	-11.3423
▁වියුක්ත	-11.3424
▁රේස්	-11.3427
▁විඤ්ඤාණ	-11.3431
▁ළඟම	-11.3433
▁දන්නවනේ	-11.3434
▁වටේට	-11.3435
▁ගැටුමක්	-11.3437
ශාන්	-11.3437
▁අය්ය	-11.3438
▁විසඳන්න	-11.344
▁ජයතිලක	-11.3441
▁මාළිගාව	-11.3441
▁පිරිලා	-11.3442
▁සතුන්ගේ	-11.3442
56	-11.3443
▁සුරැකීම	-11.3443
කාරීත්වය	-11.3448
▁ප්රා	-11.3448
▁වයසින්	-11.3448
▁පසුකර	-11.3451
▁තියෙයි	-11.3454
▁භාණ්ඩයක්	-11.3457
▁තියනවද	-11.3458
▁කාරනා	-11.3458
▁කියැවේ	-11.346
▁බිළි	-11.3461
▁හෝටලයේ	-11.3461
මාලා	-11.3462
▁පාමුල	-11.3463
▁ශෛල	-11.3464
▁සහායක	-11.3465
▁පුරුෂයන්	-11.3467
▁ජාලා	-11.3467
▁ප‍්‍රා	-11.3469
▁විශාරද	-11.3469
▁ශිෂ්‍යාව	-11.3476
▁ක්ෂය	-11.3477
▁කොතැනක	-11.3479
▁ලාභයක්	-11.3479
▁අවිද්‍යාව	-11.3481
▁නියෝගයක්	-11.3482
▁විසඳීම	-11.3482
▁පෙලඹ	-11.3483
▁පරපුරට	-11.3485
▁ඇවි	-11.3485
▁තැනැත්තිය	-11.3487
ාගාරයේ	-11.3487
▁සූදානමින්	-11.3487
▁අම්මල	-11.3488
▁51	-11.3489
▁ප්‍රවාහය	-11.349
▁ස්ටේ	-11.3491
රිකා	-11.3492
▁පරිසරයක	-11.3492
▁කැරට්	-11.3498
▁ගෙනාපු	-11.3498
▁වඩින	-11.35
▁විශ්වාසදායක	-11.3501
▁අන්‍යයන්	-11.3505
▁ස්ටෝ	-11.3506
▁කියවූ	-11.3506
▁එතෙර	-11.3507
වේදය	-11.3508
▁ගෞතමයන්	-11.3511
▁පහුවදා	-11.3512
▁පොහොය	-11.3512
▁මැද්දේ	-11.3513
▁තත්වයකට	-11.3513
▁ලැජ්ජ	-11.3514
▁සවස්	-11.3515
▁බැලීමේ	-11.3517
▁දැරීම	-11.3518
▁මාසයකට	-11.352
▁කිහිපයකි	-11.3521
▁තන්තු	-11.3521
▁දරන්නේ	-11.3522
94	-11.3523
▁උත්තරීතර	-11.3523
▁සැලැස්	-11.3524
▁කොත්තු	-11.3525
▁පැටිය	-11.3528
ානුකූලව	-11.3528
▁ඉවසන්න	-11.3531
▁ධෛර්ය	-11.3533
▁සිනහ	-11.3533
▁පැවිද්ද	-11.3534
▁රචකයා	-11.3536
▁ඇඬ	-11.3536
▁රොකට්	-11.3537
▁උණ්ඩ	-11.3539
ගර	-11.3543
▁කැලණි	-11.3544
▁වැඩුණු	-11.3546
▁ගැටලූව	-11.3546
▁ලෙඩේ	-11.3547
▁ප්ලස්	-11.3548
▁කැනඩාවේ	-11.3549
▁අතවර	-11.3554
▁නියපොතු	-11.3555
▁අහන්නෙ	-11.3555
▁කඩිනම්	-11.3555
▁රාමනායක	-11.3557
▁යාවි	-11.3558
▁ජයසේකර	-11.356
▁අග්‍රාමාත්‍යවරය	-11.3565
▁තරුණයෙක්	-11.3566
▁සදාචාරාත්මක	-11.3567
▁පිටස්තර	-11.357
ර්‍ය්‍ය	-11.357
▁විසල්	-11.3571
▁පිරිමින්ට	-11.3572
▁යන්ඩ	-11.3574
▁සැලකිල්ල	-11.3574
▁කැපකිරීම	-11.3575
▁අස්ථාවර	-11.3577
▁සිතුව	-11.3577
▁ටයර්	-11.3577
▁පුතෙක්	-11.3577
▁ගැල්	-11.3578
▁ප්‍රතිරූපය	-11.3579
▁බැඳීම්	-11.3579
▁කියැවෙන්නේ	-11.3579
▁බලපායි	-11.3582
▁ඇවිල	-11.3582
සුලු	-11.3583
▁බේරගන්න	-11.3584
▁දන්නෙත්	-11.3585
▁නිවෙසේ	-11.3586
▁සේවිකාව	-11.3586
▁කඩල	-11.3587
▁කෙහෙල්	-11.3587
▁උයන්න	-11.3589
▁තේරෙන්නෙ	-11.3591
▁ලෙඩක්	-11.3593
▁ඇමැතිවරු	-11.3593
▁වෙන්නැති	-11.3594
▁කරුණාවෙන්	-11.3598
▁රැකබලා	-11.3598
▁කාර්යාංශය	-11.3599
අනු	-11.3602
▁සිනාව	-11.3604
▁සයිස්	-11.3607
ෝල්ට්	-11.3607
▁පීන	-11.3609
ක්ඛා	-11.361
▁මධුෂ්	-11.3611
▁අරවින්ද	-11.3614
▁මනුෂ්‍යත්වය	-11.3615
▁උද්‍යාන	-11.3615
▁වගබලා	-11.362
▁සහෘද	-11.362
▁ආප්ප	-11.3621
▁ඇරඹි	-11.3622
▁එකපාරටම	-11.3623
▁ධාර	-11.3623
▁ඥාණ	-11.3631
▁අඩක්	-11.3631
▁ට්‍රේ	-11.3632
▁ලැබීමෙන්	-11.3633
▁සරසවියේ	-11.3634
▁අවංකව	-11.3634
▁රජමහා	-11.3634
▁කටුව	-11.3636
ස්‍ර	-11.3636
▁පුනරුත්ථාපන	-11.3641
▁සම්භාවිතාව	-11.3641
95	-11.3642
▁පුස්තකාල	-11.3643
▁සහකාරිය	-11.3647
දැමීම	-11.3648
▁දැරුව	-11.3649
▁අධිරාජ්‍ය	-11.3651
ජින්	-11.3652
▁ලොතරැයි	-11.3652
▁ජයකොඩි	-11.3652
▁ඔටු	-11.3655
▁ආමි	-11.3661
▁ගෙනියන	-11.3662
▁ආශිර්වාද	-11.3662
▁ඔක්කෝම	-11.3663
▁මූර්ති	-11.3665
▁දඟලන	-11.3666
▁කැළණි	-11.3667
▁විසිරී	-11.3668
▁ඉල්ලුමක්	-11.3672
▁ත්‍රිකුණාමලය	-11.3672
▁සැරිසර	-11.3674
දහසක්	-11.3674
තුම්	-11.3676
▁හැකිවිය	-11.3679
▁ඔහෙ	-11.368
▁වැටේ	-11.368
▁පිරික්ස	-11.3681
ප්‍රති	-11.3682
▁නඩුවක්	-11.3684
බෙල්	-11.3684
▁ව්‍යාපෘතියේ	-11.3685
▁රැඩිකල්	-11.3685
▁සයුර	-11.3686
▁බන්ධනාගාරය	-11.3688
▁පුරාවටම	-11.3688
▁ලෝකයෙන්	-11.3689
/10	-11.369
▁වර්ගවල	-11.3692
▁සමීපතම	-11.3692
▁ඉරියව්	-11.3693
ඥයන්	-11.3694
▁සහජීවනය	-11.3696
▁දළු	-11.3696
▁ශීර්ෂ	-11.3696
▁ලේබලය	-11.3697
▁සොහොයුර	-11.37
▁තරඟකාරී	-11.37
▁ඇදෙන	-11.3704
▁සදහටම	-11.3707
ඩන	-11.3713
71	-11.3715
▁හෙදිය	-11.3717
▁කොන්ක්‍රීට්	-11.3718
▁සැණින්	-11.3718
▁ස්පර්ශය	-11.3721
▁බැලුවෙ	-11.3722
▁දුවගෙන	-11.3722
පිල	-11.3725
▁මෙහාට	-11.3726
▁ප‍්‍රතිචාර	-11.3727
▁වෙනදාට	-11.3728
▁සොයිසා	-11.3729
▁බාලිකා	-11.3729
▁වැතිර	-11.373
ට්‌ටු	-11.3733
▁ගෙනයාම	-11.3735
▁හදුන්	-11.3736
▁කිතුල්	-11.374
▁තුර්කිය	-11.374
▁කියෝ	-11.374
▁පිස්සුද	-11.3741
▁ආරම්භයේදී	-11.3741
▁පුජා	-11.3743
▁කොකා	-11.3743
▁පිවිසිය	-11.3746
▁කූඩු	-11.3746
▁පදිංචියට	-11.3747
▁දවසින්	-11.3747
▁කවුරුන්ද	-11.3748
▁තැබුවේ	-11.3748
ඇන්	-11.3748
▁නුඹේ	-11.3749
▁ගෙනැවිත්	-11.375
▁ඩොනල්ඩ්	-11.375
▁දේශප්‍රේමී	-11.375
▁සනිටුහන්	-11.375
▁තක්කඩි	-11.375
▁නිරාකරණය	-11.3752
▁සොහොයුරා	-11.3756
▁ගුරුවරයෙක්	-11.3756
▁පළමුවන	-11.3758
▁ඖෂධයක්	-11.3758
▁රෝහල්වල	-11.3759
▁තියන්නේ	-11.376
▁යුගයක්	-11.3761
▁මර්ධනය	-11.3762
▁දිට්ඨි	-11.3763
පතී	-11.3765
▁භගවා	-11.3765
▁බ්‍රි	-11.3767
86	-11.3769
▁තබාගන්න	-11.3771
▁කනස්සල්ල	-11.3772
▁තටාක	-11.3773
ශනය	-11.3773
ෆයි	-11.3773
▁සංසිඳ	-11.3773
පන්දු	-11.3773
▁රෝගාබාධ	-11.3774
▁පෙරළිය	-11.3776
▁ගැබ	-11.3778
▁එක්වරම	-11.3786
▁නිශා	-11.3788
▁ළමයෙකු	-11.3791
▁ගෙවන්නේ	-11.3791
▁රැකගැනීම	-11.3793
▁උපහාර	-11.3793
▁පිවිසුම	-11.3794
ලේඛ	-11.3795
▁නිකායේ	-11.3795
▁අනුගාමිකයන්	-11.3796
▁දේශගුණය	-11.3798
▁කටකතා	-11.3799
▁සමීක්ෂණය	-11.3803
▁බයිස්කෝප්	-11.3805
▁ශතවර්ෂ	-11.3805
▁ආරාධනය	-11.3805
▁තෙරප	-11.3807
▁ප්‍රේක්ෂකයා	-11.3808
▁දරාගන්න	-11.3808
▁සෑදී	-11.3812
85	-11.3813
▁ලාංඡනය	-11.3813
▁සාදු	-11.3815
▁නිරවද්‍ය	-11.3816
▁තෑග්ග	-11.3819
▁පඳුරු	-11.3819
▁මුදවා	-11.3819
▁ටර්	-11.3819
ම්බු	-11.3824
▁බලවතුන්	-11.3828
▁ජේසු	-11.3829
▁වයස්ගත	-11.3831
▁ටෙලිනාට්‍යය	-11.3832
▁කවදත්	-11.3833
▁පේනව	-11.3833
▁සකස්‌	-11.3835
▁පැවසුවාය	-11.3837
▁අනිද්දා	-11.3839
▁දෙදර	-11.3839
▁රං	-11.384
▁සමුදාය	-11.3841
▁ගෑණි	-11.3842
▁වයිෆ්	-11.3843
▁අම්මගේ	-11.385
▁කල්පනාකාරී	-11.3852
▁දැම්මෙ	-11.3853
▁ජිම්	-11.3853
▁දේශකයා	-11.3857
▁එක්‌ක	-11.3858
▁සීයට	-11.3859
▁52	-11.3861
▁ශෙ	-11.3863
▁ට්‍රිප්	-11.3863
▁ඉරියව්ව	-11.3864
▁අධ්‍යාපනික	-11.3864
▁ආනන්දය	-11.3864
▁අධිරාජ්‍යවාදී	-11.3866
▁දුරකථනයෙන්	-11.3866
▁ඇහ	-11.3867
▁යුතුමය	-11.3868
▁ගාන්න	-11.3869
▁ෆ්‍රෙ	-11.3871
▁යාන්ත්‍රික	-11.3872
▁සෞඛ්‍යයට	-11.3873
▁බැසීම	-11.3876
වෘත	-11.3878
දරුවන්	-11.3878
▁වාත	-11.388
▁ලතින්	-11.3881
88	-11.3881
▁තුලදී	-11.3882
වුඩ්	-11.3882
▁පංකා	-11.3884
▁ඉපද	-11.3885
▁දැනුණා	-11.3887
▁4/	-11.3888
ගනියි	-11.3892
▁වරෙන්	-11.3893
▁කොලෙස්ටරෝල්	-11.3894
▁හෙරොයින්	-11.3894
▁සංඝරත්නය	-11.3894
▁අතරමැදි	-11.3894
▁නිළධාරි	-11.3894
▁95	-11.3895
▁මෙි	-11.3896
▁තෝමස්	-11.3897
/2	-11.3899
▁තරගයේදී	-11.39
කෝටි	-11.3902
▁සෘජුව	-11.3903
▁මෙතනදි	-11.3904
▁සේවකයන්ට	-11.3905
▁පිතිකරුවන්	-11.3906
▁ඉගැන්	-11.3908
▁කීවත්	-11.3908
▁ගසන්න	-11.3908
▁ගර්භ	-11.3909
▁ලීලා	-11.391
වචන	-11.3912
▁ඇරල	-11.3914
▁පොලීසියේ	-11.3914
▁නානායක්කාර	-11.3916
▁ඝෝෂා	-11.3916
▁හන්ද	-11.392
▁ශූරතාව	-11.3921
ෙක්ට්	-11.3922
▁පිරිසක්‌	-11.3922
▁නොදීම	-11.3925
▁පරෙස්සම	-11.3927
▁අසාධාරණයක්	-11.3928
▁විභවය	-11.3928
▁නොවුනත්	-11.393
▁තොගයක්	-11.3931
▁භග	-11.3934
පක්ෂ	-11.3937
▁දක්ෂතාවය	-11.3937
▁සුප	-11.3938
▁ගාමිණි	-11.394
▁කලී	-11.3941
▁වාගේම	-11.3943
▁තොගය	-11.3943
▁මූලධර්මය	-11.3944
▁මුළා	-11.3945
ගැන්	-11.3945
▁සොයාගන්න	-11.3947
▁සර්වඥ	-11.3948
▁ඊශ්‍රායලය	-11.3952
මැර	-11.3953
▁කීර්තිමත්	-11.3953
▁අඩංගුවට	-11.3956
▁වැදුණ	-11.3956
▁නොවන්නට	-11.3957
▁සැත්කම්	-11.3959
▁ගැනිමට	-11.396
▁ඡායා	-11.396
▁රළ	-11.3961
▁ආකර්ශනීය	-11.3961
▁කුණුහරුප	-11.3961
▁තරබාරු	-11.3961
▁නිහාල්	-11.3961
▁ප‍්‍රථම	-11.3961
▁උපන්දින	-11.3962
▁දෑත	-11.3963
▁සිත්තම	-11.3963
▁ධාරා	-11.3964
87	-11.3965
▁පොලු	-11.3967
▁උපන්නේ	-11.3971
▁පොකුර	-11.3971
▁බැඳලා	-11.3974
▁ස්වාධීනත්වය	-11.3974
▁මගුල්	-11.3977
▁පෙරවරු	-11.398
▁සැලකිල්ලක්	-11.398
▁සමරන්න	-11.3982
▁ගිලිහී	-11.3985
▁නන්දා	-11.3986
▁ඉලක්කයක්	-11.3988
▁දර්ශක	-11.3989
/1	-11.399
▁අතිවිශාල	-11.3994
▁පසුබට	-11.3997
▁කැරකෙන	-11.4002
▁සංවිධානාත්මක	-11.4002
▁ගණයේ	-11.4002
▁විදේශිකයන්	-11.4002
පුරුෂ	-11.4003
▁සුප්‍රසිද්ධ	-11.4006
▁විද්වත්	-11.4006
▁පෝෂ්‍ය	-11.4007
▁කූට	-11.4009
▁වාගෙ	-11.401
▁මුහුණුවර	-11.4013
▁අදහස්‌	-11.4014
▁බැලීමෙන්	-11.4014
▁උත්සුක	-11.4017
▁ගුණතිලක	-11.4019
▁අතගා	-11.4023
▁චී	-11.4024
▁පූසා	-11.4026
▁රජතුමාගේ	-11.4027
▁ස්තූතිවන්ත	-11.4029
▁ගුණයෙන්	-11.4033
හෙහ්	-11.4033
▁ගෙනයන	-11.4033
▁සැදැහැ	-11.4039
▁නිහඩ	-11.404
▁නාඩගම	-11.404
ධ්‍ය	-11.4041
▁කුට්ටි	-11.4041
බුද්ධ	-11.4042
▁පීර	-11.4043
▁ලොරි	-11.4044
▁දෙගොල්ල	-11.4044
▁මක්ක	-11.4045
▁සැපයුම්කරුවන්	-11.4045
▁තෑග්ගක්	-11.4048
▁පරිමාව	-11.4053
▁සිලින්ඩර	-11.4054
▁වැකිය	-11.406
▁කියනවනම්	-11.4061
ගැන්වීම	-11.4061
▁එපමණ	-11.4066
▁අම්ලය	-11.4069
▁පැරිස්	-11.4072
▁වාරණය	-11.4073
▁ක‍්‍රියාවලිය	-11.4075
▁සැලකෙන්නේ	-11.4076
▁1988	-11.4077
▁ශ්‍රීලනිප	-11.408
▁කැස්ස	-11.4081
▁දුගී	-11.4081
ඞී	-11.4082
▁දැරීමට	-11.4083
ලොස්	-11.4084
▁නිර්ණායක	-11.4085
▁හැමෝගෙම	-11.4085
▁විනාශකාරී	-11.4086
▁විශ්‍රාමික	-11.4086
▁සම්බන්ධීකරණ	-11.4089
▁කාරණයකි	-11.4092
▁ආයතනවලට	-11.4093
▁මිසයිල	-11.4095
▁මණ්ඩපය	-11.4096
▁පළමුවෙන්	-11.4096
▁විලාසය	-11.4097
▁තරඟාවලිය	-11.4097
▁දුරස්	-11.41
▁නිවුස්	-11.4101
▁බල්බ	-11.4104
▁හැදීම	-11.4107
▁1971	-11.4111
▁ගොවිතැන්	-11.4111
▁කැරැ	-11.4113
▁මෙතැනදී	-11.4115
▁කෙනෙක්‌	-11.4116
▁ඇහුවම	-11.4118
▁එක්වී	-11.4119
▁ගැසෙ	-11.412
▁යෙදුණ	-11.4121
▁දිවියේ	-11.4123
▁ටූ	-11.4125
▁සාලි	-11.4125
▁බඹර	-11.4128
▁ජනප්‍රවාද	-11.413
▁තැති	-11.4132
▁රේල්	-11.4133
▁කාඩ්පත්	-11.4134
▁කොහොමටත්	-11.4139
ට්ඨි	-11.4141
පොර	-11.4142
▁අලු	-11.4145
ෝදය	-11.4147
▁ශාප	-11.4147
▁හිතමු	-11.4149
▁ශක්‌තිය	-11.4153
▁පළිගැනීම	-11.4154
▁අමුණ	-11.4155
▁සාතන්	-11.4156
▁දැක්වූයේ	-11.4156
▁සාගරයේ	-11.4158
▁කැලෑව	-11.416
▁මලල	-11.4162
කොහොම	-11.4163
▁සොරි	-11.4165
▁නරඹන	-11.4166
▁රැගත්	-11.417
▁දරාගෙන	-11.4172
▁අධිෂ්ඨානය	-11.4173
▁විදේශගත	-11.4174
වතුර	-11.4175
ීනා	-11.4175
▁පරිශ්‍රය	-11.4176
▁තේමා	-11.4178
▁නත්තල	-11.418
▁කෙරී	-11.4182
▁අජ	-11.4188
▁අකිල	-11.419
සන්ධි	-11.4194
එතකොට	-11.4195
▁නොදකින	-11.4197
▁මැදුර	-11.4197
▁නැව්ගත	-11.4198
▁ෆැන්ටසි	-11.4199
▁පිටතින්	-11.4199
▁ප‍්‍රජාව	-11.4199
▁නේවාසික	-11.4204
▁හවුස්	-11.4204
▁දෙරට	-11.4207
▁රහිතව	-11.4209
▁තෙන්නකෝන්	-11.421
▁සෘතු	-11.421
▁තිබීමයි	-11.4211
▁හවස්	-11.4214
▁කොරියාවේ	-11.4216
▁එකේදි	-11.4217
▁සවිස්තරාත්මක	-11.4222
▁පැළෑටි	-11.4222
▁නිවෙසට	-11.4222
▁කලවම්	-11.4224
▁කාන්තාවකට	-11.4228
▁කිතුනු	-11.4229
▁තනු	-11.4229
▁කොච්චි	-11.4232
▁ඒවගේ	-11.4232
▁අමරතුංග	-11.4234
▁නුදුරු	-11.4236
▁ගෙවත්ත	-11.4238
▁ශාස්ත්‍රය	-11.424
▁ගඟේ	-11.4243
▁පැවසුවේය	-11.4245
▁දැනුනේ	-11.4245
▁සංස්ථා	-11.4246
▁ක්ෂේත‍්‍රය	-11.4247
▁තීර	-11.4248
සාධන	-11.4249
▁පනා	-11.425
▁කාලෙදි	-11.425
▁හැඳුනුම්පත	-11.425
▁නීතිගත	-11.4251
▁නොලැබුණ	-11.4253
▁සහයෝගයෙන්	-11.4254
▁නිර්මාණකරුවන්	-11.4255
▁රථවාහන	-11.4256
▁ත්‍රස්‌ත	-11.4256
▁බ්ලොක්	-11.4256
▁මාලිගය	-11.4257
ෙත්වා	-11.4263
▁මට්ටමෙන්	-11.4265
▁ස්කන්ධ	-11.4267
▁සමතුලිත	-11.4268
▁මුස්ලිම්වරුන්	-11.4274
▁සාපේක්‍ෂ	-11.4279
▁කේන්තිය	-11.4282
▁ඇහුණ	-11.4282
▁පළවූ	-11.4283
ළො	-11.4283
▁අනුරුද්ධ	-11.4291
▁මායිම	-11.4292
▁හැලපයා	-11.4295
▁වට්ටෝරු	-11.4295
▁වාසස්ථාන	-11.43
▁මෙහෙන්	-11.4301
▁ජයග්‍රාහී	-11.4302
▁අනාරක්ෂිත	-11.4302
▁පේර	-11.4303
▁දෙබස්	-11.4303
කඳ	-11.4303
▁වැඬේ	-11.4305
▁තබමින්	-11.4309
▁ප්‍රශ්ණයක්	-11.431
▁එකමුතුව	-11.431
▁ඉන්දුනීසියාව	-11.4314
▁කථිකාචාර්ය	-11.4314
▁කාලි	-11.4318
▁හැඳින්වෙන්නේ	-11.4318
ලිකා	-11.4319
▁දිනපොත	-11.4319
▁නිළි	-11.4319
▁ගුන	-11.432
▁හිතෙන්න	-11.4323
▁විඳිනවා	-11.4323
▁පැමිණෙන්න	-11.4323
▁මාෆියාව	-11.4326
▁පාවහන්	-11.4326
▁උපදවන	-11.4326
▁ශ්ර	-11.433
නුවන්	-11.4334
▁අහවර	-11.4335
▁උපසම්පදා	-11.4337
0.00	-11.4338
පිලි	-11.4342
▁නගන්න	-11.4343
▁තාප්ප	-11.4344
▁බෝතලයක්	-11.4347
▁මිනීමැරුම	-11.4349
▁මඟහැර	-11.4352
ගැසීම	-11.4354
▁ජාතකය	-11.4356
▁කාමරයක්	-11.4357
▁සංකේතවත්	-11.4357
ලොග්	-11.4359
▁දූපතේ	-11.436
▁සෝභිත	-11.436
▁රෝපණය	-11.436
▁පඬු	-11.4361
▁කරන්නාවූ	-11.4361
▁ලැයිස්තුවක්	-11.4364
▁නවීකරණය	-11.4364
▁රූම්	-11.4367
▁බසින	-11.4368
▁රැහැන්	-11.4368
▁අර්ථකථනය	-11.4369
▁අනුගාමික	-11.4371
▁සිතිවිල්ල	-11.4372
▁යහළු	-11.4372
▁චමින්ද	-11.4376
▁පරාද	-11.4377
▁මොහ	-11.4377
▁පුද්ගලයෙකුගේ	-11.4385
▁විශ්ලේෂණ	-11.4385
81	-11.4388
ගෙනි	-11.4388
▁කප්ප	-11.4389
83	-11.4389
කියන	-11.4393
▁ඇඳලා	-11.4395
▁නිවේදක	-11.4396
▁කරවීමට	-11.4396
▁පිවිසි	-11.4397
▁ප්‍රයෝග	-11.4398
ිමු	-11.4398
▁උත්සාහයන්	-11.4399
▁සඟරා	-11.4405
▁යාලුවො	-11.4405
▁කඩාකප්පල්	-11.4407
▁කැලරි	-11.4408
▁ශතකය	-11.4408
▁ගෝත්‍ර	-11.4416
▁සද්දයක්	-11.4416
▁හේතූන්	-11.4419
▁ලාම්පු	-11.4419
▁බොරැල්ල	-11.442
▁කියවෙන්නේ	-11.4424
▁උදරය	-11.4424
▁දෙනෙත්	-11.4426
▁කොලො	-11.4427
▁නෙට්	-11.4428
▁මැක	-11.443
▁ස්වේච්ඡා	-11.4431
▁උපකරණයක්	-11.4433
▁වජිර	-11.4433
ුවහොත්	-11.4434
▁විරෝධි	-11.4442
▁අබේසේකර	-11.4443
▁පොල්තෙල්	-11.4444
▁දැවෙන	-11.4445
93	-11.4452
84	-11.4454
▁සංහාරය	-11.4456
▁83	-11.4457
▁විනාශයක්	-11.4461
සරණ	-11.4465
▁අනපේක්ෂිත	-11.4466
▁1987	-11.4469
▁යෝගය	-11.4469
▁පිළියමක්	-11.447
▁ප්රශ්නය	-11.447
▁කණගාටු	-11.4471
▁විස්මය	-11.4475
▁සෙල්ලිපි	-11.4478
වැන්නේ	-11.4478
▁සෙනෙවිරත්න	-11.4478
▁සත්‍යයකි	-11.4479
▁වමේ	-11.448
▁සීගිරිය	-11.4481
▁ආක්‍රමණ	-11.4481
▁පුරවැසිභාවය	-11.4482
▁මැනවි	-11.4482
▁වෘත්ත	-11.4483
ොයිඩ්	-11.4483
▁මහත්තුරු	-11.4486
▁සිතමින්	-11.4486
▁කියද්දි	-11.4488
▁මිදීම	-11.4488
▁අතුරෙන්	-11.4489
▁රූපලාවණ්‍ය	-11.4489
▁ගැමුණු	-11.449
▁කාඩ්පත	-11.4492
▁තෙත	-11.4494
ග්‍රෑම්	-11.4499
▁මළුව	-11.45
▁කෙරෙන්	-11.4503
▁බෙදන	-11.4504
▁එවං	-11.4504
▁තැල	-11.4505
▁තදින්ම	-11.4507
▁නොබෙල්	-11.4512
▁අගවිනිසුරු	-11.4513
96	-11.4515
▁ගණිකා	-11.4516
▁පරිශීලකයා	-11.4516
▁වාස්තු	-11.4516
▁මෘත	-11.4517
▁නගරවල	-11.4517
▁වැරදුන	-11.4518
▁තලයේ	-11.4519
▁චෝ	-11.4519
▁සෝමා	-11.452
දෘෂ්ටි	-11.4521
▁හුගක්	-11.4525
▁දාගත්ත	-11.4526
කුදු	-11.4527
▁සංස්කාරක	-11.4528
▁පත්වීම්	-11.4528
▁ප්‍රාන්තය	-11.453
▁වන්නෙ	-11.453
▁දාර	-11.453
▁දෙකේම	-11.4531
▁සිදුකරනු	-11.4532
▁ඇහුම්කන්	-11.4537
▁මුස්ලීම්	-11.4537
▁මාක්ස්වාදී	-11.4537
▁පින්කම	-11.4538
ම්ම්ම්	-11.4539
▁54	-11.4541
▁කේන්ද්‍රීය	-11.4543
▁හොයනවා	-11.4546
▁ප්රමාණවත්	-11.4549
▁වියපත්	-11.4549
▁මිදීමට	-11.4554
නිෂ්	-11.4555
▁බ්ලූ	-11.4559
▁මැරුව	-11.4559
▁මහරහතන්	-11.456
▁පාටි	-11.4561
▁මැසි	-11.4564
▁සළු	-11.4568
▁ගැලවී	-11.4572
▁ගැවසෙන	-11.4573
▁දනවන	-11.4573
▁අරඹ	-11.4574
▁කට්ටල	-11.4575
▁සංසදය	-11.4577
▁ලණු	-11.4579
▁බලාගාර	-11.458
▁කොමිස්	-11.4582
▁ප්‍රතිපදාව	-11.4584
▁කාරයන්	-11.4587
▁ඇසීමට	-11.4589
▁දීඝ	-11.4592
▁වපුර	-11.4594
▁කෙනෙකි	-11.4597
▁පාපැදි	-11.4608
▁ඉටි	-11.4609
▁හෑල්ල	-11.4609
ිණී	-11.4609
▁හියු	-11.4611
▁නොතිබුණු	-11.4612
▁පැලඳ	-11.4613
▁ලැයිස්තු	-11.4614
▁නළල	-11.4618
▁ගලවලා	-11.4619
▁ස්ල	-11.4619
▁යොදාගත්	-11.462
▁ආපස්සට	-11.462
▁සංස්ථාවේ	-11.4623
▁1999	-11.4626
▁වෙළඳසැල	-11.4628
▁ආදීනව	-11.463
▁ප්‍රත්‍යක්ෂ	-11.4634
▁ගනිද්දී	-11.4635
▁මධ්‍යස්ථානයක්	-11.4637
▁කොට්ඨාශය	-11.4638
▁නිවෙස්වල	-11.4639
▁ඒකකයේ	-11.4641
▁එක්රැස්	-11.4644
▁වෙනසකට	-11.4646
▁දිලිසෙන	-11.4647
▁ඇල්ලීමේ	-11.4648
▁අලින්	-11.4653
▁අරින	-11.4653
▁සාරය	-11.4654
▁නාකි	-11.4654
▁අවුත්	-11.4658
▁ඇසුවා	-11.4661
▁අපුරු	-11.4661
▁විසදුම	-11.4663
▁ඩිංග	-11.4665
▁පැවැත්විය	-11.4665
▁ජනගහණය	-11.4668
▁නොපෙනී	-11.4668
▁මර්වින්	-11.4669
▁පතිරණ	-11.467
▁ටීම්	-11.467
▁තෙරුවන්	-11.4671
▁1983	-11.4671
▁සාරිය	-11.4674
වැටී	-11.4678
▁පෙත්සම	-11.4682
▁කිම්	-11.4688
▁හරිහැටි	-11.4692
▁ගෞරවනීය	-11.4694
යුත්තේ	-11.4694
▁ආරිය	-11.4696
▁සිතුම්	-11.4697
▁ප්‍රසාදය	-11.4697
වන්නෙ	-11.4697
▁ටවුම	-11.4697
▁පානීය	-11.4699
▁නොදැනීම	-11.4701
▁මලයා	-11.4703
▁විෂයන්	-11.4703
▁ඔක්තෝම්බර්	-11.4704
▁විචිත්‍ර	-11.4704
▁රශ්මි	-11.4704
▁වනාහී	-11.4705
▁සම්බන්ධකම්	-11.4705
▁අඬන්න	-11.4713
▁හාමුදුරුවන්ට	-11.4713
▁අශ	-11.4716
▁ඥානසාර	-11.4717
්‍යු	-11.4718
82	-11.4718
▁එවර	-11.4718
▁පහලින්	-11.4718
▁උන්ගෙ	-11.4723
ියෙල්	-11.4724
▁ස්ථර	-11.4726
▁හුවා	-11.4726
▁පැවැත්විණි	-11.4729
▁අනතුරුදායක	-11.4731
▁නූල	-11.4733
▁ලංකාදීප	-11.4734
▁මිනිස්සුන්ගෙ	-11.4734
▁පහදා	-11.4735
▁ත්‍රිත්වය	-11.4737
▁තම්බා	-11.4738
▁පිරිමියෙක්	-11.4739
▁මැලි	-11.474
කිරිම	-11.474
▁වූවකි	-11.4744
ාංක	-11.4746
▁යනවිට	-11.4748
▁දැනගත්තේ	-11.4749
▁පියුමි	-11.4753
▁මැනීම	-11.4757
▁නිවහන	-11.4758
▁සිසුවිය	-11.476
▁පිරිනම	-11.4763
▁කියුබාව	-11.4765
▁වැසිකිලි	-11.4765
▁අඩපණ	-11.4765
▁උද්ගත	-11.4765
▁යුද්දෙ	-11.4766
▁අමතමින්	-11.4768
▁පතල්	-11.4771
▁කෙරුණි	-11.4773
▁දහතුන	-11.4774
▁අමානුෂික	-11.4777
▁උපසිරසි	-11.4777
▁මාලදිවයින	-11.4777
▁පොසොන්	-11.4777
▁ආදාහන	-11.4777
▁විහාරාධිපති	-11.4778
▁හැන්දෑව	-11.4778
▁සාමාජිකයෙකු	-11.478
▁දාන්නෙ	-11.4782
▁නැගිටලා	-11.4783
▁නොදුටු	-11.4789
▁අග්ග	-11.479
ලියානු	-11.4791
▁92	-11.4793
▁ෆර්	-11.4793
▁වෙළෙඳාම	-11.4795
▁කාමුක	-11.4795
▁සමූහයක්	-11.4797
▁සුසාන	-11.4799
▁අවබෝධයෙන්	-11.48
▁පෙට්‍රල්	-11.4801
▁කරළියට	-11.4802
▁ජීවතුන්	-11.4804
▁නොදන්නවා	-11.4805
▁ධූර	-11.4805
▁නියෝජිතයා	-11.4805
▁ඇරඹෙන	-11.4807
▁ජනාධිපතිවරණයේදී	-11.4812
▁ද්වේශ	-11.4813
▁ආරණ්‍ය	-11.4813
▁සාධු	-11.4813
▁තරුණියක්	-11.4816
▁අසුබ	-11.4819
▁අයිතම	-11.482
▁දරාගත	-11.4826
සුන්දර	-11.4827
▁තිදෙනෙකු	-11.4829
▁නහය	-11.4833
▁සිතමු	-11.4835
▁ගොසිප්	-11.4838
▁අසහනය	-11.4838
▁ඌන	-11.4841
▁ලෙවල්	-11.4843
පෝෂ	-11.4844
▁එකවරම	-11.4844
▁මීදුම	-11.4846
▁පරීක්‍ෂණය	-11.4848
▁ජනවාර්ගික	-11.485
▁පිරිනැමීම	-11.485
▁මුද්‍රිත	-11.485
▁(5)	-11.485
▁ගන්ට	-11.4851
▁එතනදි	-11.4853
▁කෘෂිකර්මය	-11.4854
▁85	-11.4856
▁ජරාව	-11.4858
▁බමුණු	-11.4858
▁සියල්ලන්ම	-11.4858
▁ක්‍රියාකාරි	-11.4859
▁පාලම්	-11.4861
▁හල්	-11.4862
▁කි‍්‍රයාත්මක	-11.4862
▁අනුබද්ධ	-11.4863
▁විවාහයෙන්	-11.4864
▁ඉස්සරහා	-11.4865
▁නිසැකය	-11.4865
▁විවේකයක්	-11.4865
▁පිරිවෙන	-11.4868
වරණය	-11.4869
▁කළුවර	-11.4872
▁දඹදිව	-11.4874
▁සීත	-11.4875
▁සුචරිත	-11.4876
▁ප්‍රමිති	-11.4877
▁සමරු	-11.4882
▁නිමිති	-11.4885
▁සංස	-11.4885
▁කිරීමෙනි	-11.4886
▁සූදුව	-11.4887
▁බිංදු	-11.4887
▁යෙදුණු	-11.4887
▁ගයාන්	-11.4889
▁සමීක්ෂණ	-11.4889
▁හැසිරෙන්න	-11.4889
▁කසා	-11.4891
මිත්‍ර	-11.4891
මිණ	-11.4893
▁නොතේර	-11.4893
▁සිතියම්	-11.4894
▁සමථ	-11.4894
▁හැකිතාක්	-11.4896
ශ්න	-11.4896
▁යැව්ව	-11.4897
▁එළිමහන්	-11.4899
▁මිථ්‍යාව	-11.49
ෙව්වේ	-11.49
▁කූපන්	-11.4901
▁හවුල	-11.4904
▁ගමනාගමනය	-11.4904
ුද්ධ	-11.4906
▁ගෙම්බ	-11.4907
ක්ෂන	-11.4907
▁පාවෙන	-11.491
▁සවිකර	-11.491
▁ශ්වසන	-11.4911
▁පරිහානිය	-11.4911
▁තිබෙ	-11.4913
▁උමං	-11.4913
ලොක්	-11.4913
▁බ‍්‍ර	-11.4914
ලොකු	-11.4914
ාචාර්ය	-11.4915
▁නාන්න	-11.4918
▁තැවර	-11.4919
▁හෘදයාබාධ	-11.4924
▁සන්තෝස	-11.4928
▁පිසීම	-11.4929
සයිඩ්	-11.4933
▁පෙත්සම්	-11.4934
ගෙනුත්	-11.4934
▁හැදෙනවා	-11.4935
▁ඉඟුරු	-11.4936
▁උනන්දුවෙන්	-11.4936
▁නෙරප	-11.4942
▁දාහක්	-11.4944
▁උමා	-11.4944
▁72	-11.4944
▁සාධාරණයක්	-11.4947
▁වීරයන්	-11.4948
▁පරික්ෂණ	-11.4949
▁අපයෝජනය	-11.4951
▁එයාලගෙ	-11.4951
▁ප්‍රදේශයෙන්	-11.4955
▁ගරුත්වය	-11.4955
▁ක‍්‍රියාව	-11.4956
▁එතුම	-11.4957
▁සැරිසරන	-11.4961
▁ආයෝජකයන්	-11.4962
▁හුඟාක්	-11.4963
▁එඩ්	-11.4963
▁තේරුනේ	-11.4965
▁තොරණ	-11.4965
▁අපරාදේ	-11.4967
▁එදත්	-11.4967
▁කලිසම්	-11.4969
▁සගයන්	-11.4972
▁නාහිමි	-11.4972
▁කාමරයක	-11.4972
▁වරුව	-11.4972
▁වළකින්න	-11.4973
▁ටෙන්ඩර්	-11.4974
▁වඩු	-11.4974
▁නියුතු	-11.4974
▁මන්දිර	-11.4975
▁පවත්වනු	-11.4975
▁පුරවන්න	-11.4976
පාලි	-11.498
▁වළල්ල	-11.4981
▁යුතුමයි	-11.4981
▁සෝස්	-11.4983
සභා	-11.4984
▁වට්ටම්	-11.4986
▁ප්‍රමාණයකට	-11.4986
කාලෙ	-11.4986
▁මූලාශ්‍රය	-11.4987
▁ක්‍රො	-11.4987
▁පාලු	-11.4987
▁ගැයූ	-11.4988
▁විශ්	-11.4988
▁පැහැපත්	-11.4989
▁මුදුනේ	-11.4993
බිලි	-11.4993
▁සොල්දාදුවන්	-11.4996
▁නොතිබීම	-11.4998
▁මඩකලපුව	-11.4998
▁අයිතිකාරය	-11.4998
▁ඇදහිය	-11.4998
ශුද්ධ	-11.4999
▁උෂ්ණත්ව	-11.5
▁නැවතිලා	-11.5002
එසේ	-11.5005
▁ආසියාතික	-11.501
▁ජැක්සන්	-11.5013
▁කුළුණ	-11.5013
▁බීල	-11.5013
▁සැමගේ	-11.5014
▁ඔක්කොටම	-11.5023
▁සැතප	-11.5025
▁මිත්‍රත්වය	-11.5027
තාර	-11.5029
▁නපුර	-11.5033
97	-11.5035
▁මෙව්වා	-11.5037
▁දෙතොල	-11.5042
▁ප්‍රෝටීන්	-11.5042
▁සාරා	-11.5043
▁ව්‍යුහ	-11.5044
▁පිරෙන්න	-11.5045
වාහිනී	-11.5046
▁ජයගත්	-11.505
▁වැටෙයි	-11.5051
▁කසල	-11.5052
▁අනෝ	-11.5054
▁ලිවුව	-11.5054
▁නිමවා	-11.5056
▁දැරියන්	-11.5058
▁රන්වන්	-11.506
බද්ධ	-11.5061
▁හේවා	-11.5062
▁ගම්මානයේ	-11.5063
▁කොට්ඨාස	-11.5066
පැහැ	-11.5067
▁කියැවීම	-11.5068
▁ගියහොත්	-11.5068
▁පිරිසකගේ	-11.5068
▁උසින්	-11.5071
▁සෞ	-11.5071
▁නොගැලපෙන	-11.5072
▁ඵලදායි	-11.5073
▁නදිය	-11.5073
▁මහාධිකරණ	-11.5073
▁ගර්භනී	-11.5075
▁හදවතින්ම	-11.5077
▁හලාල්	-11.5078
▁53	-11.5079
▁ඇණවුම	-11.5079
න්නාහු	-11.5083
▁පිල්ල	-11.5084
▁අසභ්ය	-11.5085
▁බොලිවුඩ්	-11.5085
▁වින්‍යාස	-11.5085
▁දෛවය	-11.5085
▁පත්තිනි	-11.5085
▁යාත්‍රාව	-11.5089
▁වර්ජන	-11.509
▁මාරයාගේ	-11.509
▁නැත්ද	-11.5091
ධ්	-11.5093
▁චිර	-11.5093
▁හැදුණ	-11.5094
▁කෝරලේ	-11.5097
දක්වා	-11.5104
▁සිංහරාජ	-11.5104
බ්‍රි	-11.5104
▁පොලිස්පතිවරයා	-11.5107
▁2)	-11.5109
▁ශික්ෂණ	-11.5111
▁සැකසූ	-11.5116
▁ජවය	-11.5118
▁කෝප්	-11.5119
▁මේවගේ	-11.5121
▁ශීඝ්‍ර	-11.5123
▁ඇඟලුම්	-11.5123
▁මහාවංශය	-11.5124
▁පිරිවර	-11.5124
▁අර්හත්	-11.5128
▁විඳිමින්	-11.5132
▁නොඉවස	-11.5135
▁ජාතිකයින්	-11.5138
▁රජුන්	-11.5138
▁මකුළු	-11.5139
▁යාපා	-11.5147
▁යථාර්ථවාදී	-11.5148
▁රෝල	-11.5148
▁බාගෙට	-11.5149
▁විප්ලවීය	-11.5151
▁බහි	-11.5151
▁ගම්‍ය	-11.5153
▁සම්මුති	-11.5157
▁ගේමක්	-11.516
▁සංවත්සරය	-11.516
▁විෂ්ණු	-11.516
▁ශ්‍රේණියේ	-11.5161
▁ඒකාන්තයෙන්	-11.5161
▁ගරා	-11.5162
▁පෝලිම	-11.5164
▁හිතපු	-11.5165
▁ශාසනයෙහි	-11.5167
▁පිරිමියා	-11.5167
▁බැන්න	-11.5167
▁වයලීන	-11.5168
▁වෛද්‍යවරයෙක්	-11.5173
▁ප්රයෝජනවත්	-11.5173
▁පිංතූර	-11.5173
▁සභික	-11.5174
▁වාසනාවකට	-11.5174
▁එනකම්	-11.5181
▁බෑවුම	-11.5182
▁ශිලා	-11.5185
▁වැලැක්වීම	-11.5186
▁සංවේදක	-11.5186
▁සංචිතය	-11.5187
▁නවත්වා	-11.5187
▁කේබල්	-11.5189
▁නිගමන	-11.5189
▁ගෘහපති	-11.5191
▁අස්වනු	-11.5192
▁ගොනා	-11.5193
▁ලමය	-11.5194
▁පාලකයින්	-11.5196
ඩරය	-11.5197
▁හොරණ	-11.5198
▁පලවා	-11.5198
▁විශ්ලේෂක	-11.5198
▁මුද්දර	-11.5198
දාහක්	-11.5199
▁ප්‍රතිකර්ම	-11.5203
▁දාන්නම්	-11.5204
72	-11.5205
▁ඉන්ඩ	-11.5206
▁පෙනෙන්න	-11.521
▁ලොම්	-11.521
▁ලිනක්ස්	-11.5211
▁සුවිශේෂි	-11.5213
▁වින්දිත	-11.5215
▁ස්‌ථ	-11.5217
▁බටහිරයන්	-11.5217
▁අදහසින්	-11.5219
▁බණ්ඩා	-11.5221
▁හැත්තෑව	-11.5223
▁පෝෂක	-11.5224
▁විදර්ශනා	-11.5224
▁අවුට්	-11.5227
▁පැතිරෙන	-11.5232
▁මිත්‍යාව	-11.5234
▁සින්දුවක්	-11.5235
වරයෙකි	-11.5235
▁හිතවාදී	-11.5237
▁මාදිලි	-11.5237
▁දාවිත්	-11.5237
▁බාල්දි	-11.5237
▁ආදරවන්ත	-11.524
▁කඩයක්	-11.5243
▁දක්ෂිණ	-11.5245
▁58	-11.5247
▁රජකම	-11.5247
▁ආයුබෝවන්	-11.5249
▁පරිස්සමින්	-11.5249
▁උදාසීන	-11.5249
▁ආරංචියක්	-11.5251
▁නිර්දේශිත	-11.5252
▁ගොඩනැගෙන	-11.5254
කෑම	-11.5255
▁නිදහස්‌	-11.5255
කෙළ	-11.5256
76	-11.5256
තිරි	-11.5258
▁94	-11.5259
▁විචාරණය	-11.5261
▁මුස්‌ලිම්	-11.5262
සමාජ	-11.5262
▁කුරුලෑ	-11.5263
කොටස	-11.5265
▁විරිත්	-11.5266
▁පෝලිමේ	-11.5266
රූපය	-11.5267
▁මුහු	-11.5274
▁ගෙවූ	-11.5274
▁වික්ටෝරියා	-11.5275
▁නොතේරෙන	-11.5283
▁මුන	-11.5285
▁64	-11.5287
▁කූඩාරම	-11.5288
▁රජ්ජුරුවෝ	-11.5288
▁සම්ප්‍රේෂණය	-11.5289
▁ආයතනික	-11.5289
▁තීරයේ	-11.529
▁අසූව	-11.5291
▁වාග්	-11.5294
▁බෙදන්න	-11.5296
▁මාධ්ය	-11.53
▁හේත්තු	-11.53
▁ඔර	-11.5301
▁පවුම්	-11.5307
▁දුවලා	-11.531
▁බයිලා	-11.5312
▁උගත	-11.5312
▁විදුහලේ	-11.5313
▁මිනිය	-11.5315
▁ඹ	-11.5317
▁මොල	-11.532
▁පැවැත	-11.5321
▁සමීකරණ	-11.5322
▁දිල්ලි	-11.5322
▁රාජකාරී	-11.5324
▁පාකිස්තාන	-11.5324
▁ඇවෑමෙන්	-11.5326
▁කාලයකදී	-11.5326
වැටි	-11.5329
▁පෝස්ටර්	-11.533
▁බැහැල	-11.533
▁ප්‍රවේශම්	-11.5331
▁ගසමින්	-11.5333
▁ගැටෙන	-11.5335
ලියන	-11.5336
▁පතන්න	-11.5337
පියා	-11.5337
▁චිත්‍රපටවල	-11.5337
▁ඉගන	-11.5339
▁භාග	-11.5341
▁ඇල්ලුව	-11.5341
▁88	-11.5342
▁දහඩිය	-11.5342
▁නිවාඩුවක්	-11.5343
▁ප්‍රෝටීන	-11.5344
▁මයෙ	-11.5344
▁ඉස්සෙල්ලම	-11.535
▁දැනගත්තා	-11.5351
▁චරිතාපදාන	-11.5351
▁සෝදිසි	-11.5352
▁සුනාමිය	-11.5352
▁කන්නෙ	-11.5353
▁පිටකොටුව	-11.5354
▁වෙන්වීම	-11.5355
▁කාගේත්	-11.5356
▁පත්වූයේ	-11.5356
▁ගණයට	-11.5359
▁වෙදනා	-11.5359
▁ඉදිකළ	-11.5359
▁යක්ෂයා	-11.5362
▁යාලුවෝ	-11.5363
▁අලෙවිකරණය	-11.5364
▁බොනවා	-11.5365
▁බැඳගෙන	-11.5365
▁නිරවුල්	-11.5366
▁හිතින්	-11.5366
▁එළවලු	-11.5367
▁අභිධර්ම	-11.5368
▁ගින්නෙන්	-11.5368
▁පැවතියේ	-11.5369
▁රත්නය	-11.5371
▁මුවින්	-11.5376
▁ගැති	-11.5379
▁ගතිගුණ	-11.538
▁අලුයම	-11.538
▁අය්යා	-11.5382
ාධිකාරී	-11.5382
▁නෝට්ටු	-11.5385
▁පච	-11.5387
▁බන්ධනාගාරයේ	-11.5387
▁නොඑසේ	-11.5387
[...]
